<unk>	0
<s>	0
</s>	0
▁	-3.41959
s	-3.60701
1	-4.44305
3	-4.44684
2	-4.45476
4	-4.4623
ed	-4.62577
ing	-4.69136
5	-4.70214
7	-4.70774
9	-4.70795
6	-4.70824
8	-4.70961
0	-4.78971
▁Ġ	-4.84488
y	-5.25354
ly	-5.6113
d	-5.71752
e	-5.77327
▁2	-5.91167
▁1	-5.91334
▁3	-5.91537
▁4	-5.91815
er	-6.20948
al	-6.33965
es	-6.38111
▁48	-6.44918
▁30	-6.44925
▁40	-6.44928
▁47	-6.44932
▁49	-6.44933
▁46	-6.44939
▁38	-6.4495
▁39	-6.44952
▁28	-6.44963
▁37	-6.44971
▁27	-6.44973
▁36	-6.44973
▁29	-6.44975
▁26	-6.44984
▁17	-6.44987
▁16	-6.45031
▁45	-6.45044
▁35	-6.45071
▁18	-6.45081
▁25	-6.45118
▁15	-6.45121
▁10	-6.45322
▁20	-6.46065
▁19	-6.4664
19	-6.49783
▁23	-6.52265
▁44	-6.52297
▁43	-6.52323
▁34	-6.52337
▁24	-6.52368
▁14	-6.52392
▁13	-6.52415
▁33	-6.52427
▁42	-6.52546
▁32	-6.52562
▁22	-6.52621
▁12	-6.52648
▁41	-6.53226
▁31	-6.53242
▁21	-6.53275
▁11	-6.53403
20	-6.53585
10	-6.54715
40	-6.54968
30	-6.55116
t	-6.55353
18	-6.55569
38	-6.56589
26	-6.5659
37	-6.56606
28	-6.56628
27	-6.56652
36	-6.56719
29	-6.56807
49	-6.56819
16	-6.56832
46	-6.56838
17	-6.56855
48	-6.56932
47	-6.56938
35	-6.56955
39	-6.56979
45	-6.57067
15	-6.57118
25	-6.57379
n	-6.60517
▁5	-6.60899
▁8	-6.66247
▁9	-6.66555
34	-6.67516
14	-6.67535
▁7	-6.67538
42	-6.67555
44	-6.67676
24	-6.67775
▁6	-6.6785
32	-6.67851
33	-6.67884
12	-6.67889
41	-6.67966
13	-6.67976
43	-6.68061
22	-6.68115
31	-6.68126
23	-6.68204
11	-6.68286
21	-6.68419
ies	-6.71755
on	-6.72083
a	-6.72733
50	-6.7489
ity	-6.78041
▁ĠS	-6.81274
90	-6.81424
80	-6.81847
60	-6.81863
70	-6.81866
97	-6.83144
96	-6.83317
98	-6.83371
76	-6.83542
86	-6.83618
67	-6.83641
77	-6.83647
87	-6.83653
78	-6.83686
68	-6.83695
88	-6.83714
69	-6.83724
56	-6.83741
95	-6.83766
58	-6.8377
89	-6.83776
79	-6.83779
99	-6.83896
57	-6.83906
85	-6.83952
59	-6.83981
66	-6.83996
65	-6.84003
55	-6.84099
75	-6.84157
00	-6.89212
07	-6.93233
08	-6.93343
06	-6.93395
09	-6.93449
05	-6.93563
94	-6.97649
54	-6.97778
84	-6.97898
74	-6.97924
64	-6.97964
92	-6.97976
r	-6.97991
52	-6.9802
93	-6.98076
62	-6.98124
82	-6.98188
53	-6.98219
72	-6.98266
91	-6.98341
73	-6.98373
63	-6.98378
51	-6.98477
83	-6.98502
61	-6.98623
81	-6.98706
71	-6.99122
ation	-6.99173
ion	-6.99332
o	-7.02628
01	-7.06538
02	-7.06789
04	-7.07473
03	-7.07965
▁ĠC	-7.18508
able	-7.20748
l	-7.23132
ic	-7.25826
▁ĠA	-7.26301
▁ĠP	-7.28719
m	-7.40074
ry	-7.44122
en	-7.46883
ary	-7.47235
S	-7.47335
an	-7.47882
h	-7.48813
le	-7.48885
us	-7.51938
▁i	-7.53448
in	-7.54851
▁ĠD	-7.55811
▁ĠM	-7.6106
▁ĠB	-7.62941
ers	-7.63813
▁ĠF	-7.70471
g	-7.7062
st	-7.71667
▁Ġun	-7.71849
▁ĠT	-7.73263
or	-7.73719
k	-7.73905
ment	-7.73994
i	-7.77426
▁a	-7.77435
▁o	-7.78469
▁ĠR	-7.81789
▁ĠL	-7.82148
▁50	-7.83743
ive	-7.85524
▁ĠE	-7.88075
▁ĠH	-7.89628
ce	-7.90281
ally	-7.93297
ty	-7.93635
"	-7.9404
z	-7.94186
p	-7.96777
▁A	-7.97039
▁S	-7.97048
u	-7.97331
age	-7.97874
▁ĠG	-7.98134
th	-8.017
K	-8.05363
▁ĠN	-8.06553
ton	-8.0772
x	-8.0794
ance	-8.08895
ve	-8.09222
ness	-8.10159
c	-8.10227
▁500	-8.10358
um	-8.10638
ar	-8.11737
b	-8.11745
L	-8.12169
ent	-8.12517
el	-8.13873
▁Ġre	-8.14524
man	-8.15096
▁501	-8.16319
Y	-8.16866
ia	-8.17785
ous	-8.18344
▁u	-8.20115
▁ĠI	-8.21571
▁Ġin	-8.26675
cy	-8.27333
▁ĠK	-8.28463
T	-8.29584
▁C	-8.29719
(	-8.29964
▁490	-8.30111
▁390	-8.30116
▁460	-8.30116
▁290	-8.3012
▁360	-8.30122
▁480	-8.30125
▁380	-8.3013
▁280	-8.30138
▁470	-8.30147
▁370	-8.30153
▁270	-8.30155
▁260	-8.30155
▁170	-8.30199
P	-8.30326
▁160	-8.3053
▁180	-8.3054
▁̄	-8.30815
▁300	-8.30881
▁400	-8.30881
▁190	-8.31226
est	-8.31496
▁408	-8.31625
▁308	-8.31629
▁458	-8.31723
▁358	-8.31729
▁258	-8.3174
▁158	-8.31756
▁468	-8.31779
▁478	-8.31779
▁488	-8.31783
▁498	-8.31792
▁208	-8.31825
▁368	-8.31828
▁378	-8.31829
▁268	-8.31831
▁278	-8.31831
▁388	-8.31832
▁288	-8.31835
▁398	-8.31841
▁407	-8.31841
▁178	-8.31844
▁298	-8.31844
▁307	-8.31845
▁168	-8.31852
C	-8.3189
▁457	-8.31917
▁357	-8.31923
▁406	-8.31927
▁306	-8.31931
▁257	-8.31934
▁107	-8.31943
▁309	-8.31948
▁157	-8.3195
▁487	-8.31966
▁467	-8.31972
▁477	-8.3198
▁188	-8.31986
▁497	-8.31988
▁397	-8.31993
▁456	-8.31994
▁106	-8.31998
▁409	-8.32008
▁459	-8.3201
▁387	-8.32016
▁109	-8.32016
▁287	-8.32018
▁367	-8.32021
▁267	-8.32024
▁377	-8.3203
▁277	-8.32032
▁297	-8.32041
▁207	-8.32042
▁356	-8.32044
▁177	-8.32045
▁167	-8.32046
▁359	-8.3206
▁156	-8.32071
▁259	-8.32071
▁256	-8.32072
▁187	-8.32073
▁159	-8.32087
▁108	-8.32094
▁486	-8.32099
▁496	-8.3211
▁479	-8.32111
▁469	-8.32116
▁489	-8.32117
▁206	-8.32129
▁209	-8.32147
▁386	-8.32148
▁286	-8.32151
▁396	-8.32159
▁379	-8.3216
▁279	-8.32162
▁296	-8.32162
▁369	-8.32166
▁389	-8.32166
▁269	-8.32168
▁289	-8.32169
▁476	-8.32173
▁179	-8.32176
▁466	-8.32186
▁169	-8.3219
▁499	-8.3222
▁376	-8.32222
▁399	-8.32224
▁276	-8.32225
▁299	-8.32228
▁366	-8.32236
▁176	-8.32238
▁266	-8.32239
▁166	-8.32261
▁186	-8.32354
▁405	-8.32358
▁305	-8.32362
▁189	-8.32423
▁100	-8.32447
▁455	-8.32459
▁105	-8.3246
▁355	-8.32465
▁155	-8.32492
▁255	-8.32493
▁485	-8.32505
▁495	-8.32514
▁475	-8.32553
▁385	-8.32554
▁285	-8.32557
▁375	-8.32559
▁275	-8.32561
▁395	-8.32563
▁295	-8.32567
▁175	-8.32574
▁205	-8.32593
▁465	-8.32596
▁365	-8.32601
▁265	-8.32604
▁185	-8.3261
▁165	-8.32626
it	-8.32815
▁450	-8.32904
▁350	-8.32912
ant	-8.33264
▁250	-8.3328
▁150	-8.33285
▁ĠO	-8.33525
N	-8.33969
▁195	-8.34085
son	-8.34454
▁ãĥ	-8.34667
▁Ã	-8.34837
▁200	-8.36001
▁196	-8.36435
et	-8.36448
▁F	-8.36677
▁198	-8.37231
ate	-8.37397
▁197	-8.37413
▁199	-8.37602
▁430	-8.38113
▁330	-8.38142
▁230	-8.38198
▁130	-8.38218
▁ĠRe	-8.38248
▁440	-8.38261
▁P	-8.38262
▁340	-8.38273
▁240	-8.3834
▁140	-8.3836
▁410	-8.38439
▁310	-8.38456
▁210	-8.38524
▁ãĤ	-8.38634
▁110	-8.38945
▁Ġs	-8.38959
D	-8.3896
▁448	-8.39566
▁438	-8.39571
▁348	-8.39583
▁248	-8.39615
▁428	-8.39617
▁148	-8.39633
▁328	-8.39634
▁338	-8.39653
▁228	-8.39679
▁138	-8.39692
▁447	-8.39701
▁238	-8.3971
▁128	-8.39733
▁437	-8.3977
▁347	-8.39771
▁427	-8.39798
▁247	-8.39802
▁327	-8.39814
▁449	-8.39816
▁446	-8.39817
▁147	-8.39821
▁439	-8.39834
▁417	-8.39845
▁337	-8.39852
▁227	-8.39859
▁317	-8.39862
▁127	-8.39878
▁349	-8.39885
▁346	-8.39887
▁137	-8.3989
▁217	-8.39893
▁237	-8.39908
▁429	-8.39914
▁249	-8.39916
▁246	-8.39918
▁329	-8.39931
▁436	-8.39931
▁339	-8.39932
▁149	-8.39935
▁146	-8.39937
▁117	-8.39938
▁336	-8.39961
▁139	-8.39969
▁416	-8.39971
▁229	-8.39975
▁426	-8.39987
▁316	-8.39987
▁239	-8.39988
▁129	-8.39995
▁136	-8.39999
▁326	-8.40003
▁236	-8.40017
▁216	-8.40019
▁226	-8.40048
▁116	-8.40063
▁126	-8.40067
▁445	-8.40253
▁345	-8.4027
▁435	-8.40301
▁245	-8.40301
▁415	-8.40314
▁145	-8.4032
▁315	-8.4033
▁335	-8.40331
▁425	-8.4035
▁215	-8.40362
▁325	-8.40367
▁135	-8.40369
▁420	-8.40377
▁235	-8.40387
▁320	-8.40397
▁115	-8.40407
▁225	-8.40412
▁125	-8.40431
E	-8.40493
▁220	-8.40729
▁120	-8.40781
▁418	-8.41126
▁318	-8.41144
▁218	-8.41178
▁118	-8.41225
ng	-8.41663
▁Ġp	-8.4168
▁90	-8.42132
less	-8.42782
▁87	-8.43056
▁85	-8.43193
▁97	-8.43237
▁86	-8.43299
▁96	-8.43322
▁89	-8.43347
ical	-8.4365
▁98	-8.43749
land	-8.43901
©	-8.44097
▁ĠW	-8.44373
▁I	-8.44923
▁95	-8.45052
f	-8.45117
▁80	-8.45298
▁88	-8.45384
▁70	-8.45395
▁60	-8.45736
▁78	-8.45805
ine	-8.45849
▁76	-8.45968
▁79	-8.45979
▁68	-8.46354
▁77	-8.46391
▁67	-8.46516
▁69	-8.4665
▁99	-8.46741
▁66	-8.46811
▁75	-8.46835
▁65	-8.47217
ch	-8.47593
▁419	-8.47927
▁319	-8.47955
▁219	-8.48
▁119	-8.48062
▁56	-8.48335
▁D	-8.48666
F	-8.49297
re	-8.49351
▁58	-8.49548
▁M	-8.49596
▁57	-8.49739
▁59	-8.49859
▁B	-8.50236
▁55	-8.50328
is	-8.50359
¦	-8.51416
▁E	-8.52765
ted	-8.52802
▁å	-8.52942
▁454	-8.53099
▁354	-8.5315
▁404	-8.5316
▁304	-8.53164
▁154	-8.53187
▁254	-8.53188
▁474	-8.53253
▁494	-8.53257
▁464	-8.53258
▁484	-8.5326
▁394	-8.53261
▁104	-8.5329
▁374	-8.53304
▁274	-8.53306
▁364	-8.53309
▁384	-8.53311
▁294	-8.53311
▁264	-8.53312
▁284	-8.53314
▁174	-8.53318
▁164	-8.53342
▁184	-8.53377
▁453	-8.53889
▁403	-8.53907
▁303	-8.5391
▁353	-8.5394
▁153	-8.53977
▁253	-8.53978
▁103	-8.54038
▁463	-8.54041
▁473	-8.54045
▁493	-8.54048
▁483	-8.54049
▁393	-8.54052
▁363	-8.54092
▁263	-8.54095
▁373	-8.54095
▁273	-8.54098
▁383	-8.54099
▁293	-8.54102
▁283	-8.54103
▁173	-8.54109
▁163	-8.54124
▁183	-8.54166
▁203	-8.54343
▁452	-8.54382
B	-8.54419
▁352	-8.54432
▁152	-8.54469
▁252	-8.5447
▁472	-8.54525
▁462	-8.5453
▁482	-8.5453
▁492	-8.54533
▁382	-8.54536
▁402	-8.54537
▁362	-8.54537
▁302	-8.5454
▁372	-8.54576
▁272	-8.54578
▁392	-8.54582
▁282	-8.54584
▁262	-8.54584
▁292	-8.54588
▁172	-8.54589
▁162	-8.54614
▁182	-8.54618
▁194	-8.54788
▁451	-8.54862
▁351	-8.54869
▁204	-8.54904
▁151	-8.54906
▁251	-8.54907
▁471	-8.54957
▁481	-8.54963
▁461	-8.54966
▁381	-8.54969
▁491	-8.54975
▁391	-8.54979
▁371	-8.55007
▁271	-8.55009
▁401	-8.5501
▁301	-8.55014
▁281	-8.55017
▁361	-8.55017
▁261	-8.55019
▁171	-8.55021
▁291	-8.55029
▁161	-8.55049
▁181	-8.55051
ter	-8.55208
▁202	-8.55328
▁193	-8.55331
▁102	-8.55343
▁101	-8.55391
▁192	-8.56031
ated	-8.5604
▁191	-8.56272
ful	-8.56902
▁434	-8.57899
▁444	-8.57903
▁344	-8.57917
▁244	-8.57941
▁144	-8.57987
▁334	-8.57989
▁424	-8.57996
▁134	-8.58003
▁324	-8.58011
▁414	-8.58022
▁314	-8.58036
▁234	-8.58051
▁224	-8.58058
▁214	-8.5806
▁124	-8.58072
▁114	-8.58119
M	-8.58346
▁443	-8.58637
▁343	-8.58652
▁423	-8.58666
▁243	-8.58675
▁413	-8.58676
▁323	-8.5868
▁143	-8.58688
▁313	-8.5869
▁433	-8.58696
▁213	-8.58713
▁223	-8.58727
▁123	-8.5874
▁133	-8.58747
▁113	-8.58773
▁233	-8.58797
▁201	-8.5895
▁442	-8.5905
▁422	-8.59104
▁342	-8.59117
▁322	-8.59118
▁432	-8.59118
▁242	-8.5914
▁142	-8.59153
▁332	-8.59157
▁222	-8.59165
▁132	-8.59169
▁122	-8.59178
▁412	-8.59179
▁333	-8.59183
▁312	-8.59193
▁212	-8.59216
▁232	-8.59219
il	-8.59274
▁112	-8.59276
X	-8.59315
▁441	-8.59425
▁431	-8.5944
▁341	-8.59492
▁411	-8.59493
▁311	-8.59507
▁241	-8.59515
▁141	-8.59527
▁211	-8.5953
▁331	-8.5953
▁421	-8.59535
▁131	-8.59542
▁321	-8.59549
ian	-8.59577
▁231	-8.59593
▁221	-8.59596
▁121	-8.5961
▁111	-8.60043
▁T	-8.60219
ne	-8.61254
▁Ġc	-8.61779
▁84	-8.61957
▁O	-8.62003
▁94	-8.62221
▁93	-8.62748
▁83	-8.63001
▁74	-8.6325
▁82	-8.63326
▁92	-8.63413
▁81	-8.63711
▁63	-8.63862
▁73	-8.63869
ish	-8.64008
▁91	-8.64364
▁72	-8.64618
▁71	-8.65337
▁64	-8.65462
▁Ġa	-8.65468
▁62	-8.65528
id	-8.66323
▁61	-8.66377
out	-8.66502
tion	-8.66521
sh	-8.66757
ra	-8.67604
▁54	-8.7008
▁53	-8.70834
ism	-8.71074
▁e	-8.71235
▁52	-8.72005
[	-8.72508
▁51	-8.7294
ts	-8.73407
Â	-8.74869
ard	-8.75276
R	-8.75474
.	-8.75585
ling	-8.763
▁R	-8.76541
W	-8.76736
▁ĠV	-8.77011
A	-8.78892
ence	-8.79248
▁Ġd	-8.79536
▁ãģ	-8.79885
£	-8.80162
▁Ġt	-8.80833
day	-8.81328
ium	-8.82551
se	-8.82594
▁c	-8.82877
ious	-8.83077
ie	-8.83487
;	-8.83602
▁Ġf	-8.83749
▁Ġm	-8.84324
w	-8.85761
one	-8.85915
▁L	-8.85928
tic	-8.86384
om	-8.87203
nt	-8.87384
way	-8.87408
G	-8.88338
ible	-8.88346
,	-8.88443
ck	-8.90476
▁ĠCo	-8.90506
▁ĠDe	-8.90516
1⁄4	-8.90921
ah	-8.91171
▁Ġde	-8.91468
▁r	-8.91665
{	-8.91961
▁b	-8.9253
▁ĠU	-8.92575
ley	-8.92641
▁Ġb	-8.92719
▁502	-8.92812
Ã	-8.93774
ting	-8.94091
ble	-8.94144
/	-8.94692
¿1⁄2	-8.9489
ial	-8.95081
red	-8.95157
ever	-8.96668
▁U	-8.96804
▁Ġdis	-8.96826
▁W	-8.9685
at	-8.98226
▁Â	-8.99579
▁in	-9.00723
▁f	-9.01495
▁ĠJ	-9.01652
▁p	-9.03394
▁N	-9.03427
ll	-9.04258
ham	-9.04473
▁G	-9.05378
line	-9.06419
v	-9.06677
ist	-9.06968
·	-9.07948
▁Ġco	-9.09594
ern	-9.09612
▁it	-9.10045
▁Ġg	-9.10055
)	-9.10588
H	-9.11278
ON	-9.11375
▁)	-9.12385
as	-9.12494
200	-9.13277
:	-9.13559
ED	-9.13655
ory	-9.13762
ãĥ	-9.13831
190	-9.14248
197	-9.14912
te	-9.14931
198	-9.14933
▁H	-9.14977
ves	-9.15059
199	-9.15065
ship	-9.1507
196	-9.15107
▁ĠMa	-9.15586
195	-9.15983
▁âĢ	-9.16211
----------------	-9.17117
ide	-9.18714
189	-9.18919
▁w	-9.18986
«	-9.19371
108	-9.19425
thing	-9.19476
107	-9.19501
▁v	-9.19604
186	-9.19702
205	-9.19759
down	-9.1984
206	-9.19867
105	-9.19907
207	-9.19958
ez	-9.19979
209	-9.19994
208	-9.20013
106	-9.20018
109	-9.20145
100	-9.20226
time	-9.20263
409	-9.20469
'	-9.20499
▁m	-9.20858
188	-9.20959
170	-9.21343
180	-9.21387
▁.	-9.21509
160	-9.21543
306	-9.21562
406	-9.21587
307	-9.21653
407	-9.21678
309	-9.21688
308	-9.21709
408	-9.21734
305	-9.22069
405	-9.22094
▁V	-9.22168
ER	-9.22591
▁an	-9.22596
187	-9.2274
260	-9.22812
256	-9.22885
390	-9.22954
ST	-9.22986
185	-9.23036
400	-9.23124
370	-9.2329
176	-9.23326
178	-9.23344
380	-9.23348
179	-9.23351
300	-9.23369
280	-9.23375
177	-9.23429
290	-9.23441
156	-9.23444
âĢ	-9.23444
360	-9.23461
490	-9.23481
255	-9.23483
470	-9.23488
460	-9.23498
158	-9.23506
157	-9.23562
159	-9.23577
270	-9.236
167	-9.23654
168	-9.2369
169	-9.23713
480	-9.23723
175	-9.23729
166	-9.23732
155	-9.24041
165	-9.24056
▁é	-9.24386
387	-9.24551
356	-9.24597
376	-9.24638
386	-9.24651
378	-9.24655
358	-9.2466
379	-9.24662
388	-9.24709
ver	-9.24713
357	-9.24716
359	-9.24729
396	-9.24737
377	-9.24741
398	-9.24772
267	-9.24773
389	-9.24778
367	-9.24793
268	-9.24809
368	-9.24828
269	-9.24831
266	-9.2485
369	-9.2485
385	-9.24852
287	-9.24868
366	-9.24869
399	-9.24918
ad	-9.24919
395	-9.24928
276	-9.24961
286	-9.24967
278	-9.24979
279	-9.24986
288	-9.25025
375	-9.25038
458	-9.25046
277	-9.25064
289	-9.25095
457	-9.25102
258	-9.2513
265	-9.25171
285	-9.25172
257	-9.25186
365	-9.25191
355	-9.25191
259	-9.25201
465	-9.25227
475	-9.25244
296	-9.25245
297	-9.25258
298	-9.25279
275	-9.25364
299	-9.25427
295	-9.2544
499	-9.25466
455	-9.2558
201	-9.25797
194	-9.26134
>	-9.26256
ro	-9.26277
192	-9.26456
193	-9.26659
191	-9.26894
250	-9.26976
▁Ġout	-9.27505
150	-9.27558
▁ar	-9.27688
▁ur	-9.27769
ure	-9.27858
led	-9.28253
▁ri	-9.28312
§	-9.28529
▁Ġbe	-9.28963
▁en	-9.29049
202	-9.29463
ï	-9.29517
350	-9.29554
V	-9.29803
500	-9.29891
450	-9.29922
ol	-9.30448
]	-9.30503
▁ĠAl	-9.30676
-	-9.31065
204	-9.31276
▁'	-9.31308
203	-9.3181
104	-9.32169
sis	-9.32253
103	-9.32533
102	-9.32561
397	-9.33201
467	-9.33288
476	-9.33302
478	-9.3332
468	-9.33327
479	-9.33331
469	-9.33353
466	-9.33376
487	-9.33406
477	-9.33412
456	-9.33457
ow	-9.33469
486	-9.33515
488	-9.33578
459	-9.33603
ny	-9.33649
489	-9.33656
304	-9.33692
404	-9.33712
485	-9.33739
496	-9.33782
497	-9.33795
498	-9.33819
495	-9.33996
184	-9.34026
303	-9.34057
403	-9.34077
254	-9.34388
Ł	-9.34411
¢	-9.34411
183	-9.34435
ir	-9.34458
rs	-9.34511
174	-9.3457
253	-9.34788
252	-9.34815
172	-9.34881
154	-9.34919
173	-9.34948
101	-9.34958
▁ĠBe	-9.34979
182	-9.34988
164	-9.3507
171	-9.35124
251	-9.35174
ster	-9.35209
de	-9.35231
181	-9.35282
▁æ	-9.35292
302	-9.35311
153	-9.35318
402	-9.35332
152	-9.35347
162	-9.35357
163	-9.35371
mp	-9.35525
151	-9.35705
161	-9.3571
384	-9.35786
374	-9.35799
354	-9.35945
392	-9.36002
264	-9.36051
364	-9.36075
372	-9.36108
373	-9.36175
284	-9.36193
383	-9.36196
274	-9.36214
▁ĠÂ	-9.36259
294	-9.36312
262	-9.36335
up	-9.36336
353	-9.36342
371	-9.36349
263	-9.36349
352	-9.3637
363	-9.36374
282	-9.36461
272	-9.36525
273	-9.36592
283	-9.36606
301	-9.36657
292	-9.3666
401	-9.36679
261	-9.36685
361	-9.36709
293	-9.36714
351	-9.36725
281	-9.36754
271	-9.36768
ay	-9.36858
291	-9.36967
451	-9.37214
ur	-9.37421
ue	-9.37458
▁ic	-9.37755
▁Ġover	-9.38048
ily	-9.38842
ery	-9.38977
LE	-9.39266
▁il	-9.3933
▁ä	-9.39523
nce	-9.39701
210	-9.40081
am	-9.40177
240	-9.40273
Ĵ	-9.40661
▁̧	-9.40661
130	-9.40868
230	-9.40891
110	-9.40943
140	-9.40958
ade	-9.41216
ware	-9.41763
220	-9.41804
▁ĠIn	-9.41826
217	-9.41836
216	-9.41883
120	-9.41941
246	-9.41975
248	-9.41976
228	-9.41994
247	-9.41996
239	-9.42001
227	-9.42001
249	-9.42016
226	-9.42018
▁ĠNo	-9.42032
238	-9.42072
229	-9.42076
215	-9.42125
128	-9.42128
237	-9.42186
236	-9.42194
▁is	-9.42209
225	-9.42338
245	-9.4236
218	-9.42453
light	-9.4246
235	-9.42469
▁Ġe	-9.42583
440	-9.42611
ency	-9.42651
146	-9.42663
148	-9.42664
147	-9.42685
149	-9.42705
340	-9.42712
139	-9.42716
138	-9.42787
430	-9.42833
310	-9.42836
127	-9.4287
117	-9.42877
126	-9.42887
137	-9.42901
136	-9.4291
ey	-9.42921
116	-9.42924
129	-9.42945
410	-9.43021
145	-9.43048
115	-9.43169
135	-9.43185
125	-9.43209
330	-9.43226
<	-9.43425
118	-9.43495
501	-9.43578
ize	-9.43644
346	-9.43658
348	-9.4366
347	-9.4368
349	-9.43699
▁ul	-9.43728
317	-9.4385
328	-9.43855
327	-9.43863
320	-9.43866
326	-9.43879
316	-9.43897
▁at	-9.43931
329	-9.43936
448	-9.44021
428	-9.44035
345	-9.44039
417	-9.4404
420	-9.44041
427	-9.44043
426	-9.4406
416	-9.44088
429	-9.44116
436	-9.44123
315	-9.44137
325	-9.44195
415	-9.44329
339	-9.44343
▁Ġst	-9.44355
425	-9.44377
435	-9.44394
445	-9.44402
338	-9.44414
318	-9.44469
337	-9.44529
336	-9.44537
418	-9.44659
335	-9.44812
▁ĠCa	-9.4487
394	-9.45113
▁Ġunder	-9.45302
ul	-9.45426
▁ĠSt	-9.45432
474	-9.45534
382	-9.45535
393	-9.45535
464	-9.45605
▁Ġl	-9.45706
484	-9.4578
219	-9.45785
391	-9.45813
381	-9.4585
494	-9.45865
362	-9.45868
472	-9.4587
462	-9.45911
463	-9.45918
473	-9.45934
454	-9.45954
482	-9.46069
471	-9.46134
483	-9.46218
492	-9.46241
461	-9.4629
493	-9.46291
453	-9.46377
481	-9.46387
452	-9.46416
▁K	-9.46532
491	-9.46573
119	-9.46834
os	-9.46991
®	-9.47328
ÃĥÃĤÃĥÃĤÃĥÃĤÃĥÃĤ	-9.47328
319	-9.47811
419	-9.48
O	-9.4824
▁Ġpre	-9.48396
▁g	-9.48994
ual	-9.49362
by	-9.49541
▁Ġr	-9.50191
den	-9.50387
214	-9.51146
ell	-9.51167
224	-9.51346
144	-9.51367
212	-9.51437
213	-9.51463
244	-9.51465
234	-9.51518
222	-9.51558
223	-9.51652
ney	-9.517
211	-9.51731
ier	-9.51768
my	-9.51772
243	-9.51788
242	-9.51789
232	-9.51798
221	-9.51844
233	-9.51997
231	-9.52071
241	-9.5211
134	-9.52247
124	-9.52276
114	-9.523
111	-9.52317
▁or	-9.52353
▁J	-9.52402
dy	-9.52443
143	-9.52484
142	-9.52485
122	-9.52489
132	-9.52528
▁Ġsub	-9.52557
123	-9.52584
112	-9.52594
113	-9.52621
133	-9.52728
121	-9.52777
131	-9.52802
141	-9.52806
344	-9.5299
324	-9.531
314	-9.531
ang	-9.53257
343	-9.5331
322	-9.5331
342	-9.53312
424	-9.53315
414	-9.53329
312	-9.53391
323	-9.53404
313	-9.53417
444	-9.53439
422	-9.53526
321	-9.53593
412	-9.5362
423	-9.5362
432	-9.53621
341	-9.53629
413	-9.53646
311	-9.53684
443	-9.53762
333	-9.53804
421	-9.5381
433	-9.53821
hood	-9.53856
334	-9.53896
411	-9.53914
▁Ġmis	-9.54087
332	-9.54177
438	-9.54299
446	-9.54321
▁ĠX	-9.54324
▁ĠLe	-9.54336
447	-9.54343
449	-9.54368
437	-9.54422
331	-9.54452
3⁄4	-9.5462
▁/	-9.54725
ative	-9.55053
502	-9.55155
ax	-9.55752
J	-9.55756
▁Ġh	-9.55946
▁ĠKa	-9.56207
▁ĠNe	-9.5647
OR	-9.56593
AL	-9.56676
▁t	-9.56677
em	-9.56697
der	-9.56799
over	-9.56819
ber	-9.56977
ill	-9.56983
▁ac	-9.5718
ge	-9.5735
439	-9.57746
▁h	-9.57926
ex	-9.58033
Ħ	-9.5821
¥	-9.58255
▁ĠUn	-9.58464
ãĤ	-9.58534
▁ĠHa	-9.58562
▁k	-9.58695
all	-9.58761
▁ĠMo	-9.58815
▁Ġw	-9.59411
▁le	-9.59519
▁ĠHo	-9.59559
ac	-9.59943
ma	-9.60115
================	-9.6044
ip	-9.60746
000	-9.61531
ating	-9.61552
▁â	-9.61717
¤	-9.62163
±	-9.62163
▁ĠBa	-9.6234
▁Ġup	-9.62346
Ĥ	-9.62568
▁ç	-9.62698
ake	-9.62934
ix	-9.63067
▁Ġback	-9.63208
ke	-9.63257
▁ĠPa	-9.63339
608	-9.63484
▁ĠHe	-9.63492
▁ĠPo	-9.63763
808	-9.63859
ions	-9.64023
mon	-9.64033
505	-9.64349
ight	-9.64411
434	-9.6461
600	-9.64658
▁ĠMe	-9.64673
ut	-9.64675
442	-9.65068
970	-9.65093
900	-9.65099
ES	-9.65101
ij	-9.65146
980	-9.65198
431	-9.65209
Q	-9.6525
960	-9.65311
441	-9.65416
▁re	-9.65484
800	-9.65513
=	-9.65731
570	-9.65831
670	-9.6589
580	-9.65912
660	-9.65922
560	-9.65957
700	-9.65995
760	-9.66183
ren	-9.66319
770	-9.66349
680	-9.66353
780	-9.66437
I	-9.665
+	-9.66603
im	-9.66611
978	-9.66737
ak	-9.6675
\	-9.66806
▁ĠTo	-9.67302
▁al	-9.6769
768	-9.67818
698	-9.67946
berg	-9.68075
777	-9.68123
ten	-9.68138
555	-9.68166
ain	-9.6817
655	-9.68249
▁be	-9.68425
ner	-9.6844
666	-9.68663
ler	-9.68715
and	-9.68956
▁id	-9.6927
▁ĠAm	-9.6938
abilit	-9.6958
▁Ġen	-9.69938
na	-9.69953
well	-9.6998
▁he	-9.70226
▁Ġpo	-9.70405
1⁄2	-9.70493
ı	-9.70496
ET	-9.70638
▁è	-9.70759
999	-9.70795
ew	-9.7106
▁×	-9.7106
▁Ð	-9.71061
▁ĠRa	-9.71141
j	-9.7116
end	-9.7147
ged	-9.72109
▁ĠCon	-9.72347
eless	-9.72692
950	-9.73105
▁j	-9.73306
▁ĠBo	-9.73442
▁ĠLa	-9.7349
old	-9.73519
aw	-9.73879
▁ĠZ	-9.7394
iz	-9.74004
que	-9.74009
850	-9.74059
550	-9.74115
650	-9.74183
▁as	-9.74273
craft	-9.74306
▁"	-9.74386
▁ĠGa	-9.74476
een	-9.74485
750	-9.74595
back	-9.74693
ball	-9.75996
▁l	-9.76262
909	-9.76397
007	-9.76632
ull	-9.76805
707	-9.76891
905	-9.76966
606	-9.77031
706	-9.7715
607	-9.77174
▁oc	-9.7718
ons	-9.7722
006	-9.77236
609	-9.77241
709	-9.7736
708	-9.77391
506	-9.77409
009	-9.77423
008	-9.77442
806	-9.77445
ries	-9.7745
507	-9.77552
906	-9.77578
807	-9.77589
509	-9.77621
508	-9.77647
809	-9.77656
907	-9.77722
605	-9.77816
908	-9.77822
005	-9.77929
705	-9.77935
▁Ġplay	-9.78223
805	-9.78232
▁ĠEl	-9.78772
▁un	-9.78816
990	-9.79021
▁z	-9.79246
▁ĠVi	-9.7937
ĭ	-9.79416
ford	-9.79418
į	-9.79529
504	-9.79562
▁Î	-9.79587
IJ	-9.79737
690	-9.79743
ash	-9.79838
▁Ø	-9.79858
▁=	-9.79866
880	-9.79878
590	-9.799
503	-9.79951
790	-9.80057
860	-9.8017
870	-9.80173
080	-9.80433
RE	-9.80443
▁ĠPe	-9.80595
987	-9.80699
▁Ġsp	-9.80825
986	-9.80852
090	-9.80868
ka	-9.80889
989	-9.81059
968	-9.81086
969	-9.81125
070	-9.81157
985	-9.81163
956	-9.81193
702	-9.8126
890	-9.81322
975	-9.81413
996	-9.81442
997	-9.81462
060	-9.81491
ied	-9.81508
998	-9.81509
587	-9.81556
886	-9.81558
802	-9.81572
556	-9.81617
888	-9.81662
576	-9.81695
586	-9.81711
558	-9.81719
578	-9.81732
995	-9.81743
579	-9.81747
676	-9.81761
667	-9.81762
889	-9.81767
557	-9.81787
678	-9.81798
679	-9.81813
658	-9.81814
588	-9.81817
559	-9.81828
668	-9.81829
577	-9.81848
669	-9.81868
568	-9.8187
657	-9.81882
677	-9.81913
589	-9.81921
659	-9.81923
un	-9.8194
887	-9.81996
585	-9.82024
767	-9.82033
687	-9.82065
ore	-9.82067
▁ĠGo	-9.82129
787	-9.82157
696	-9.82184
756	-9.82189
697	-9.82205
686	-9.82219
959	-9.82224
976	-9.8225
776	-9.82287
758	-9.8229
979	-9.82302
575	-9.82309
786	-9.82312
778	-9.82323
688	-9.82324
765	-9.82334
896	-9.82335
779	-9.8234
596	-9.82347
757	-9.82358
597	-9.82369
675	-9.82375
665	-9.82375
759	-9.824
977	-9.82401
988	-9.82401
598	-9.82417
565	-9.82417
689	-9.8243
967	-9.82465
885	-9.82466
▁ĠLi	-9.82468
695	-9.82485
796	-9.82504
699	-9.82507
789	-9.82522
797	-9.82525
685	-9.82537
▁ig	-9.8257
798	-9.82573
966	-9.82618
785	-9.82628
866	-9.82644
595	-9.8265
899	-9.82657
599	-9.82672
877	-9.82691
ese	-9.82693
▁ĠDi	-9.82729
958	-9.82746
795	-9.82807
957	-9.82814
799	-9.82828
775	-9.82903
▁ĠY	-9.82927
ot	-9.82938
701	-9.83016
755	-9.83078
965	-9.83083
855	-9.83117
875	-9.83156
057	-9.83231
BC	-9.83249
059	-9.83267
567	-9.83277
088	-9.83305
569	-9.83385
089	-9.83403
566	-9.83433
cular	-9.83447
955	-9.83537
769	-9.83603
▁]	-9.83612
766	-9.8365
856	-9.83683
858	-9.83785
897	-9.83816
857	-9.83854
898	-9.83864
788	-9.83884
859	-9.83897
055	-9.83904
867	-9.83951
075	-9.83972
865	-9.83975
876	-9.83998
868	-9.84019
io	-9.8403
878	-9.84035
879	-9.84052
869	-9.8406
895	-9.84103
▁ĠTa	-9.84192
more	-9.84243
▁ĠKo	-9.84714
▁ĠLo	-9.84951
Ī	-9.84984
▁ĠJa	-9.8522
_	-9.85254
▁Ġo	-9.8534
▁ĠStar	-9.85541
¶	-9.85551
656	-9.85591
601	-9.86048
per	-9.86199
ned	-9.86478
▁ĠNa	-9.86542
▁Ġhand	-9.8655
istic	-9.86712
PS	-9.86786
▁-	-9.8688
ana	-9.86925
▁ĠMar	-9.87015
ite	-9.87171
▁am	-9.87392
AT	-9.87487
ab	-9.87539
ick	-9.8754
ta	-9.87805
ped	-9.87902
AN	-9.88099
▁ĠMan	-9.88332
ING	-9.88333
tein	-9.88398
~	-9.88588
ody	-9.88938
ap	-9.89051
▁ol	-9.89085
▁Ġex	-9.89122
gen	-9.8913
050	-9.89156
AM	-9.89222
ī	-9.89272
▁Y	-9.89286
▁ĠDu	-9.89424
▁(	-9.89501
▁Ġdown	-9.89508
▁Ġal	-9.90145
▁Ù	-9.90303
LD	-9.90311
ification	-9.90349
▁Ġper	-9.90745
840	-9.9107
640	-9.91173
530	-9.91331
610	-9.91344
630	-9.9137
540	-9.91441
ors	-9.91472
920	-9.91542
510	-9.9163
lly	-9.91632
ning	-9.91658
▁ĠAr	-9.91734
▁ra	-9.91741
king	-9.92316
▁ĠSh	-9.92415
les	-9.92586
747	-9.92667
620	-9.92688
▁ĠRo	-9.92731
520	-9.92823
529	-9.92869
▁ag	-9.92875
▁Ġma	-9.92912
720	-9.92964
op	-9.92999
625	-9.93072
004	-9.93108
side	-9.93132
820	-9.93177
▁Ġdi	-9.93204
525	-9.9321
ox	-9.93256
▁Ġse	-9.93334
003	-9.93838
▁ap	-9.94077
ff	-9.94197
................	-9.94234
ose	-9.94293
AD	-9.94433
ri	-9.94469
▁ĠSe	-9.94514
lin	-9.94532
737	-9.94548
▁ĠWar	-9.94747
ker	-9.94768
604	-9.95053
704	-9.95166
field	-9.95228
▁Ġvi	-9.95391
▁Ġli	-9.95428
top	-9.95445
603	-9.9547
804	-9.95517
act	-9.95555
703	-9.95583
904	-9.95671
be	-9.95716
ding	-9.95729
▁%	-9.95813
▁ens	-9.95888
803	-9.95936
ther	-9.96057
903	-9.96085
ĺ	-9.96089
#	-9.96118
$	-9.96197
▁ĠGar	-9.96404
town	-9.96823
002	-9.97043
?	-9.97081
▁ab	-9.97289
▁ĠNi	-9.97361
602	-9.97411
▁Ġto	-9.97417
sion	-9.97601
561	-9.97618
994	-9.97637
▁op	-9.97806
954	-9.97929
902	-9.98041
992	-9.98065
993	-9.98106
584	-9.9826
ns	-9.98269
574	-9.98279
901	-9.98296
674	-9.98359
953	-9.98395
554	-9.9846
952	-9.98473
694	-9.9849
▁Ġinter	-9.98529
582	-9.98575
654	-9.98581
board	-9.98594
print	-9.98598
572	-9.98658
ator	-9.98662
594	-9.98703
573	-9.9872
672	-9.98738
583	-9.9875
884	-9.98751
673	-9.98799
663	-9.98801
662	-9.98821
563	-9.98854
794	-9.98861
562	-9.98874
684	-9.98903
692	-9.98922
553	-9.98931
083	-9.98939
974	-9.98959
693	-9.98963
951	-9.98967
581	-9.98978
784	-9.98981
984	-9.98982
774	-9.9899
571	-9.99004
552	-9.99011
653	-9.99052
882	-9.99067
671	-9.99084
893	-9.99103
763	-9.99109
052	-9.9911
OS	-9.99112
762	-9.99128
652	-9.99131
592	-9.99136
754	-9.99145
593	-9.99177
682	-9.9922
883	-9.99242
792	-9.99294
982	-9.99298
782	-9.99298
ether	-9.99299
661	-9.99309
793	-9.99335
▁im	-9.99337
972	-9.99339
864	-9.9934
691	-9.99346
964	-9.99354
772	-9.9937
683	-9.99395
973	-9.99399
773	-9.99433
uck	-9.9945
▁Ġpay	-9.99468
983	-9.9947
783	-9.99473
087	-9.9949
056	-9.99496
551	-9.99509
591	-9.99563
058	-9.99603
067	-9.99608
753	-9.99618
681	-9.99626
651	-9.99629
096	-9.99635
086	-9.9966
963	-9.99672
068	-9.99684
971	-9.99687
752	-9.99697
981	-9.99702
781	-9.99704
771	-9.9972
069	-9.99721
▁ĠLu	-9.9973
066	-9.99776
801	-9.99889
076	-9.99901
078	-9.99946
079	-9.99965
085	-9.99989
077	-10.0007
ular	-10.0012
▁Ġhe	-10.0019
751	-10.002
▁ĠVer	-10.0023
664	-10.0025
991	-10.0025
065	-10.0027
564	-10.003
097	-10.0032
098	-10.0038
ľ	-10.004
▁Ġhome	-10.0041
962	-10.0044
ru	-10.0052
764	-10.0055
095	-10.0063
ł	-10.0063
099	-10.0066
863	-10.0067
Ģ	-10.0068
862	-10.0069
▁AR	-10.0089
854	-10.0092
961	-10.0093
ith	-10.0094
874	-10.0103
▁âĸ	-10.011
▁Ġcount	-10.0111
894	-10.0113
861	-10.0119
881	-10.0124
ttle	-10.0136
761	-10.0139
853	-10.0139
▁Al	-10.014
872	-10.0142
852	-10.0148
873	-10.0148
001	-10.0148
791	-10.015
▁Ġman	-10.0153
▁ant	-10.0155
aking	-10.0157
892	-10.0157
to	-10.0173
me	-10.0177
871	-10.0178
▁Ġno	-10.0179
▁ãĢ	-10.0195
851	-10.0198
891	-10.02
U	-10.0225
ough	-10.0236
ember	-10.024
▁ĠPr	-10.0273
ral	-10.0322
▁ĠJu	-10.0332
▁Ġbreak	-10.0338
olog	-10.0346
where	-10.0359
911	-10.0367
▁ĠAd	-10.0377
go	-10.0383
▁ĠHer	-10.0389
ess	-10.039
da	-10.0406
▁Ġcon	-10.0419
▁Ġfo	-10.0439
512	-10.044
▁ĠKe	-10.0453
ile	-10.0474
ha	-10.0491
▁ĠEx	-10.0518
ph	-10.0518
▁Ġcur	-10.0521
016	-10.0522
017	-10.0586
710	-10.0587
ought	-10.0605
▁ad	-10.0617
*	-10.0621
015	-10.0622
▁ge	-10.0644
uff	-10.0645
018	-10.0658
ath	-10.0716
la	-10.072
▁ĠWi	-10.0726
▁ĠSta	-10.0729
ncy	-10.073
right	-10.0736
▁ĠCor	-10.0746
ise	-10.0765
▁ĠPer	-10.0766
AR	-10.0781
▁>	-10.0809
030	-10.0809
ins	-10.0841
910	-10.0841
025	-10.0844
▁ĠChe	-10.0847
940	-10.0853
930	-10.0859
Ĩ	-10.0859
ģ	-10.0862
ĵ	-10.0864
830	-10.0868
ring	-10.0869
▁x	-10.0873
▁ir	-10.0883
▁!	-10.0895
▁Ġca	-10.0899
040	-10.0904
CE	-10.0907
unk	-10.0919
▁ĠSa	-10.0922
730	-10.0928
048	-10.0933
740	-10.0941
ack	-10.0949
ilit	-10.0958
▁ĠYa	-10.0965
810	-10.0971
916	-10.0972
949	-10.0974
eth	-10.0982
IN	-10.1007
646	-10.1007
915	-10.1007
648	-10.1008
647	-10.101
▁ĠBar	-10.1012
046	-10.1013
649	-10.1014
▁ĠSch	-10.1015
und	-10.1015
047	-10.1017
ze	-10.1029
027	-10.1029
010	-10.1031
546	-10.1038
548	-10.1039
617	-10.104
036	-10.1041
▁Be	-10.1044
549	-10.1045
616	-10.1047
019	-10.1048
925	-10.105
627	-10.1055
628	-10.1055
626	-10.1057
748	-10.1057
ice	-10.1057
538	-10.1059
▁ĠWe	-10.1062
645	-10.1063
045	-10.1064
629	-10.1067
528	-10.1071
526	-10.1072
517	-10.1074
537	-10.1074
536	-10.1075
035	-10.1077
516	-10.1081
615	-10.1083
▁Ġim	-10.1084
727	-10.1087
728	-10.1088
▁Ġv	-10.1091
736	-10.1092
AY	-10.1093
545	-10.1095
729	-10.1099
▁Ġdu	-10.1101
off	-10.1108
028	-10.1109
026	-10.111
745	-10.1112
535	-10.1115
515	-10.1116
029	-10.1119
618	-10.112
635	-10.112
945	-10.1129
815	-10.1139
725	-10.114
917	-10.1151
946	-10.1151
948	-10.1153
518	-10.1154
947	-10.1154
▁Ġpar	-10.1163
825	-10.1165
718	-10.1167
cent	-10.1178
939	-10.1182
927	-10.1184
928	-10.1184
926	-10.1185
938	-10.1191
929	-10.1196
937	-10.1207
▁ĠFor	-10.1208
936	-10.1208
SA	-10.1218
nes	-10.1224
020	-10.1226
IA	-10.1227
res	-10.1227
547	-10.1229
918	-10.1231
539	-10.1238
639	-10.124
746	-10.1241
935	-10.1249
749	-10.1249
638	-10.125
739	-10.1252
527	-10.126
738	-10.1262
846	-10.1266
637	-10.1266
636	-10.1267
848	-10.1267
▁ĠMad	-10.1268
847	-10.1269
▁Ġsh	-10.1274
849	-10.1274
717	-10.1275
726	-10.1276
839	-10.1279
716	-10.1282
817	-10.1284
gue	-10.1287
838	-10.1289
816	-10.1291
827	-10.1299
rry	-10.1299
unch	-10.1299
828	-10.1299
826	-10.13
▁Ġcar	-10.1303
837	-10.1304
836	-10.1305
Ķ	-10.1308
829	-10.1311
▁Ġâ	-10.1314
ķ	-10.1314
715	-10.1318
735	-10.132
________________	-10.132
845	-10.1324
835	-10.1347
our	-10.1349
ations	-10.1349
818	-10.1365
lic	-10.138
ire	-10.1393
▁:	-10.1397
▁ĠMu	-10.1402
▁ĠFa	-10.1419
ans	-10.1477
amp	-10.1495
▁Ġpa	-10.1515
ps	-10.1561
ux	-10.157
▁Ġfore	-10.1574
CT	-10.1583
▁ĠSp	-10.1586
519	-10.1591
ee	-10.1596
▁ĠDo	-10.1599
▁ĠSu	-10.1603
024	-10.161
}	-10.1623
▁ĠTr	-10.1626
uch	-10.1642
TA	-10.1645
kins	-10.1647
ach	-10.165
night	-10.1656
own	-10.1667
919	-10.167
air	-10.1694
ood	-10.1698
▁Ġfi	-10.1698
▁ĠÃ	-10.1703
ture	-10.1709
014	-10.1715
084	-10.1734
012	-10.1745
064	-10.1746
054	-10.1749
013	-10.1749
shed	-10.175
619	-10.1752
let	-10.1755
082	-10.1768
074	-10.177
094	-10.1777
011	-10.1781
063	-10.1781
062	-10.1782
hem	-10.1787
022	-10.1791
719	-10.1799
053	-10.18
819	-10.1808
▁Ġwater	-10.181
081	-10.1812
072	-10.1812
073	-10.1818
▁ĠMi	-10.1821
092	-10.1824
021	-10.1824
ect	-10.1827
093	-10.1828
061	-10.1836
ome	-10.1837
▁Ġbi	-10.1858
▁Z	-10.1861
051	-10.1862
091	-10.1869
▁ĠSha	-10.1878
023	-10.1889
▁ĠOr	-10.1912
her	-10.1945
▁AN	-10.1958
ki	-10.1967
▁ĠRi	-10.2011
MP	-10.2028
▁ĠSo	-10.2036
sky	-10.2049
arian	-10.2051
▁ent	-10.2054
OL	-10.2056
IC	-10.2072
▁Ġmedi	-10.2101
▁er	-10.2123
▁Ġrun	-10.2141
ENT	-10.2159
house	-10.2161
▁Ġla	-10.2189
tory	-10.2193
043	-10.2195
TER	-10.2198
▁ĠNew	-10.2216
044	-10.2216
034	-10.2221
071	-10.2227
▁ĠAn	-10.2237
ong	-10.2239
032	-10.225
▁Ġsuper	-10.2256
ound	-10.2257
▁De	-10.2257
cious	-10.2264
033	-10.2277
self	-10.2283
031	-10.2284
041	-10.229
▁ĠKu	-10.2308
▁Ġk	-10.2309
Ń	-10.2312
),	-10.2314
born	-10.2325
644	-10.2339
ib	-10.234
ust	-10.2342
--	-10.2348
é	-10.2358
614	-10.2358
▁d	-10.2362
▁ĠNor	-10.2365
643	-10.2374
544	-10.2377
642	-10.2378
some	-10.2388
612	-10.2391
613	-10.2393
ado	-10.2395
524	-10.2398
514	-10.2399
▁}	-10.24
...	-10.24
|	-10.2409
623	-10.2414
714	-10.2414
522	-10.242
641	-10.2421
523	-10.2432
▁Ġsun	-10.2433
513	-10.2435
712	-10.2447
533	-10.2449
713	-10.2449
sy	-10.2458
ett	-10.246
733	-10.2467
511	-10.2473
tch	-10.2474
914	-10.2485
▁Ġam	-10.2487
833	-10.2499
sive	-10.2499
▁Ġblock	-10.2503
ald	-10.2507
944	-10.2511
!	-10.2514
912	-10.2518
913	-10.252
924	-10.2531
ink	-10.2538
943	-10.2546
934	-10.2549
942	-10.255
922	-10.2554
lash	-10.2555
923	-10.2565
▁Ġwork	-10.2579
932	-10.258
▁ĠBr	-10.2582
921	-10.2592
624	-10.2593
941	-10.2594
534	-10.2605
933	-10.2607
wise	-10.2609
744	-10.2609
634	-10.2611
622	-10.2616
931	-10.2617
ony	-10.2619
734	-10.2622
hip	-10.2623
▁Ġmin	-10.2625
543	-10.2627
724	-10.263
542	-10.2631
814	-10.2635
532	-10.2637
844	-10.2638
632	-10.2643
743	-10.2645
▁Ġhard	-10.2645
611	-10.2646
ult	-10.2646
742	-10.2649
722	-10.2653
834	-10.2653
732	-10.2654
621	-10.2654
824	-10.2659
723	-10.2664
812	-10.2669
633	-10.267
▁ĠRu	-10.267
water	-10.267
813	-10.2671
▁od	-10.2671
843	-10.2673
531	-10.2674
521	-10.2674
541	-10.2675
▁ĠCh	-10.2676
842	-10.2678
▁Ġlight	-10.2679
631	-10.268
822	-10.2681
832	-10.2685
731	-10.2691
721	-10.2691
823	-10.2692
741	-10.2693
711	-10.2702
811	-10.271
ded	-10.2711
821	-10.272
841	-10.2722
831	-10.2722
▁ill	-10.2728
▁and	-10.2729
dden	-10.274
TC	-10.2745
nd	-10.2767
▁Ġmaster	-10.2781
▁ĠDis	-10.2801
▁ut	-10.2802
▁Ġair	-10.2808
▁Ġfront	-10.2808
ming	-10.2813
▁Ġgrand	-10.2814
▁ĠBu	-10.2816
▁q	-10.2823
do	-10.2839
tar	-10.2841
▁Ġan	-10.2843
ept	-10.2846
▁Ġshort	-10.2846
illa	-10.2856
▁Ġpart	-10.2861
▁Ġsu	-10.2876
ok	-10.2879
▁Ġtest	-10.2893
▁ang	-10.2898
▁co	-10.2898
low	-10.2899
▁Ġcr	-10.2924
▁Ġcounter	-10.293
▁Ġha	-10.2941
orrow	-10.2945
UD	-10.2948
▁Ġcha	-10.2953
▁ĠSome	-10.2956
▁ĠCar	-10.2962
▁ĠTru	-10.2962
ort	-10.297
▁Ġthere	-10.2972
▁ĠTHE	-10.2979
▁y	-10.2979
▁Ġground	-10.2981
▁Ġpost	-10.2982
▁ĠEn	-10.2985
▁Ġwo	-10.2985
▁Ġcontinu	-10.2995
ep	-10.2996
▁Ġclear	-10.3003
▁ĠâĢ	-10.3018
CC	-10.3023
▁Ġslow	-10.3034
pe	-10.3043
pping	-10.3066
▁Ġmid	-10.307
▁ĠQ	-10.309
049	-10.3091
▁ĠVa	-10.3091
039	-10.3093
038	-10.3103
con	-10.3103
UN	-10.3105
037	-10.3118
▁Ġba	-10.312
ME	-10.3121
▁ĠGreen	-10.3121
ECT	-10.3126
ft	-10.3134
ither	-10.3152
ug	-10.316
erial	-10.3178
▁ĠShin	-10.32
▁Ġstar	-10.3203
▁Ġany	-10.3208
▁ath	-10.3218
cal	-10.3221
▁Ġgo	-10.323
▁os	-10.3234
hire	-10.325
▁Ġtime	-10.3252
▁Ġsto	-10.3257
▁Ġanti	-10.327
▁ick	-10.3288
unt	-10.3289
ame	-10.3292
▁add	-10.3315
table	-10.3316
▁Ġsome	-10.3353
▁ĠShe	-10.3353
▁ĠJe	-10.336
▁Ġlock	-10.3365
▁ij	-10.3383
Z	-10.3384
▁li	-10.3394
▁Ġline	-10.3416
▁Ġconstruct	-10.3447
UT	-10.3469
are	-10.3476
▁Ġsal	-10.3483
▁Ġho	-10.3505
▁ĠMc	-10.3512
▁ĠWal	-10.3513
ane	-10.3532
rous	-10.3543
▁s	-10.3547
▁ĠYu	-10.356
eather	-10.3569
▁Ġfoot	-10.357
OM	-10.357
ss	-10.3571
ino	-10.3573
▁ĠVal	-10.3582
▁5000	-10.3593
▁end	-10.3594
▁IT	-10.3594
rew	-10.3606
▁,	-10.3623
▁ba	-10.3633
▁om	-10.3636
space	-10.3636
▁ov	-10.3636
▁ĠFe	-10.3648
▁Re	-10.3649
▁ro	-10.3651
▁ĠFi	-10.3659
ron	-10.367
EN	-10.3671
▁Ġtake	-10.3685
ison	-10.3703
▁amp	-10.3703
work	-10.3714
▁Ġwho	-10.3715
log	-10.3715
▁Ġaccount	-10.372
▁ĠTor	-10.3721
ag	-10.3732
▁et	-10.3775
▁ï	-10.3786
▁IS	-10.3799
tor	-10.3803
▁ĠBl	-10.3807
ester	-10.3809
▁ĠShar	-10.3822
box	-10.3823
ward	-10.3824
▁Ġbr	-10.3845
å	-10.3852
▁st	-10.3853
¿	-10.3854
od	-10.3859
▁el	-10.3872
▁ĠInter	-10.3877
▁ĠMel	-10.3923
▁Ġac	-10.3929
▁Ġn	-10.3931
uke	-10.3932
▁5020	-10.3935
▁ĠMil	-10.3936
▁Ġi	-10.3937
ground	-10.3938
▁ĠSho	-10.3941
▁Ma	-10.3944
ven	-10.3948
ates	-10.3976
▁ĠCan	-10.3983
care	-10.3998
▁ĠMor	-10.4017
▁ĠEli	-10.4021
roid	-10.4023
tical	-10.4027
▁Ġsl	-10.403
▁Ġle	-10.4039
▁Ġresist	-10.4057
▁ĠTro	-10.4065
▁ĠTh	-10.4077
▁Ġgra	-10.4084
▁ĠPro	-10.4086
list	-10.4087
▁ĠThe	-10.4099
▁Ġfire	-10.4133
erson	-10.4141
▁Ġbarr	-10.4145
▁ĠComp	-10.415
▁Ġhelp	-10.4167
AP	-10.4179
▁ĠKar	-10.419
▁br	-10.4205
co	-10.4206
ping	-10.4221
▁ĠAb	-10.4222
ender	-10.4227
ua	-10.4228
▁Ġmo	-10.4231
ct	-10.4245
▁ĠBur	-10.4302
▁Ġimagin	-10.4317
vill	-10.4319
OW	-10.4327
▁Ġharm	-10.4328
script	-10.4337
▁ĠCha	-10.434
▁Ġinc	-10.4343
wide	-10.4358
ND	-10.4369
▁Ġbase	-10.4372
ota	-10.4373
▁Ġstand	-10.4378
▁ik	-10.4385
▁Le	-10.4388
▁ĠMac	-10.4389
▁Ġpredict	-10.439
▁ist	-10.439
▁ach	-10.4395
ĥ	-10.4407
▁ĠÎ	-10.4415
▁Ġenjoy	-10.4416
▁Ġprint	-10.4418
▁ĠCr	-10.4419
EM	-10.4425
▁Ġevery	-10.4429
▁ĠBlack	-10.4433
▁ĠKi	-10.4441
▁ĠEvery	-10.4443
▁?	-10.4446
▁Mo	-10.4446
ety	-10.4447
▁Ġshow	-10.445
▁Ġgood	-10.4451
▁Ġquestion	-10.4454
▁Ġcourt	-10.4457
▁Ġtrans	-10.446
▁Ġcheck	-10.4464
▁Ġpresent	-10.4468
arily	-10.4469
ition	-10.447
▁ok	-10.4473
▁Ġchild	-10.4483
▁Ġmarket	-10.4494
▁ĠGood	-10.4499
▁Ġbook	-10.4504
ert	-10.4508
▁Ġlook	-10.4511
▁Ġdetect	-10.4517
▁Ġpower	-10.4523
▁Ġaccept	-10.4527
▁\	-10.4537
ette	-10.454
▁Ġbio	-10.4541
▁em	-10.4542
042	-10.4547
▁Ġkind	-10.4547
▁Ġimp	-10.4548
ran	-10.4554
▁ĠHar	-10.4555
▁ot	-10.4559
▁Ġcorrect	-10.4562
▁Un	-10.4564
▁Ġlong	-10.4578
sche	-10.4578
▁Ġexperiment	-10.4583
▁Ġtransport	-10.4594
place	-10.4596
▁Ġopen	-10.4598
ings	-10.4599
gle	-10.4605
▁Ġmal	-10.4608
▁Co	-10.4609
cause	-10.4619
▁Ġlearn	-10.4631
▁ĠCal	-10.4633
▁Ġhonor	-10.4652
▁Ġgrow	-10.466
▁Ġturn	-10.4666
▁Ġkick	-10.4666
▁og	-10.467
witz	-10.4677
▁IC	-10.47
▁Ġrain	-10.4701
▁Ġprotect	-10.4705
▁ĠBra	-10.473
ebook	-10.4741
iness	-10.4754
▁ĠDa	-10.4776
▁Ġab	-10.4787
▁ĠMay	-10.479
fall	-10.4791
ig	-10.4798
▁ĠWil	-10.4799
▁Ġcontract	-10.4813
▁Ġnon	-10.4827
▁Ġfall	-10.483
▁Ġcu	-10.4842
▁ĠGr	-10.4847
▁Ġdiscover	-10.486
▁ga	-10.4861
witch	-10.4862
▁ber	-10.4866
ization	-10.4869
▁ĠShi	-10.4871
▁ump	-10.4872
bo	-10.4873
▁Ġne	-10.4877
ich	-10.4878
▁ĠKat	-10.489
bon	-10.4892
▁ĠEnd	-10.4892
▁Ġwait	-10.4896
▁Ġdeliver	-10.4897
▁ĠMari	-10.4901
▁Ġcan	-10.492
ID	-10.4931
RA	-10.495
▁ĠPlay	-10.4951
ked	-10.4955
▁Ġtax	-10.4972
▁Ġwear	-10.4987
▁Ġprim	-10.4989
int	-10.499
▁Ġj	-10.4993
ens	-10.4996
▁Ġfear	-10.5
▁Ġtreat	-10.5004
▁Ġu	-10.5007
▁ĠJo	-10.5013
▁Ġcall	-10.5019
gy	-10.502
most	-10.503
ature	-10.5037
nder	-10.5037
ML	-10.5038
▁ja	-10.5044
▁*	-10.5045
▁ĠPower	-10.5059
▁ĠHard	-10.5066
sm	-10.5081
▁ĠRE	-10.509
▁ch	-10.5091
▁Ġburn	-10.51
▁Ġgar	-10.511
▁ĠArm	-10.5114
▁1007	-10.5118
▁Ġnear	-10.5124
▁Ġblo	-10.5126
ION	-10.5134
▁Ġnot	-10.5141
stream	-10.5142
▁ĠDO	-10.5144
▁Ġarm	-10.5146
▁Ġflash	-10.515
▁ER	-10.5165
itive	-10.5189
▁ou	-10.519
▁Ġna	-10.5192
round	-10.5197
▁ĠGra	-10.52
▁1080	-10.5204
SE	-10.5207
▁Ġlo	-10.5212
▁ĠFall	-10.5221
▁Ġgu	-10.5222
NA	-10.5223
▁Ġdec	-10.5224
▁Ġinform	-10.5232
▁th	-10.5243
▁Ġfix	-10.5245
book	-10.5246
▁Ġconvert	-10.5247
▁ĠVe	-10.5257
▁ĠSal	-10.5258
▁+	-10.5258
▁Ġtotal	-10.5276
▁2006	-10.5301
▁ĠHi	-10.5304
▁opp	-10.5306
▁2007	-10.5312
▁2009	-10.5318
▁Ġso	-10.5319
▁Ġcompos	-10.5319
▁ĠSam	-10.5319
▁Ġra	-10.532
▁Ġmulti	-10.5334
▁ph	-10.5336
▁2008	-10.5345
▁1800	-10.5377
▁1600	-10.5378
▁1990	-10.5382
▁let	-10.5386
▁Ġprevent	-10.5387
▁1960	-10.5389
cer	-10.5389
load	-10.539
play	-10.54
▁2005	-10.5403
dom	-10.5408
▁ĠIP	-10.5409
▁1900	-10.5411
▁Ġeye	-10.5415
rd	-10.5421
ala	-10.5426
▁1980	-10.5429
▁1970	-10.543
itting	-10.5431
▁Ġsupplement	-10.5443
RI	-10.5444
LIC	-10.5446
SL	-10.545
▁ĠChrist	-10.5451
▁1959	-10.5458
head	-10.5468
▁mo	-10.5476
▁Ġtransform	-10.5487
rus	-10.5489
▁Ġexpress	-10.5496
ely	-10.5502
▁Ġatt	-10.5509
▁DE	-10.5526
uel	-10.553
▁Ġform	-10.5531
▁Ġlike	-10.5537
▁Ġbas	-10.5547
ida	-10.5552
hal	-10.556
▁Ġexist	-10.5563
pper	-10.5565
▁Ġroll	-10.5566
▁iv	-10.5575
ock	-10.5589
▁Ġdef	-10.559
▁ĠHu	-10.559
▁1968	-10.5592
▁1967	-10.5592
position	-10.5598
▁ĠTe	-10.5599
▁707	-10.5599
▁1987	-10.5601
▁1969	-10.5609
▁1966	-10.5611
▁1986	-10.5613
▁app	-10.5622
▁1988	-10.5626
ev	-10.5627
▁1989	-10.563
▁1979	-10.5631
no	-10.5633
▁ĠCap	-10.5638
▁1976	-10.5638
▁1978	-10.5639
cc	-10.564
▁Pa	-10.5641
▁1996	-10.5642
▁1965	-10.5644
▁1977	-10.5646
▁1998	-10.5651
▁1985	-10.5654
▁1997	-10.5659
▁ak	-10.5663
▁OR	-10.5668
▁ĠJenn	-10.5674
▁1975	-10.5676
▁ow	-10.5677
▁Ġwaste	-10.568
▁1995	-10.5681
▁ru	-10.5683
other	-10.5685
▁ĠFr	-10.5686
ending	-10.5693
▁1100	-10.5697
yard	-10.5699
whil	-10.5704
▁ai	-10.5719
▁az	-10.5724
▁5024	-10.5724
CH	-10.5727
▁5023	-10.573
▁1999	-10.5731
▁909	-10.5732
▁Ġfl	-10.5734
▁Ġhi	-10.5738
▁Ġcool	-10.5738
▁5022	-10.5738
read	-10.5739
▁Ġdocument	-10.5739
▁ĠGu	-10.5739
▁860	-10.5751
dium	-10.5753
▁870	-10.5753
▁5021	-10.5766
▁Ġhuman	-10.5768
▁1950	-10.5769
if	-10.5772
▁Ġwar	-10.5774
▁Ġtyp	-10.5787
▁ĠOver	-10.5795
▁960	-10.5807
▁970	-10.581
▁905	-10.5814
âĢĶ	-10.5815
▁ish	-10.5817
▁ĠLog	-10.582
▁()	-10.5823
▁ĠMcC	-10.5827
IT	-10.5829
▁Ġend	-10.583
▁4000	-10.5833
▁3000	-10.5834
▁806	-10.5837
▁990	-10.584
▁807	-10.5846
▁980	-10.5849
power	-10.5851
▁790	-10.5852
▁809	-10.5855
▁Ġfor	-10.5856
ħ	-10.5857
sk	-10.5858
▁706	-10.5859
▁606	-10.5867
ement	-10.5869
▁880	-10.5869
▁unt	-10.587
▁607	-10.5876
▁709	-10.5877
▁690	-10.5884
▁609	-10.5884
van	-10.5885
▁708	-10.59
ek	-10.5904
▁Th	-10.5907
▁ĠAng	-10.5917
eller	-10.5918
ĸ	-10.592
▁808	-10.5927
▁780	-10.5935
▁805	-10.5937
AC	-10.5938
▁770	-10.5955
▁The	-10.5957
▁608	-10.5958
▁705	-10.5959
▁ĠZa	-10.596
▁ĠJer	-10.5964
▁ĠVan	-10.5964
▁Ġnew	-10.5965
▁Po	-10.5965
▁680	-10.5967
▁605	-10.5967
▁670	-10.5968
▁660	-10.5968
ub	-10.5969
▁Ġfac	-10.5976
▁877	-10.5978
▁968	-10.5978
▁866	-10.5982
rey	-10.5983
▁896	-10.5984
▁855	-10.5988
nyl	-10.599
▁987	-10.5991
▁969	-10.5996
▁2000	-10.5996
▁pe	-10.5996
▁Ġcover	-10.6001
▁986	-10.6002
▁anc	-10.6003
ving	-10.6007
▁875	-10.6008
▁956	-10.6013
▁899	-10.6016
IP	-10.6016
▁ĠMon	-10.6019
▁989	-10.6019
atch	-10.6023
hu	-10.6023
▁975	-10.6024
▁Ġbo	-10.6024
▁978	-10.6027
▁ĠOs	-10.6027
▁um	-10.6034
lah	-10.6036
TION	-10.6037
ind	-10.6041
▁985	-10.6044
▁Ġheart	-10.6051
▁Ġdesign	-10.6051
▁ĠClo	-10.6053
▁887	-10.6056
▁767	-10.6059
▁ass	-10.6065
▁Ġdirect	-10.6073
▁886	-10.6075
▁787	-10.6078
▁Ġbar	-10.6086
▁888	-10.6088
▁786	-10.6089
▁889	-10.6092
▁768	-10.6106
▁756	-10.6107
▁789	-10.6107
▁996	-10.6108
ering	-10.6109
▁687	-10.611
▁885	-10.611
ury	-10.6112
▁758	-10.6115
▁757	-10.6116
▁998	-10.6116
▁759	-10.6117
▁765	-10.6118
▁658	-10.6119
▁796	-10.6119
▁657	-10.612
▁686	-10.6121
▁659	-10.6122
▁997	-10.6124
▁778	-10.6125
▁798	-10.6127
▁779	-10.613
ai	-10.6132
▁785	-10.6132
▁ĠFl	-10.6133
▁688	-10.6134
▁776	-10.6135
▁797	-10.6135
▁678	-10.6137
▁689	-10.6138
▁590	-10.614
▁ĠFI	-10.6141
▁ĠGe	-10.6141
▁679	-10.6142
▁668	-10.6142
▁667	-10.6144
▁676	-10.6147
▁560	-10.6148
▁995	-10.6149
▁799	-10.6151
▁696	-10.6152
▁677	-10.6154
▁ĠArch	-10.6158
▁669	-10.616
▁795	-10.616
▁685	-10.6164
▁697	-10.6168
▁775	-10.6173
▁755	-10.6173
▁ĠMer	-10.6179
LL	-10.618
▁699	-10.6184
▁675	-10.6185
terior	-10.6188
▁ĠKir	-10.619
▁ĠDel	-10.6191
▁777	-10.6192
fare	-10.6192
▁695	-10.6193
▁Ġcontain	-10.6193
CO	-10.6193
▁Ġphotograph	-10.6195
▁ĠRy	-10.6196
▁665	-10.6197
▁900	-10.62
▁Ġcomplain	-10.6204
▁Ġprotest	-10.6207
▁698	-10.621
▁Ġcommand	-10.6214
ania	-10.6221
▁655	-10.6227
▁580	-10.6228
▁Ġcomment	-10.6228
▁Ġad	-10.6228
▁570	-10.6229
▁850	-10.6232
▁Ġscor	-10.6234
▁Ġmurder	-10.6237
▁2200	-10.6242
fast	-10.6242
view	-10.6242
▁Ġsuit	-10.6254
soft	-10.6257
ional	-10.6259
▁Ġchar	-10.6265
▁Ġpoint	-10.6266
▁our	-10.6267
▁ĠFo	-10.6271
▁1000	-10.6274
pool	-10.6291
▁1200	-10.6298
▁568	-10.6305
▁Ġsecret	-10.6306
▁Ġfa	-10.6311
▁Ġemploy	-10.6314
▁950	-10.6317
▁Ġlaugh	-10.6331
▁Ġproject	-10.6332
▁ĠAir	-10.6337
▁700	-10.6339
ASE	-10.634
▁Ġgovern	-10.634
EG	-10.6349
mouth	-10.6353
▁587	-10.6354
\\	-10.6357
▁565	-10.6358
▁556	-10.6365
▁586	-10.6365
ina	-10.6373
▁558	-10.6374
▁559	-10.6375
▁557	-10.6375
▁588	-10.6381
anda	-10.6382
▁589	-10.6382
▁578	-10.6384
▁Ġscal	-10.6384
▁579	-10.6386
▁Ġtr	-10.6386
▁Ġselect	-10.6387
▁on	-10.6387
▁Ġlimit	-10.639
▁ĠWel	-10.6393
ski	-10.6393
▁576	-10.6394
lot	-10.6396
▁596	-10.6399
▁577	-10.6402
▁585	-10.6405
▁750	-10.6405
▁598	-10.6409
▁Ġtend	-10.6409
▁656	-10.6412
▁5006	-10.6414
▁650	-10.6414
****************	-10.6415
▁Ġprompt	-10.6415
▁Ġportray	-10.6415
▁Ġwarrant	-10.6415
▁Ġconfront	-10.6416
▁Ġrespect	-10.6416
▁5007	-10.6416
▁Ġrecruit	-10.6417
▁Ġadjust	-10.6417
▁597	-10.6417
▁Ġdisappear	-10.6418
▁umb	-10.642
▁ĠWiki	-10.642
▁Ġpoison	-10.642
▁Ġremain	-10.6423
▁Ġpump	-10.6423
▁Ġknock	-10.6423
▁ĠFrank	-10.6424
▁Ġrecover	-10.6425
▁ĠLab	-10.6427
▁5008	-10.6428
▁Ġregard	-10.6428
▁575	-10.6429
▁Ġdownload	-10.6431
▁Ġdrain	-10.6432
▁Ġavoid	-10.6432
▁Ġsupport	-10.6433
▁599	-10.6433
ets	-10.6434
▁Ġè	-10.6434
▁ĠMarket	-10.6435
▁Ġalter	-10.6436
▁Ġdo	-10.6437
▁595	-10.6437
▁Ġlabel	-10.6438
▁Ġblack	-10.6438
▁Ġscrap	-10.6438
▁Ġblind	-10.6439
▁5009	-10.644
▁Ġop	-10.644
▁Ġconfirm	-10.6442
▁ĠBrook	-10.6443
▁Ġoff	-10.6444
▁Ġcrack	-10.6446
▁Ġcondemn	-10.6447
▁Ġallow	-10.6448
▁Ġtransition	-10.6449
olf	-10.645
▁Ġexploit	-10.6451
ass	-10.6452
▁Ġher	-10.6456
tarian	-10.646
▁ĠFle	-10.6461
▁Ġcondition	-10.6462
FC	-10.6467
▁Ġspark	-10.647
▁ĠSky	-10.6472
▁Ġworld	-10.6476
▁Ġtrick	-10.648
▁555	-10.6482
▁Ġfuel	-10.6483
active	-10.6484
▁Ġseason	-10.6492
▁Ġrisk	-10.6495
▁ĠNY	-10.6501
▁us	-10.6506
ched	-10.6513
▁Ġhang	-10.6515
▁5005	-10.6515
▁Ġstream	-10.6517
amine	-10.6518
▁Ġsleep	-10.652
▁Ġneed	-10.6525
DS	-10.6526
▁Ġparent	-10.6526
ador	-10.6527
▁Ġorder	-10.6527
raft	-10.6532
atic	-10.6535
ston	-10.654
▁Ġlocal	-10.6545
▁Ġinstall	-10.6548
▁Ġflow	-10.6548
CS	-10.6549
▁Ġposition	-10.6549
▁Ġcolor	-10.655
▁ĠAngel	-10.6553
▁Ġhere	-10.6554
▁Ġvisit	-10.6558
▁Ġrock	-10.6561
▁ĠAT	-10.6562
▁Ġsignal	-10.6563
▁[	-10.6564
▁Ġlink	-10.6565
▁Ġsweat	-10.6568
▁Ġsimpl	-10.657
▁Ġlack	-10.657
▁uck	-10.6571
▁ĠTurn	-10.6576
▁Ġbond	-10.6582
▁ĠSupport	-10.6585
▁Ġclimb	-10.6587
▁Ġextract	-10.6591
▁Ġresult	-10.6591
▁ĠWood	-10.6592
▁Ġnight	-10.6592
▁ĠGold	-10.6596
▁Ġmelt	-10.6598
pedia	-10.6599
▁Ġleak	-10.6603
augh	-10.6603
▁Ġtrust	-10.6604
OP	-10.6606
▁800	-10.6611
▁Ġmoral	-10.6615
▁OT	-10.6618
▁Ġbreath	-10.6619
▁ĠQu	-10.6619
tz	-10.6626
▁ĠCreat	-10.6626
▁ĠUS	-10.6627
▁Ġmain	-10.6628
▁Ġsc	-10.6635
▁Ġcaus	-10.6637
stead	-10.6638
▁ĠSab	-10.6644
tive	-10.6645
▁ĠDec	-10.6648
▁Ha	-10.6652
▁Ġinsert	-10.6654
▁600	-10.6654
each	-10.6658
▁2500	-10.6659
UM	-10.6659
▁Ġimpe	-10.666
▁1500	-10.6662
▁Ġaffect	-10.6663
ove	-10.6665
▁Ġimport	-10.6667
▁Ġreject	-10.6671
▁ift	-10.6675
▁ĠProvide	-10.6676
ration	-10.6681
▁Ġfair	-10.6681
▁Ġcheer	-10.6682
▁ia	-10.669
▁Ġrespond	-10.669
▁ĠCount	-10.6691
▁ah	-10.6696
ger	-10.6702
▁Ġcook	-10.6705
▁Ġconsist	-10.6707
ational	-10.671
▁Ġdismiss	-10.6716
▁666	-10.6718
▁Ġbatter	-10.6723
wick	-10.6724
▁ĠScot	-10.6726
▁Ġfra	-10.6726
▁Ġsound	-10.6728
▁Ġassist	-10.673
▁Ġentr	-10.6733
▁550	-10.6734
ora	-10.674
▁Ġemb	-10.6749
▁ĠLI	-10.6753
▁Ġinterview	-10.6755
▁ĠReport	-10.6764
▁ĠPark	-10.6767
hub	-10.6767
▁Ġheal	-10.6767
▁5010	-10.677
▁Ġnarrow	-10.6775
ector	-10.6784
▁Ġcoast	-10.6785
▁ĠCent	-10.6791
▁Ġjump	-10.6794
▁Ġdestroy	-10.6797
uous	-10.6799
CP	-10.6802
he	-10.6806
ogy	-10.681
▁Ġpi	-10.6811
vision	-10.6812
▁Ġvari	-10.6812
emon	-10.6817
void	-10.6822
▁Ġreflect	-10.6826
▁tain	-10.6826
polis	-10.6826
▁760	-10.6838
ko	-10.6842
ami	-10.6843
▁Ġcl	-10.6846
▁uff	-10.6848
▁Ġmar	-10.6848
▁ĠLy	-10.6849
SD	-10.685
▁Ġbull	-10.6854
▁her	-10.6857
▁Ġhat	-10.6857
▁Ġth	-10.686
▁Ġsens	-10.6862
sexual	-10.6864
mond	-10.6864
▁Ġrestrict	-10.6864
▁Ġsuggest	-10.6865
TV	-10.6866
▁iz	-10.6867
▁ort	-10.6875
▁Ġboil	-10.6877
▁Ġconduct	-10.6879
▁1027	-10.6886
▁999	-10.6892
▁Ġwarm	-10.6892
▁Ġinsist	-10.6894
▁ĠPort	-10.6902
▁...	-10.6903
▁ograph	-10.6904
▁Ġpe	-10.6905
▁ĠSpo	-10.6905
▁1016	-10.6912
▁Ġblend	-10.6914
▁Ġwhere	-10.6921
ola	-10.6937
▁OU	-10.6942
▁1945	-10.6948
▁1920	-10.695
▁2020	-10.6954
▁rib	-10.6963
▁Ġblast	-10.6969
stone	-10.697
▁ĠStart	-10.6971
ensive	-10.6973
ction	-10.6977
).	-10.6977
▁ze	-10.698
name	-10.6982
eat	-10.6984
▁arch	-10.6986
rett	-10.6988
▁ous	-10.6989
og	-10.6995
▁ĠTre	-10.6996
▁Ġattend	-10.6997
▁ĠMerc	-10.6999
▁ĠMont	-10.7003
▁Ġload	-10.7005
▁Ġbroad	-10.7005
▁ĠWH	-10.7008
▁Ġround	-10.7013
ush	-10.7018
▁Ġfield	-10.7022
▁ĠTele	-10.7024
▁Ġrest	-10.7028
▁Ġinteract	-10.7032
PLE	-10.7032
▁2010	-10.7033
qu	-10.7042
▁Ġaddict	-10.7048
clear	-10.705
▁ear	-10.7053
▁Ġyell	-10.7055
▁ĠUN	-10.707
▁redit	-10.7072
oc	-10.7073
▁Ġmodel	-10.7074
▁ĠKill	-10.7081
▁Ġwi	-10.7082
▁ĠPass	-10.7086
lo	-10.709
▁Ġtrack	-10.7094
tcher	-10.7097
▁print	-10.7106
▁ĠCom	-10.7108
tions	-10.7109
▁ano	-10.7111
▁2003	-10.7113
▁2004	-10.7114
▁5017	-10.7115
▁5016	-10.7118
special	-10.7121
▁Ġdoubt	-10.7122
▁ĠZo	-10.7129
▁ĠWor	-10.7131
ARE	-10.7132
▁5018	-10.7135
▁Ġhigh	-10.7135
▁930	-10.7143
col	-10.7147
▁2017	-10.715
▁2016	-10.7152
▁so	-10.7154
▁Ġta	-10.7159
▁Ġscar	-10.7161
▁830	-10.7161
▁ĠMy	-10.7163
▁940	-10.7165
▁1001	-10.717
▁ĠDar	-10.717
▁EL	-10.717
older	-10.7172
▁2015	-10.7181
▁Ġpu	-10.7181
ential	-10.7185
▁5015	-10.7188
▁IN	-10.7188
▁2018	-10.719
▁810	-10.7197
▁840	-10.72
▁ĠExp	-10.7205
▁Ġus	-10.7213
▁730	-10.7215
▁Ġda	-10.7218
▁ĠPres	-10.7219
▁1963	-10.722
▁ĠShel	-10.7226
▁1964	-10.7232
era	-10.7237
▁740	-10.7237
▁ĠInf	-10.724
▁910	-10.7242
aster	-10.7246
▁ĠBuff	-10.7249
▁ĠHigh	-10.725
lock	-10.7259
▁1994	-10.7262
▁1984	-10.7265
▁949	-10.7265
▁1983	-10.7267
▁1993	-10.7268
▁1974	-10.727
▁Ġpoll	-10.7271
kin	-10.7272
▁630	-10.7274
▁2002	-10.7278
▁1973	-10.7278
▁1982	-10.728
▁5019	-10.7284
▁ida	-10.7286
▁1972	-10.7286
▁1992	-10.7288
▁Ġball	-10.7291
ella	-10.7293
▁Ġradi	-10.7293
▁ason	-10.7294
▁1981	-10.7296
EL	-10.7301
bod	-10.7301
▁1971	-10.7305
▁710	-10.7307
▁Ġbu	-10.7308
▁748	-10.7313
front	-10.7315
▁Ġissu	-10.7315
▁1991	-10.732
▁IL	-10.7323
▁To	-10.7323
▁load	-10.7325
▁820	-10.7326
▁ĠFre	-10.7336
▁ĠAg	-10.7337
▁920	-10.7343
▁ĠMA	-10.7344
▁Ġtext	-10.7344
▁ĠJud	-10.7359
▁ĠTom	-10.7361
▁La	-10.7366
▁ĠStra	-10.7368
▁Ho	-10.7368
▁Ġsol	-10.737
▁Ġbattle	-10.7376
PR	-10.7377
▁ĠTH	-10.738
▁747	-10.7381
▁_	-10.7384
▁ĠPrim	-10.7389
▁Ġcut	-10.7392
▁Ġlarge	-10.7393
▁745	-10.7395
▁Ġagree	-10.7398
▁736	-10.7401
▁ĠVen	-10.7402
▁815	-10.7405
▁825	-10.7408
▁amm	-10.7409
▁2001	-10.741
▁Ġfill	-10.7414
▁ail	-10.7415
▁925	-10.7417
▁916	-10.7421
▁640	-10.7422
▁ĠMal	-10.7423
▁720	-10.7426
▁610	-10.7427
▁2019	-10.7431
cade	-10.7438
▁727	-10.7443
▁728	-10.7444
▁648	-10.7448
▁635	-10.7449
▁ĠBuck	-10.7451
▁Ġgreat	-10.7452
▁915	-10.7453
▁Ġbright	-10.7454
▁729	-10.7454
▁ĠSi	-10.7457
▁Ġthe	-10.7457
▁647	-10.7461
▁646	-10.7462
▁ĠVol	-10.7462
▁Ġcro	-10.7471
▁649	-10.7471
▁ĠUp	-10.7477
etic	-10.7482
IS	-10.7484
▁Ġconnect	-10.7485
▁620	-10.7486
▁hen	-10.7486
▁Ġsuck	-10.7488
als	-10.7488
▁Ġsafe	-10.7495
▁all	-10.7496
▁act	-10.7499
rison	-10.7501
▁627	-10.7503
▁test	-10.7503
nia	-10.7503
▁628	-10.7504
▁626	-10.7507
▁725	-10.7507
▁718	-10.751
▁Ġti	-10.7511
▁629	-10.7514
ook	-10.7514
▁ib	-10.7515
mar	-10.7517
UR	-10.7521
za	-10.7522
tation	-10.7523
▁atter	-10.7524
▁645	-10.753
▁AC	-10.7533
tter	-10.7537
▁ĠDam	-10.7549
▁ĠOp	-10.755
▁617	-10.7552
▁616	-10.7552
▁MA	-10.7555
▁lin	-10.7556
▁Ġtouch	-10.7565
ene	-10.7567
▁Ġmanage	-10.7579
▁ord	-10.7581
▁Ġfil	-10.7582
▁615	-10.7584
▁618	-10.759
II	-10.7592
▁ĠAp	-10.7592
DR	-10.7595
US	-10.7602
airs	-10.7603
ave	-10.7603
ov	-10.7606
sc	-10.7606
▁ĠKath	-10.7606
▁625	-10.7622
▁ĠWa	-10.7625
▁Ġmix	-10.7626
▁893	-10.7634
▁ĠPan	-10.7636
▁864	-10.7639
rm	-10.7642
▁Ġextra	-10.765
ign	-10.7651
▁Ġrevers	-10.7662
▁report	-10.7677
port	-10.7679
▁Ġrent	-10.768
rain	-10.7687
rious	-10.7694
att	-10.7698
▁954	-10.7701
▁804	-10.7702
ress	-10.7702
lor	-10.7702
▁803	-10.7702
▁art	-10.7709
▁ĠLen	-10.7711
▁953	-10.7712
▁Ġadd	-10.7715
▁704	-10.7716
▁703	-10.7716
▁604	-10.7719
▁603	-10.7719
▁plet	-10.7723
▁Ġban	-10.7726
▁ĠSand	-10.7726
▁ĠPara	-10.7731
▁763	-10.7736
▁952	-10.7744
ALL	-10.7751
▁ĠMcG	-10.7756
ORE	-10.7757
▁Ġvan	-10.7758
▁Ġprocess	-10.7758
▁901	-10.7763
▁762	-10.7763
▁951	-10.7767
▁<	-10.7768
▁ĠCall	-10.7773
▁ĠKan	-10.7779
▁War	-10.778
▁884	-10.7781
▁aster	-10.7784
▁883	-10.7784
▁vert	-10.7784
▁794	-10.7792
▁994	-10.7793
elling	-10.7793
▁784	-10.7793
▁530	-10.7793
iel	-10.7794
▁548	-10.7794
▁783	-10.7796
▁ĠFin	-10.7797
▁882	-10.7797
▁540	-10.7798
▁793	-10.7799
▁993	-10.7799
▁ĠMos	-10.7805
▁654	-10.7808
▁782	-10.7808
▁Br	-10.7809
▁546	-10.7809
▁754	-10.7811
▁549	-10.7817
▁792	-10.7818
▁992	-10.7818
▁653	-10.7818
▁753	-10.7821
▁774	-10.7824
▁Ġten	-10.7825
▁min	-10.7826
▁781	-10.7826
▁694	-10.7827
▁684	-10.7827
▁683	-10.7829
▁674	-10.7832
▁693	-10.7833
▁773	-10.7833
▁673	-10.784
▁663	-10.784
▁772	-10.7841
▁682	-10.7842
▁602	-10.7844
▁672	-10.7848
lace	-10.7848
▁652	-10.7851
ago	-10.7852
▁Ġwatch	-10.7852
▁692	-10.7852
▁752	-10.7853
▁681	-10.7859
oken	-10.786
▁771	-10.7861
sure	-10.7867
▁662	-10.7868
▁671	-10.7868
▁endi	-10.7868
rit	-10.7869
▁Ġrap	-10.7873
▁es	-10.7874
▁651	-10.7874
▁545	-10.7876
▁751	-10.7877
▁802	-10.7879
▁Ġsize	-10.7879
▁Stat	-10.7886
▁563	-10.7887
▁691	-10.7887
▁661	-10.7888
▁538	-10.7893
▁702	-10.7894
▁Ġpop	-10.7895
▁Ġsustain	-10.7895
▁3333	-10.7899
▁ĠBas	-10.7903
▁ĠVari	-10.7906
▁536	-10.791
▁Ġlin	-10.7912
▁510	-10.7913
▁562	-10.7916
▁ĠBru	-10.7918
OD	-10.7922
▁ĠLan	-10.7922
▁1111	-10.7924
▁Se	-10.7925
▁537	-10.7926
▁801	-10.7926
lan	-10.7937
lf	-10.7939
▁561	-10.7941
aught	-10.7943
▁ĠDal	-10.7951
▁Ġspo	-10.7951
▁RE	-10.7952
▁535	-10.7953
▁528	-10.7953
lean	-10.7956
▁526	-10.7956
▁Ġgro	-10.7959
▁Ġtour	-10.7959
▁Ġspa	-10.7962
▁520	-10.7962
▁ĠHol	-10.7963
▁ip	-10.7963
▁Ġpac	-10.797
▁554	-10.7979
▁594	-10.7985
▁584	-10.7985
▁AT	-10.7985
▁583	-10.7987
▁553	-10.7989
▁593	-10.7991
▁574	-10.7991
worth	-10.7992
▁601	-10.7994
▁ĠSub	-10.7994
▁Ġfinal	-10.7994
▁701	-10.7997
▁ĠPost	-10.7997
▁573	-10.7999
kind	-10.7999
▁582	-10.8
▁ain	-10.8001
lands	-10.8002
▁572	-10.8007
▁592	-10.8011
RC	-10.8013
▁581	-10.8015
▁529	-10.8018
▁516	-10.8022
▁517	-10.8022
▁552	-10.8023
▁571	-10.8025
▁Ġcom	-10.8026
▁iver	-10.803
▁ĠTw	-10.803
▁Ġconsider	-10.803
▁au	-10.8032
▁Ġclose	-10.8033
▁Ġread	-10.8033
▁Ġfu	-10.8036
▁Ġpro	-10.804
▁Ġmemor	-10.8041
▁Ġbl	-10.8043
▁591	-10.8045
▁551	-10.8045
▁Ġspin	-10.8046
▁Ġreact	-10.8047
▁515	-10.805
▁Ġnational	-10.8059
▁518	-10.8063
▁Ġdepress	-10.8064
▁525	-10.8072
▁Ġearn	-10.8084
▁ĠRock	-10.8087
▁ato	-10.8095
▁Ġgoal	-10.8097
▁ES	-10.8102
▁olog	-10.8107
▁Ġreason	-10.8108
▁ĠPur	-10.8109
ast	-10.8114
min	-10.8119
▁In	-10.8124
▁ere	-10.8126
▁Ġcatch	-10.8131
▁Ġtravel	-10.8134
▁Ġhum	-10.8135
▁Ġcra	-10.8137
win	-10.8145
▁ĠCl	-10.8147
▁1024	-10.8154
▁Ġstress	-10.8164
▁per	-10.8166
nie	-10.8167
▁grad	-10.8168
▁ĠFar	-10.8174
▁X	-10.8181
▁ID	-10.8186
▁Ġexhaust	-10.8187
▁me	-10.819
▁Ġview	-10.8197
▁ĠAdd	-10.8199
▁Ġfavor	-10.821
▁Ġprogress	-10.8216
▁ĠBow	-10.8216
▁ĠCho	-10.8223
▁4506	-10.8226
▁urs	-10.8226
▁3506	-10.8226
tes	-10.8227
ference	-10.8236
cation	-10.8237
ace	-10.8238
▁ĠBrit	-10.8238
tern	-10.8239
▁4507	-10.8239
▁3507	-10.824
▁4509	-10.825
▁3509	-10.825
▁iet	-10.8255
▁1506	-10.8262
▁AM	-10.8263
▁2506	-10.8263
▁ay	-10.8268
ache	-10.8275
▁1507	-10.8276
▁2507	-10.8277
pite	-10.8282
▁Sa	-10.8283
▁Ġplace	-10.8283
▁Ġpur	-10.8284
▁4508	-10.8284
▁3508	-10.8285
▁1509	-10.8287
▁2509	-10.8287
BA	-10.8294
dding	-10.8297
sp	-10.8306
▁ili	-10.831
▁519	-10.8313
otten	-10.8313
▁ĠDur	-10.8314
mb	-10.8316
▁Ġhop	-10.8317
▁1508	-10.8321
▁Ġlate	-10.8322
▁2508	-10.8322
▁Ġtra	-10.8325
don	-10.8326
ween	-10.8332
▁Ġpast	-10.8332
▁ver	-10.8341
▁Ġclean	-10.8344
▁Ġshe	-10.8347
▁ĠPol	-10.8355
▁2014	-10.8357
▁2013	-10.8364
æ	-10.8367
▁2012	-10.8368
ocket	-10.8369
▁ĠDan	-10.837
▁4505	-10.8372
▁3505	-10.8372
▁Ġadvis	-10.838
▁Ġobserv	-10.8383
▁2011	-10.839
▁ĠUni	-10.8401
▁Ġcit	-10.8402
orough	-10.8403
▁Ġrubb	-10.8408
ona	-10.8408
▁1505	-10.8409
▁Ġsham	-10.8409
▁2505	-10.8409
▁Ġtor	-10.841
▁ide	-10.8411
▁Ġweigh	-10.8413
▁Ġfort	-10.8418
▁Ġser	-10.8422
graph	-10.8423
rick	-10.8424
▁Ġrever	-10.8425
▁4006	-10.8438
▁3006	-10.8438
▁Ġflu	-10.844
▁App	-10.8442
▁4706	-10.8444
▁3706	-10.8445
▁2706	-10.8445
▁1706	-10.8447
▁4606	-10.8447
▁4906	-10.8447
ãĥĨ	-10.8447
▁3906	-10.8448
▁3606	-10.8448
▁4806	-10.8448
▁2906	-10.8448
▁2606	-10.8448
▁3806	-10.8448
▁2806	-10.8449
▁AD	-10.8451
▁4007	-10.8453
▁3007	-10.8453
▁4607	-10.846
▁4907	-10.846
▁3907	-10.8461
▁3607	-10.8461
▁4807	-10.8461
▁2907	-10.8461
▁2607	-10.8461
▁3807	-10.8462
▁2807	-10.8462
▁4009	-10.8462
▁3009	-10.8462
▁EM	-10.8464
▁Ġfin	-10.8465
▁Ġsw	-10.8466
▁4709	-10.8469
▁3709	-10.8469
▁2709	-10.847
▁Ġinf	-10.847
▁1709	-10.8471
▁4609	-10.8471
▁3609	-10.8472
▁4809	-10.8472
▁2609	-10.8473
▁3809	-10.8473
▁ĠTrans	-10.8473
▁2809	-10.8473
▁4909	-10.8474
▁3909	-10.8474
▁2909	-10.8474
xon	-10.8477
nel	-10.848
vin	-10.8481
▁1606	-10.8481
▁ĠBre	-10.8482
▁1806	-10.8482
▁Ġcompar	-10.8487
▁ha	-10.849
▁Ġcolon	-10.849
▁Ġcell	-10.8491
▁ĠBen	-10.8491
▁Ġland	-10.8493
▁1607	-10.8494
▁1807	-10.8495
▁4008	-10.8496
▁3008	-10.8496
▁Ġadopt	-10.85
tra	-10.8501
its	-10.8501
▁4708	-10.8502
▁3708	-10.8503
▁2708	-10.8503
▁Ġfan	-10.8503
▁1708	-10.8504
▁4908	-10.8505
▁3908	-10.8505
▁1609	-10.8505
▁2908	-10.8506
lex	-10.8506
▁1809	-10.8506
held	-10.8507
@	-10.8507
▁ĠBer	-10.8509
▁3090	-10.8513
▁4608	-10.8514
▁3608	-10.8515
▁4808	-10.8515
▁Ġrac	-10.8515
▁2608	-10.8515
▁4590	-10.8515
▁3808	-10.8515
▁2808	-10.8516
▁Ġexecut	-10.8516
▁3590	-10.8519
▁1090	-10.852
▁2590	-10.852
▁1590	-10.8522
▁1006	-10.8522
▁ĠOb	-10.8523
▁4690	-10.8526
▁4790	-10.8526
▁4890	-10.8527
▁4990	-10.8528
▁3990	-10.8529
▁ud	-10.8529
▁2990	-10.8529
▁3690	-10.853
▁3790	-10.853
▁3890	-10.853
▁2690	-10.8531
▁2790	-10.8531
▁2890	-10.8531
▁1790	-10.8532
▁1690	-10.8533
▁2090	-10.8534
tting	-10.8534
rance	-10.8535
▁4707	-10.8544
▁3707	-10.8544
▁2707	-10.8545
▁1707	-10.8546
▁Ġtur	-10.8547
▁1009	-10.8547
▁1608	-10.8548
▁1808	-10.8549
▁Ġski	-10.8553
▁4060	-10.8554
▁3060	-10.8555
▁4070	-10.8556
▁3070	-10.8557
▁ogen	-10.8559
▁4080	-10.856
▁3080	-10.856
▁1060	-10.8562
▁4090	-10.8563
▁4560	-10.8568
▁1906	-10.8571
▁3560	-10.8572
▁4860	-10.8572
▁4660	-10.8572
▁4580	-10.8574
▁2560	-10.8574
▁1560	-10.8574
▁3580	-10.8575
▁4880	-10.8575
▁4005	-10.8575
▁3005	-10.8575
▁Ġdevelop	-10.8575
▁4570	-10.8576
▁3860	-10.8576
▁2860	-10.8576
▁2580	-10.8576
▁2060	-10.8576
▁3570	-10.8576
▁3660	-10.8576
▁4870	-10.8576
▁Add	-10.8576
▁2660	-10.8577
▁1580	-10.8577
▁2570	-10.8578
▁2070	-10.8578
▁1660	-10.8579
▁3880	-10.8579
▁1570	-10.8579
▁2880	-10.8579
▁3870	-10.858
▁1008	-10.858
▁2870	-10.858
▁4705	-10.8581
▁3705	-10.8582
▁2080	-10.8582
▁4680	-10.8582
▁2705	-10.8582
▁4960	-10.8582
▁4780	-10.8582
▁1705	-10.8583
▁4670	-10.8583
▁4770	-10.8584
▁4605	-10.8584
▁1907	-10.8584
▁3605	-10.8584
▁4805	-10.8585
▁1890	-10.8585
▁2605	-10.8585
▁4980	-10.8585
▁3805	-10.8585
▁2805	-10.8586
▁3680	-10.8586
▁3960	-10.8586
▁4905	-10.8586
▁3780	-10.8586
▁2680	-10.8586
▁2780	-10.8586
▁3905	-10.8586
▁2960	-10.8586
▁4970	-10.8586
▁2905	-10.8587
▁3970	-10.8587
▁1780	-10.8587
▁3670	-10.8587
▁3770	-10.8587
▁2670	-10.8588
▁2770	-10.8588
▁1680	-10.8588
▁3980	-10.8589
▁1770	-10.8589
▁2980	-10.8589
▁1670	-10.859
▁2970	-10.8591
▁pp	-10.8592
of	-10.8594
though	-10.8596
Onl	-10.8596
▁1909	-10.8597
trust	-10.8601
▁Ġwh	-10.8603
▁Ġfull	-10.8604
▁Ġpin	-10.8605
▁Ġaccus	-10.8606
thy	-10.8611
▁ĠCla	-10.8612
▁1070	-10.8614
▁833	-10.8616
ider	-10.8616
▁1605	-10.8618
▁1805	-10.8619
▁AP	-10.8627
▁1908	-10.8629
▁1860	-10.863
▁ace	-10.863
▁1880	-10.8632
▁1870	-10.8633
▁Ġwa	-10.8637
▁ĠPat	-10.8638
▁Ġsurviv	-10.8638
▁ĠBel	-10.8653
▁4760	-10.8655
oo	-10.8655
▁3760	-10.8658
▁2760	-10.8659
▁ĠPar	-10.8659
▁1760	-10.866
▁1005	-10.866
▁Ġhu	-10.8666
▁733	-10.8669
▁Ġperform	-10.8673
▁ĠFla	-10.8677
▁uc	-10.8683
▁Ġwire	-10.8686
▁oth	-10.8686
▁ĠSet	-10.8689
▁Ġlive	-10.869
▁Ġfarm	-10.8706
▁ĠSign	-10.8706
▁$	-10.8707
▁1905	-10.871
▁714	-10.8719
▁Ġdefend	-10.8721
▁ĠTE	-10.8721
▁augh	-10.8722
▁Ġdepend	-10.8723
▁ĠJun	-10.8726
▁713	-10.8726
▁Ġstick	-10.8727
▁712	-10.873
organ	-10.8731
▁read	-10.8733
▁Ġcampaign	-10.8748
▁Ġreview	-10.8749
▁Ġremind	-10.8755
▁Ġedit	-10.8756
▁Ġfr	-10.8757
▁Ġattack	-10.876
▁Ġtru	-10.8762
▁Ġfollow	-10.8764
▁911	-10.8768
▁orn	-10.8769
▁pa	-10.8772
dragon	-10.8776
▁Ġstart	-10.8779
▁4087	-10.8782
▁3087	-10.8783
▁ĠBall	-10.8787
▁Ġbrief	-10.8788
▁Ġhead	-10.879
▁644	-10.8791
▁Ġlisten	-10.8792
▁Ġcollect	-10.8795
▁643	-10.8796
▁4056	-10.8796
inal	-10.8796
▁3056	-10.8796
▁4086	-10.8799
▁4587	-10.88
▁3086	-10.88
▁3587	-10.88
▁2587	-10.8802
▁2087	-10.8803
▁1587	-10.8803
▁1056	-10.8803
▁Ġjoin	-10.8806
▁4687	-10.8807
▁4787	-10.8807
▁623	-10.8807
mer	-10.8807
▁4058	-10.8807
▁4887	-10.8808
▁3058	-10.8808
▁4700	-10.8809
ef	-10.8809
▁3700	-10.881
▁4987	-10.881
▁2700	-10.881
▁3687	-10.8811
▁3787	-10.8811
▁2687	-10.8811
▁2787	-10.8811
▁3887	-10.8812
▁614	-10.8812
▁4800	-10.8812
▁2887	-10.8812
▁1787	-10.8812
▁4600	-10.8813
▁3800	-10.8813
▁1687	-10.8813
▁3600	-10.8813
▁2800	-10.8813
▁4900	-10.8814
▁4556	-10.8814
▁3987	-10.8814
▁3900	-10.8814
▁3556	-10.8814
▁2987	-10.8814
▁1058	-10.8815
▁2900	-10.8815
▁1887	-10.8815
ooth	-10.8816
▁2056	-10.8817
▁4586	-10.8817
▁2556	-10.8817
▁1556	-10.8817
▁3586	-10.8817
▁4078	-10.8817
▁3078	-10.8818
▁4057	-10.8818
▁3057	-10.8818
▁2586	-10.8819
▁613	-10.8819
▁4856	-10.8819
▁1087	-10.882
▁1586	-10.882
▁2086	-10.882
▁4059	-10.8821
▁3059	-10.8821
▁4956	-10.8822
▁4079	-10.8823
birth	-10.8823
▁612	-10.8823
▁3856	-10.8823
▁4068	-10.8823
▁3079	-10.8823
▁2856	-10.8824
▁3068	-10.8824
▁4686	-10.8824
▁4786	-10.8824
▁4756	-10.8824
▁3756	-10.8825
▁1078	-10.8825
▁2756	-10.8825
▁4558	-10.8825
▁1057	-10.8825
▁3558	-10.8826
▁1856	-10.8826
▁1756	-10.8826
▁3956	-10.8826
▁4886	-10.8826
▁2956	-10.8827
▁4557	-10.8827
▁4067	-10.8827
▁4986	-10.8827
▁3067	-10.8827
▁3557	-10.8827
▁4088	-10.8828
▁3686	-10.8828
▁1059	-10.8828
▁3786	-10.8828
▁3088	-10.8828
▁2686	-10.8828
▁2558	-10.8828
▁1558	-10.8828
▁2786	-10.8828
▁2058	-10.8828
▁4559	-10.8829
▁1786	-10.8829
▁2557	-10.883
▁1557	-10.883
▁3559	-10.883
▁Ġcontradict	-10.883
▁3886	-10.883
▁4076	-10.883
▁1686	-10.883
▁1079	-10.883
▁2886	-10.883
▁1068	-10.883
▁3076	-10.8831
▁3986	-10.8831
▁4858	-10.8831
▁2986	-10.8831
▁4958	-10.8832
▁2559	-10.8832
▁1559	-10.8832
▁4857	-10.8832
▁4658	-10.8832
▁Ġboost	-10.8833
▁4089	-10.8833
▁3658	-10.8833
▁3089	-10.8833
▁4957	-10.8833
▁Ġdepict	-10.8833
▁2658	-10.8833
ILL	-10.8833
▁1067	-10.8834
▁4657	-10.8834
▁Ġbatt	-10.8834
▁Ġch	-10.8834
▁3657	-10.8834
▁2657	-10.8835
▁3858	-10.8835
▁4859	-10.8835
escent	-10.8835
▁2858	-10.8835
▁Ġprohibit	-10.8835
▁1658	-10.8835
▁Ġexhibit	-10.8836
▁3958	-10.8836
▁4758	-10.8836
▁4588	-10.8836
▁2958	-10.8836
▁3758	-10.8836
▁3857	-10.8836
▁4659	-10.8836
▁3588	-10.8836
▁Ġattract	-10.8836
▁2758	-10.8837
▁2857	-10.8837
▁1086	-10.8837
▁1657	-10.8837
▁3659	-10.8837
▁3957	-10.8837
▁4959	-10.8837
▁4757	-10.8837
▁4568	-10.8837
▁2659	-10.8837
▁1076	-10.8837
▁2957	-10.8837
▁1858	-10.8838
▁1758	-10.8838
▁3757	-10.8838
▁2588	-10.8838
▁2757	-10.8838
▁2078	-10.8838
▁4567	-10.8838
▁4578	-10.8839
▁3859	-10.8839
▁2057	-10.8839
▁1857	-10.8839
▁1588	-10.8839
▁1757	-10.8839
▁irt	-10.8839
▁2859	-10.8839
▁1659	-10.8839
▁3578	-10.8839
▁4759	-10.884
▁4077	-10.884
▁3759	-10.884
▁hes	-10.884
▁3077	-10.884
▁2759	-10.8841
▁2578	-10.8841
▁4589	-10.8841
▁4668	-10.8841
▁3959	-10.8841
▁3568	-10.8841
▁4788	-10.8841
▁2059	-10.8841
▁2959	-10.8841
▁3589	-10.8841
▁1859	-10.8842
▁1759	-10.8842
▁1578	-10.8842
▁3567	-10.8842
▁2589	-10.8843
▁4688	-10.8843
▁2079	-10.8844
edia	-10.8844
▁2568	-10.8844
▁1568	-10.8844
▁1589	-10.8844
▁4988	-10.8844
▁2068	-10.8844
▁ĠAF	-10.8844
▁4767	-10.8844
▁4667	-10.8844
▁4579	-10.8844
▁4878	-10.8845
▁3668	-10.8845
▁2567	-10.8845
▁3579	-10.8845
▁1567	-10.8845
▁2668	-10.8845
▁3788	-10.8845
▁4888	-10.8845
▁2788	-10.8846
▁4678	-10.8846
▁4778	-10.8846
▁3096	-10.8846
▁2579	-10.8846
▁1788	-10.8847
▁4868	-10.8847
▁3688	-10.8847
▁1668	-10.8847
▁1077	-10.8847
▁2067	-10.8847
▁2688	-10.8847
▁1579	-10.8848
▁3988	-10.8848
▁4689	-10.8848
▁4069	-10.8848
▁3767	-10.8848
▁3667	-10.8848
▁4789	-10.8848
▁2767	-10.8848
▁2988	-10.8848
▁3069	-10.8848
▁2667	-10.8848
▁2088	-10.8849
▁3878	-10.8849
▁2878	-10.8849
▁3888	-10.8849
▁1688	-10.8849
▁1767	-10.8849
▁2888	-10.885
▁3678	-10.885
▁4867	-10.885
▁3778	-10.885
▁4768	-10.885
▁4889	-10.885
▁4879	-10.885
▁2678	-10.885
▁1667	-10.885
▁2778	-10.885
▁3868	-10.8851
▁2076	-10.8851
▁4968	-10.8851
▁4989	-10.8851
▁2868	-10.8851
▁1878	-10.8851
▁4576	-10.8851
▁1778	-10.8852
▁4679	-10.8852
▁4779	-10.8852
▁3576	-10.8852
▁3689	-10.8852
▁ĠBi	-10.8852
▁3789	-10.8852
▁4967	-10.8852
▁4066	-10.8852
▁1678	-10.8852
▁2689	-10.8852
▁2789	-10.8852
▁4979	-10.8853
▁3066	-10.8853
▁ger	-10.8853
▁3979	-10.8853
▁1096	-10.8853
▁2089	-10.8853
▁2576	-10.8853
▁1789	-10.8854
▁3867	-10.8854
▁Ġassert	-10.8854
▁3768	-10.8854
▁3889	-10.8854
▁3879	-10.8854
▁4085	-10.8854
▁1689	-10.8854
▁2867	-10.8854
▁1868	-10.8854
▁2768	-10.8855
▁2889	-10.8855
▁2879	-10.8855
▁1576	-10.8855
▁3085	-10.8855
▁3968	-10.8855
▁3989	-10.8855
▁1069	-10.8855
▁2968	-10.8855
▁2989	-10.8855
▁Ġboo	-10.8855
▁3679	-10.8856
▁1768	-10.8856
▁3779	-10.8856
▁2679	-10.8856
▁2779	-10.8856
▁3967	-10.8856
▁2967	-10.8857
▁2979	-10.8857
▁3098	-10.8857
▁4098	-10.8857
▁1879	-10.8857
▁1779	-10.8857
▁4876	-10.8857
▁1867	-10.8858
▁1679	-10.8858
▁4596	-10.8858
▁4978	-10.8858
▁4676	-10.8859
▁3978	-10.8859
▁4776	-10.8859
▁Ġdraw	-10.8859
▁1066	-10.8859
▁642	-10.886
▁4976	-10.886
▁4569	-10.886
▁3976	-10.886
▁2077	-10.8861
▁4577	-10.8861
▁3876	-10.8861
▁2876	-10.8862
▁3577	-10.8862
▁3596	-10.8862
▁1700	-10.8862
▁3676	-10.8863
▁2978	-10.8863
▁3776	-10.8863
▁2676	-10.8863
▁2776	-10.8863
▁2577	-10.8863
▁4769	-10.8864
▁2596	-10.8864
▁1098	-10.8864
▁3569	-10.8864
▁2976	-10.8864
▁4566	-10.8864
▁1876	-10.8864
▁1776	-10.8864
▁1577	-10.8864
▁2600	-10.8865
▁1596	-10.8865
▁1676	-10.8865
▁1088	-10.8865
▁4669	-10.8866
▁2569	-10.8866
▁1569	-10.8866
▁2096	-10.8867
▁3097	-10.8867
▁4097	-10.8867
▁3769	-10.8868
▁2769	-10.8868
▁4766	-10.8868
▁3566	-10.8868
▁Ġimplement	-10.8868
▁4677	-10.8869
▁2069	-10.8869
▁1769	-10.8869
▁4696	-10.8869
▁4796	-10.8869
▁4877	-10.8869
▁4977	-10.887
▁3669	-10.887
▁Ġdetermin	-10.887
▁2669	-10.887
▁3977	-10.887
▁1089	-10.887
▁Ġmanifest	-10.887
▁4598	-10.887
▁2566	-10.8871
▁1566	-10.8871
▁4996	-10.8871
▁Ġprice	-10.8871
▁4896	-10.8871
▁4869	-10.8871
▁3996	-10.8871
▁4585	-10.8872
▁3766	-10.8872
▁1669	-10.8872
▁2996	-10.8872
▁Ġrecommend	-10.8872
▁2766	-10.8872
▁3585	-10.8872
▁3677	-10.8873
▁2677	-10.8873
▁1766	-10.8873
▁3696	-10.8873
▁2066	-10.8873
▁3796	-10.8873
▁3877	-10.8873
▁2696	-10.8874
▁2796	-10.8874
▁2585	-10.8874
▁2877	-10.8874
▁2977	-10.8874
▁1097	-10.8874
▁3598	-10.8874
▁2085	-10.8875
▁1796	-10.8875
▁1585	-10.8875
▁1677	-10.8875
NG	-10.8875
▁3896	-10.8875
▁3869	-10.8875
▁1696	-10.8875
▁Ġtrail	-10.8875
▁4969	-10.8876
▁2598	-10.8876
▁2896	-10.8876
▁2869	-10.8876
▁1877	-10.8876
▁1598	-10.8877
▁2098	-10.8878
▁4866	-10.8878
▁4966	-10.8878
▁4777	-10.8878
▁4685	-10.8879
▁4785	-10.8879
▁1869	-10.8879
▁3969	-10.888
▁4885	-10.888
▁2969	-10.888
▁4597	-10.8881
▁641	-10.8881
▁4798	-10.8881
▁4898	-10.8881
▁3866	-10.8882
▁3966	-10.8882
▁4985	-10.8882
▁2866	-10.8882
▁3777	-10.8882
▁2966	-10.8882
▁2777	-10.8882
▁3685	-10.8883
▁3785	-10.8883
▁4998	-10.8883
▁2685	-10.8883
▁2785	-10.8883
▁3998	-10.8884
▁1777	-10.8884
▁1886	-10.8884
▁3885	-10.8884
▁2885	-10.8884
▁2998	-10.8884
▁Ġattribut	-10.8884
▁1785	-10.8884
▁3597	-10.8885
▁1685	-10.8885
▁3798	-10.8885
▁3898	-10.8885
▁1866	-10.8885
▁2798	-10.8886
▁3985	-10.8886
▁2898	-10.8886
▁2597	-10.8886
▁Ġrepresent	-10.8886
▁2985	-10.8886
▁1798	-10.8887
▁1885	-10.8887
▁1597	-10.8887
▁2097	-10.8888
▁4075	-10.889
▁4698	-10.8891
▁3075	-10.8891
▁4697	-10.8892
▁4797	-10.8892
▁1085	-10.8892
▁4897	-10.8892
▁Ġspecific	-10.8893
▁3099	-10.8893
▁4099	-10.8893
▁4997	-10.8893
ndra	-10.8894
▁3997	-10.8894
▁2997	-10.8894
▁3698	-10.8895
▁2698	-10.8895
▁4055	-10.8895
▁3055	-10.8896
▁3697	-10.8896
▁3797	-10.8896
▁3897	-10.8896
▁2697	-10.8896
▁2797	-10.8896
▁2897	-10.8896
▁4096	-10.8897
▁1698	-10.8897
▁1797	-10.8897
▁1075	-10.8898
▁1697	-10.8898
▁4065	-10.8898
▁Ġdeb	-10.8898
▁3095	-10.8899
▁4095	-10.8899
▁3065	-10.8899
▁Ġsy	-10.8899
▁1099	-10.89
▁1055	-10.8902
▁4575	-10.8903
▁1888	-10.8903
▁3575	-10.8903
▁2575	-10.8905
▁1095	-10.8905
▁1065	-10.8905
▁1575	-10.8906
▁4599	-10.8907
▁1889	-10.8908
▁ĠAct	-10.8909
▁4675	-10.891
▁4775	-10.891
▁4955	-10.891
▁4875	-10.8911
▁3599	-10.8911
▁2075	-10.8911
▁4855	-10.8911
▁2599	-10.8912
▁4565	-10.8912
▁4595	-10.8912
▁4975	-10.8913
▁Ġassign	-10.8913
▁4555	-10.8913
▁3975	-10.8913
▁1599	-10.8913
▁Ġpunish	-10.8914
▁3555	-10.8914
▁3675	-10.8914
▁2099	-10.8914
▁3775	-10.8914
▁3955	-10.8914
▁4755	-10.8914
▁2675	-10.8914
▁2775	-10.8914
▁3875	-10.8915
▁2955	-10.8915
▁3755	-10.8915
▁2875	-10.8915
▁Ġembarrass	-10.8915
▁2755	-10.8915
▁Ġattempt	-10.8915
▁ĠSecond	-10.8915
▁Ġyield	-10.8915
▁Ġannoy	-10.8915
▁Ġsecond	-10.8915
▁Ġpharmac	-10.8915
▁Ġempower	-10.8915
▁3855	-10.8915
▁1775	-10.8915
▁Ġentertain	-10.8916
▁Ġharass	-10.8916
▁Ġmaintain	-10.8916
▁Ġabandon	-10.8916
▁2855	-10.8916
▁Ġalarm	-10.8916
▁2055	-10.8916
▁4665	-10.8916
įå	-10.8916
▁1755	-10.8916
▁3565	-10.8916
▁1675	-10.8916
▁3595	-10.8916
▁2555	-10.8916
▁1555	-10.8916
▁Ġrelax	-10.8916
▁Ġnovel	-10.8917
▁Ġwhisper	-10.8917
▁2975	-10.8917
▁Ġsucceed	-10.8917
▁Ġhighlight	-10.8917
▁1875	-10.8917
▁Ġdetail	-10.8917
▁2595	-10.8918
▁4699	-10.8918
▁4799	-10.8918
▁Ġscream	-10.8918
▁Ġunfold	-10.8918
▁Ġcease	-10.8918
▁1855	-10.8918
▁Ġreform	-10.8918
▁Ġflood	-10.8919
▁Ġarrest	-10.8919
▁Ġsneak	-10.8919
▁2565	-10.8919
▁1565	-10.8919
▁1595	-10.8919
▁2065	-10.8919
▁2095	-10.8919
▁Ġcreep	-10.8919
▁Ġdrink	-10.8919
▁Ġmyth	-10.8919
▁Ġguarantee	-10.892
▁3665	-10.892
▁Ġdisplay	-10.892
▁4899	-10.892
▁Ġretain	-10.892
▁2665	-10.892
▁Ġclaim	-10.892
▁ÃŃ	-10.892
▁4655	-10.892
▁Ġenerg	-10.8921
PORT	-10.8921
▁Ġdisappoint	-10.8921
▁3655	-10.8921
▁Ġpollut	-10.8921
▁2655	-10.8921
▁3699	-10.8922
▁Ġabsorb	-10.8922
▁3799	-10.8922
▁Ġreward	-10.8922
▁2699	-10.8922
▁2799	-10.8922
▁1665	-10.8922
▁4695	-10.8923
▁Ġunlock	-10.8923
▁1799	-10.8923
▁4795	-10.8923
▁4865	-10.8923
▁4895	-10.8923
▁1655	-10.8923
▁Ġexplain	-10.8923
▁3899	-10.8924
▁1699	-10.8924
▁4965	-10.8924
▁2899	-10.8924
▁4995	-10.8925
▁Ġtweak	-10.8925
▁3995	-10.8925
▁Ġsmell	-10.8925
▁Ġaward	-10.8925
▁Ġanalog	-10.8926
▁2995	-10.8926
▁Ġstrengthen	-10.8926
▁4656	-10.8927
▁3695	-10.8927
▁Ġfantas	-10.8927
▁3795	-10.8927
▁Every	-10.8927
▁3865	-10.8927
▁3895	-10.8927
▁2695	-10.8927
▁2795	-10.8927
▁Ġawait	-10.8927
▁3656	-10.8927
▁2865	-10.8928
▁2895	-10.8928
▁Ġmoment	-10.8928
▁3965	-10.8928
▁2656	-10.8928
▁Ġfirm	-10.8928
▁2965	-10.8928
▁1795	-10.8928
▁Ġfragment	-10.8929
▁1695	-10.8929
▁Over	-10.8929
▁Ġinvest	-10.893
▁1896	-10.893
▁Ġexpand	-10.893
▁1656	-10.893
▁Ġhappen	-10.893
▁Ġreveal	-10.8931
ott	-10.8931
▁Ġsa	-10.8932
▁Ġflavor	-10.8933
▁Ġindividual	-10.8933
▁Ġcoincide	-10.8934
▁Ġassault	-10.8934
▁Ġreturn	-10.8934
▁ĠAccount	-10.8934
▁Ġpupp	-10.8934
▁ĠAugust	-10.8934
▁Ġborder	-10.8934
▁Ġwrong	-10.8934
▁Ġmonitor	-10.8935
▁Ġimpact	-10.8935
▁Ġbitter	-10.8935
common	-10.8935
▁Ġâī	-10.8935
▁Ġpurpose	-10.8935
▁ĠLike	-10.8935
▁Ġthreaten	-10.8935
▁Ġtrigger	-10.8935
▁Ġcontact	-10.8936
▁Ra	-10.8936
▁Ġrequest	-10.8936
▁Ġcolour	-10.8936
▁Ġdream	-10.8936
▁Ġweek	-10.8937
▁Ġtarget	-10.8938
▁Ġtweet	-10.8938
▁ĠSnap	-10.8939
▁Ġtwist	-10.8939
▁Ġcontrast	-10.894
▁1898	-10.894
▁ĠRecord	-10.894
▁Ġflaw	-10.894
▁Ġhunt	-10.8941
▁Ġdemand	-10.8942
▁ĠSerge	-10.8943
▁Ġconcern	-10.8943
▁Ġtrain	-10.8945
▁ĠWeek	-10.8945
▁Ġorbit	-10.8945
▁Ġthank	-10.8945
▁ĠCommand	-10.8945
cross	-10.8945
▁Ġdrill	-10.8946
▁ĠFran	-10.8946
▁Ġruin	-10.8947
▁Ġwith	-10.8947
▁Ġboast	-10.8948
▁Ġdelay	-10.8948
▁1897	-10.895
▁ĠPok	-10.895
▁Ġdraft	-10.895
▁Ġsummon	-10.895
▁Ġfulfill	-10.8953
▁Ġpioneer	-10.8954
Date	-10.8954
▁Ġvolunteer	-10.8954
▁port	-10.8954
▁Ġencounter	-10.8955
▁Ġhealth	-10.8955
▁Ġshield	-10.8955
▁Ġadult	-10.8955
▁Ġwalk	-10.8956
weet	-10.8957
▁Ġclick	-10.8958
▁Ġextend	-10.8958
▁Ġrecall	-10.8958
▁ĠWW	-10.8959
▁Ġgroup	-10.896
▁Ġwonder	-10.896
▁Ġfilter	-10.896
▁Ġdump	-10.8961
▁Ġspawn	-10.8962
▁Ġcriminal	-10.8962
▁air	-10.8962
▁Ġcrowd	-10.8963
▁Ġtalk	-10.8964
▁Ġfet	-10.8964
▁Ġspill	-10.8965
▁Ġhabit	-10.8966
▁Ġadapt	-10.8966
▁Ġbother	-10.8967
▁Ġforward	-10.8967
▁Ġanswer	-10.8972
▁Ġguard	-10.8973
▁Ġfruit	-10.8974
▁Ġexport	-10.8974
▁ĠDown	-10.8974
▁Ġfast	-10.8976
▁ĠSpring	-10.8977
▁Ġbottle	-10.8978
▁1899	-10.8978
▁Ġsystem	-10.8979
▁Ġlevel	-10.898
▁Ġperfect	-10.898
▁Ġnumber	-10.898
▁1865	-10.8981
▁1895	-10.8982
▁Ġregister	-10.8982
▁ĠJew	-10.8983
▁Ġsuffer	-10.8984
▁Ġremember	-10.8985
▁1956	-10.8986
▁ĠCourt	-10.8986
put	-10.8987
▁Ġteam	-10.8987
▁Ġmention	-10.8989
▁Ġspecial	-10.8991
▁ĠNot	-10.8991
▁aze	-10.8992
▁Ġrepair	-10.8992
▁Ġcalm	-10.8993
▁4765	-10.8994
▁Ġpaper	-10.8995
▁Ġchair	-10.8995
▁Ġvideo	-10.8995
▁1958	-10.8996
▁1957	-10.8997
▁ĠLearn	-10.8997
▁3765	-10.8998
▁Ġappeal	-10.8998
▁2765	-10.8998
▁544	-10.8999
▁1765	-10.8999
▁Ġpos	-10.8999
ather	-10.9
▁Ġmeaning	-10.9001
▁vi	-10.9002
▁4999	-10.9002
▁Ġshout	-10.9002
▁3999	-10.9003
▁Ġbrand	-10.9003
▁2999	-10.9003
▁Ġengineer	-10.9004
▁Ġbri	-10.9005
▁Ġbenefit	-10.9008
▁Ġfold	-10.901
▁ĠDirector	-10.9011
▁Ġwound	-10.9012
▁Ġmathematic	-10.9012
▁Ġaim	-10.9012
▁Ġtrend	-10.9012
▁Ġfilm	-10.9014
▁4666	-10.9016
▁With	-10.9017
▁Ġhack	-10.9018
▁Ġdefeat	-10.9018
▁Ġappear	-10.902
▁3666	-10.902
▁Ġstead	-10.9021
▁2666	-10.9021
▁1666	-10.9023
▁ĠLouis	-10.9024
▁ĠBreak	-10.9026
▁Ġgig	-10.9026
▁Ġbirth	-10.903
▁Ġstain	-10.903
▁ĠHuman	-10.9031
▁Ġignor	-10.9032
▁ĠStan	-10.9032
arm	-10.9033
▁Ġmerc	-10.9034
▁Ġexplor	-10.9034
▁ĠByr	-10.9035
▁Ġmess	-10.9035
ean	-10.9036
sen	-10.9038
▁Ġspokes	-10.9039
▁Ġsquare	-10.904
▁Ġloud	-10.9041
▁Ġmount	-10.9042
▁Ġspell	-10.9043
▁Ġintend	-10.9045
▁ĠBron	-10.9046
withstand	-10.9046
▁Ġwide	-10.905
▁Ġworth	-10.9052
▁Ġrender	-10.9052
▁ĠOn	-10.9053
▁ĠHero	-10.9054
▁Ġcompress	-10.9055
▁Ġgreet	-10.9055
rium	-10.9055
▁Ġdirector	-10.9056
▁ĠCross	-10.9058
▁Ġcenter	-10.9058
▁Ġcommon	-10.9064
▁Ġafter	-10.9064
▁ĠBah	-10.9064
▁Ġconflict	-10.9065
nc	-10.9067
▁Ġhost	-10.9069
▁Ġstack	-10.9072
▁ma	-10.9074
Donald	-10.9074
▁Ġrail	-10.9074
▁1955	-10.9075
▁533	-10.9075
▁ĠWater	-10.9075
▁Ġdog	-10.9077
▁Ġspeed	-10.9077
▁Ġraid	-10.9078
▁Ġbill	-10.908
▁Ġstock	-10.9081
▁Ġap	-10.9083
▁ude	-10.9083
▁Ġscript	-10.9089
▁ĠPl	-10.909
▁Ġinterrupt	-10.9091
▁Ġsail	-10.9092
▁ĠWest	-10.9093
hap	-10.9093
▁Ġpsycho	-10.9094
▁Ġfundamental	-10.9095
▁Ġgear	-10.9101
▁Ġsponsor	-10.9102
▁ĠRosen	-10.9102
▁Ġfloat	-10.9104
▁Ġmorph	-10.9107
▁Ġsubject	-10.9109
▁Item	-10.911
▁Ġmat	-10.9111
▁Ġchant	-10.9113
▁ĠRep	-10.912
▁ĠShow	-10.9123
▁ĠEm	-10.9123
▁ĠMid	-10.9124
▁Ġroot	-10.9126
▁Ġste	-10.9126
▁Ġoptim	-10.9127
rine	-10.9129
▁Ġshift	-10.913
▁Ġleap	-10.913
▁utter	-10.913
▁Ġlower	-10.9133
▁Ġwood	-10.9134
▁ĠBrad	-10.9136
▁Ġstrong	-10.9137
▁ĠTrack	-10.9138
▁Ġthrow	-10.9139
▁go	-10.9139
▁Ġnest	-10.9141
▁524	-10.9141
▁Ġguid	-10.9144
▁Ġgain	-10.9144
▁ĠGall	-10.9146
▁Ke	-10.9148
▁523	-10.9148
▁Ġrep	-10.915
▁522	-10.9151
▁stat	-10.9151
▁Mi	-10.9152
▁Ġinsult	-10.9154
▁ĠGrim	-10.9155
▁Ġmail	-10.9157
▁grow	-10.9157
▁ĠDun	-10.9159
▁ĠMean	-10.9161
▁pack	-10.9161
nell	-10.9163
si	-10.9163
▁check	-10.9166
▁Ġsign	-10.9168
▁Ġpick	-10.9172
ou	-10.9174
▁514	-10.9176
▁ĠBet	-10.9177
▁Ġpull	-10.9177
ob	-10.9178
▁Ġcap	-10.918
munition	-10.918
▁itt	-10.9181
ouch	-10.9182
▁Ġang	-10.9182
▁513	-10.9183
▁Ġstay	-10.9184
▁906	-10.9186
▁Ġwant	-10.9188
▁ĠBomb	-10.9193
▁ĠPolic	-10.9194
▁ĠGib	-10.9196
yl	-10.9196
▁907	-10.9198
▁Ġprofessional	-10.92
▁ĠPRO	-10.9202
mark	-10.9202
▁Ġrobber	-10.9203
▁Ġdiv	-10.9203
▁890	-10.9206
▁511	-10.9208
▁ĠLight	-10.9211
▁Ġenter	-10.9211
▁Ġpair	-10.9216
▁Ġsoft	-10.9216
▁Ġfund	-10.9217
▁Ġboard	-10.9219
▁Ġequal	-10.9221
▁FA	-10.9226
▁ĠAS	-10.9227
▁Ġcorrespond	-10.9231
life	-10.9231
▁Ġpound	-10.9232
▁908	-10.9239
▁Ġsand	-10.924
▁Ġhall	-10.9241
iss	-10.9243
▁5025	-10.9246
▁512	-10.9247
▁4050	-10.9248
▁3050	-10.9248
▁Ġpursu	-10.9249
▁ĠMin	-10.925
▁Ġeas	-10.9251
▁sel	-10.9251
▁form	-10.9252
▁Ġpadd	-10.9254
▁4206	-10.9256
we	-10.9257
▁ĠHay	-10.9258
▁3206	-10.9258
ale	-10.9259
▁Ġbrewer	-10.9259
▁Ġsky	-10.926
▁4550	-10.9262
▁3550	-10.9262
▁Ġexit	-10.9264
▁ĠConvers	-10.9264
▁2550	-10.9265
▁1550	-10.9265
▁ank	-10.9266
ipher	-10.9266
▁ĠTurk	-10.9267
▁4207	-10.9268
▁ĠBeck	-10.9269
▁3207	-10.927
▁4650	-10.9271
▁4106	-10.9271
▁3650	-10.9271
▁2650	-10.9272
▁3106	-10.9273
▁4850	-10.9273
▁4950	-10.9274
▁4750	-10.9274
▁1650	-10.9274
▁4209	-10.9274
▁3750	-10.9275
▁Ġcraft	-10.9275
▁2750	-10.9275
▁1750	-10.9276
▁2106	-10.9276
▁Bo	-10.9276
▁3209	-10.9276
▁3850	-10.9277
▁2850	-10.9277
▁antic	-10.9277
▁3950	-10.9277
▁2950	-10.9278
▁4406	-10.9279
▁Ġclass	-10.9279
▁call	-10.9279
▁Ġgr	-10.928
▁Ġlift	-10.928
▁3406	-10.928
▁4306	-10.928
range	-10.9283
▁3306	-10.9283
▁2406	-10.9284
▁Ġme	-10.9284
▁1406	-10.9286
▁1306	-10.9287
▁2306	-10.9289
BI	-10.9289
▁4109	-10.9289
▁Ġstation	-10.929
▁Ġrecord	-10.929
▁4407	-10.9291
▁3109	-10.9291
▁ĠYe	-10.9292
▁3407	-10.9292
▁4307	-10.9292
▁2206	-10.9293
onto	-10.9294
▁2109	-10.9294
▁3307	-10.9295
▁2407	-10.9295
▁1206	-10.9295
▁Ġinhibit	-10.9296
▁Ġmean	-10.9297
▁1407	-10.9297
▁4309	-10.9298
▁1307	-10.9299
▁2307	-10.93
▁3309	-10.9301
▁roll	-10.9302
▁Mod	-10.9303
▁2207	-10.9305
▁1309	-10.9306
▁2309	-10.9307
▁1207	-10.9307
▁1050	-10.9309
▁4208	-10.931
▁1106	-10.9311
▁2209	-10.9311
▁3208	-10.9312
MS	-10.9312
▁Ġfeed	-10.9313
▁1209	-10.9314
▁And	-10.9317
▁Ġwell	-10.9321
▁order	-10.9321
▁Ġpack	-10.9326
▁2050	-10.9327
mph	-10.9328
▁1109	-10.9329
▁1850	-10.9331
▁4408	-10.9333
▁3408	-10.9334
▁4308	-10.9334
▁Ġblow	-10.9335
▁Ġgrant	-10.9335
▁3308	-10.9337
▁2408	-10.9337
ung	-10.9339
▁1408	-10.9339
ulos	-10.9339
▁Ġaid	-10.934
▁Ġtool	-10.9341
▁1308	-10.9341
▁2308	-10.9343
▁4390	-10.9345
▁4490	-10.9345
▁ĠDai	-10.9346
▁ell	-10.9346
▁2208	-10.9347
▁4290	-10.9347
▁3290	-10.9349
▁1208	-10.9349
▁4107	-10.935
▁3490	-10.935
▁Ġmeta	-10.9352
▁3107	-10.9352
▁3390	-10.9353
▁2490	-10.9353
▁2290	-10.9353
▁2107	-10.9355
▁1490	-10.9355
▁1290	-10.9355
rim	-10.9356
▁1390	-10.9356
▁2390	-10.9358
▁ĠãĤ	-10.9363
▁Ġjar	-10.9364
▁Ġdiffer	-10.9371
ounding	-10.9375
▁Ġdrive	-10.9376
▁ĠPu	-10.9376
▁ĠNin	-10.9382
▁4460	-10.9384
▁adi	-10.9387
▁ĠRub	-10.9387
▁4380	-10.9387
▁Ġintroduc	-10.9388
▁Ġkn	-10.9388
▁4360	-10.9389
▁4470	-10.9389
▁3460	-10.9389
▁4280	-10.939
▁4480	-10.939
▁4370	-10.939
▁1107	-10.939
▁4270	-10.9391
▁3280	-10.9392
▁3480	-10.9392
▁3360	-10.9392
▁2460	-10.9392
▁3270	-10.9393
▁ĠArt	-10.9394
▁Ġpaint	-10.9394
▁1460	-10.9394
▁3380	-10.9394
▁2480	-10.9395
▁3470	-10.9395
▁4405	-10.9395
▁1360	-10.9396
▁2280	-10.9396
▁3405	-10.9396
▁4305	-10.9396
▁1480	-10.9397
▁Ġown	-10.9397
▁2270	-10.9397
▁3370	-10.9397
▁2470	-10.9397
▁2360	-10.9398
▁1380	-10.9398
▁1270	-10.9399
▁1470	-10.9399
▁3305	-10.9399
▁2405	-10.9399
▁2380	-10.94
▁1370	-10.9401
▁ho	-10.9401
▁1405	-10.9402
▁2370	-10.9403
▁1305	-10.9403
▁ĠBlue	-10.9404
▁2305	-10.9405
▁4108	-10.9405
▁3108	-10.9407
ond	-10.9408
▁2108	-10.941
▁Ġblood	-10.9413
▁Ġtri	-10.9415
▁Ġsever	-10.9415
AS	-10.9418
eek	-10.9418
▁ĠBrig	-10.942
▁play	-10.9422
▁ĠBrun	-10.9423
season	-10.943
▁Ġtempt	-10.9432
▁4205	-10.9435
▁4409	-10.9435
▁3409	-10.9437
▁3205	-10.9437
▁5004	-10.944
▁2409	-10.944
elf	-10.9441
▁1409	-10.9443
▁1108	-10.9446
▁ĠForm	-10.9447
▁Ġask	-10.9447
▁5003	-10.945
▁4105	-10.945
▁4260	-10.9451
▁3105	-10.9452
iff	-10.9452
▁3260	-10.9453
▁Ġsuppress	-10.9453
▁2105	-10.9455
▁4170	-10.9455
▁4180	-10.9456
▁Ġï	-10.9457
▁2260	-10.9457
▁3170	-10.9457
▁3180	-10.9458
▁1280	-10.9458
▁1260	-10.9459
▁2170	-10.946
▁2180	-10.946
▁4160	-10.9461
▁3160	-10.9463
▁Ġfactor	-10.9464
▁Ġplant	-10.9464
▁1170	-10.9465
▁1180	-10.9465
▁2160	-10.9466
▁ĠBill	-10.9467
▁ĠWonder	-10.9468
THER	-10.9469
▁1160	-10.9471
inner	-10.9472
▁2205	-10.9473
▁1205	-10.9475
▁856	-10.9477
▁cell	-10.9478
▁ĠVo	-10.9481
ASS	-10.9484
zy	-10.9486
▁858	-10.9488
▁ĠRoll	-10.9488
unction	-10.9488
▁857	-10.9489
▁1105	-10.9491
▁ĠTest	-10.9494
▁859	-10.9494
▁ci	-10.9496
nk	-10.9498
▁ush	-10.95
tage	-10.9502
▁ĠPeters	-10.9504
▁Ġfool	-10.9511
▁ĠNAS	-10.9513
▁Ġtu	-10.9515
▁ĠIm	-10.952
▁aunt	-10.9523
▁oss	-10.9525
▁Ġar	-10.9527
▁878	-10.9529
▁Ġdispos	-10.9531
▁868	-10.9532
▁ixt	-10.9533
rl	-10.9535
▁867	-10.9536
▁ogene	-10.9536
▁4400	-10.9537
▁4300	-10.9537
▁879	-10.9537
▁5002	-10.9537
▁3400	-10.9538
rc	-10.954
▁3300	-10.954
▁IF	-10.954
▁876	-10.9542
ple	-10.9543
▁ĠRic	-10.9545
▁2300	-10.9546
▁IR	-10.9548
▁Ġsurg	-10.9552
▁967	-10.9554
▁Ġgun	-10.9556
▁979	-10.9556
▁869	-10.9558
▁976	-10.9561
▁Ġremov	-10.9563
tube	-10.9565
▁irl	-10.9566
▁ĠJin	-10.9567
▁ĠBurn	-10.9567
anor	-10.9569
▁977	-10.957
▁Ġsuccess	-10.957
▁Ġlast	-10.9572
▁898	-10.9572
▁Ġvap	-10.9573
▁ĠJar	-10.9574
▁4100	-10.9577
▁966	-10.9578
▁Ġtast	-10.9578
▁3100	-10.9579
▁Ġpersist	-10.9579
▁Ġres	-10.958
▁4487	-10.958
▁897	-10.9582
▁OW	-10.9582
▁3487	-10.9582
▁2487	-10.9585
▁1487	-10.9587
ji	-10.9589
▁4387	-10.9589
▁ĠBoy	-10.9589
▁4287	-10.9591
▁3287	-10.9592
▁4486	-10.9594
▁ĠApp	-10.9595
▁4456	-10.9596
▁3486	-10.9596
▁3387	-10.9596
▁2287	-10.9597
▁3456	-10.9597
▁2486	-10.9599
▁1287	-10.9599
▁1387	-10.96
▁2456	-10.96
▁1486	-10.9601
▁2400	-10.9602
▁2387	-10.9602
▁1456	-10.9602
▁4386	-10.9603
▁988	-10.9603
▁4156	-10.9604
▁1400	-10.9604
▁4286	-10.9604
▁1300	-10.9604
▁3156	-10.9606
▁4459	-10.9606
▁3286	-10.9606
▁3459	-10.9607
▁2156	-10.9608
▁4356	-10.9608
▁4256	-10.9609
▁ĠHor	-10.961
▁2459	-10.961
▁3386	-10.961
▁2286	-10.961
▁3256	-10.961
▁4488	-10.9611
▁3356	-10.9612
▁1459	-10.9612
▁4478	-10.9612
▁4489	-10.9612
▁4479	-10.9613
▁1286	-10.9613
▁1156	-10.9613
▁3488	-10.9613
▁1386	-10.9614
▁4159	-10.9614
▁3489	-10.9614
▁4468	-10.9614
▁4259	-10.9614
▁2256	-10.9615
▁4158	-10.9615
▁Ġdop	-10.9615
▁1356	-10.9615
▁958	-10.9615
▁4258	-10.9615
▁4157	-10.9615
▁3159	-10.9616
▁2386	-10.9616
▁2488	-10.9616
▁4257	-10.9616
▁ĠWy	-10.9616
▁3259	-10.9616
▁3158	-10.9616
▁957	-10.9617
▁4467	-10.9617
▁1256	-10.9617
▁2489	-10.9617
▁3258	-10.9617
▁2356	-10.9617
▁3157	-10.9617
▁3257	-10.9618
▁1488	-10.9618
▁3478	-10.9618
▁4458	-10.9618
▁865	-10.9618
▁2159	-10.9618
▁3479	-10.9618
▁4359	-10.9618
▁895	-10.9619
▁1489	-10.9619
▁4457	-10.9619
▁2158	-10.9619
▁4358	-10.9619
▁3458	-10.962
▁3468	-10.962
▁2157	-10.962
▁4388	-10.962
▁4357	-10.962
▁2259	-10.962
▁3457	-10.9621
▁2478	-10.9621
valid	-10.9621
▁4389	-10.9621
▁2258	-10.9621
▁2479	-10.9621
▁unk	-10.9621
tial	-10.9621
▁4288	-10.9621
▁3359	-10.9622
▁Ġsha	-10.9622
▁2257	-10.9622
▁1259	-10.9622
▁4289	-10.9622
▁4476	-10.9622
▁3358	-10.9622
▁3467	-10.9622
▁2458	-10.9623
▁2468	-10.9623
▁1478	-10.9623
▁1159	-10.9623
▁1479	-10.9623
▁1258	-10.9623
▁3288	-10.9623
▁3357	-10.9623
▁2457	-10.9623
▁1158	-10.9624
▁1257	-10.9624
▁3289	-10.9624
▁1458	-10.9625
▁1468	-10.9625
▁4178	-10.9625
▁1157	-10.9625
▁4378	-10.9625
▁1359	-10.9625
▁4179	-10.9625
▁2467	-10.9625
▁1457	-10.9625
▁4379	-10.9625
venge	-10.9625
▁4168	-10.9626
▁1358	-10.9626
▁4278	-10.9626
▁3178	-10.9626
▁4279	-10.9627
▁1357	-10.9627
▁3179	-10.9627
▁2359	-10.9627
▁1467	-10.9627
▁3388	-10.9627
▁2288	-10.9627
▁3168	-10.9628
▁4268	-10.9628
▁965	-10.9628
▁3278	-10.9628
▁2358	-10.9628
▁3389	-10.9628
▁2289	-10.9628
▁3476	-10.9628
▁3279	-10.9628
▁4167	-10.9629
▁2357	-10.9629
▁2178	-10.9629
▁4496	-10.9629
▁3268	-10.963
▁2179	-10.963
▁1288	-10.963
▁959	-10.963
▁3167	-10.963
▁4267	-10.963
▁2168	-10.963
▁1289	-10.963
▁cl	-10.9631
▁1388	-10.9631
▁4368	-10.9631
▁2476	-10.9631
▁1389	-10.9632
▁ami	-10.9632
▁4477	-10.9632
▁2278	-10.9632
▁3378	-10.9632
▁3267	-10.9632
▁4469	-10.9632
▁2279	-10.9633
▁3379	-10.9633
▁2388	-10.9633
▁1476	-10.9633
▁2167	-10.9633
▁4367	-10.9633
▁2389	-10.9633
▁Ġinterpret	-10.9634
▁2268	-10.9634
▁1178	-10.9634
▁3368	-10.9634
▁1278	-10.9634
▁1179	-10.9634
▁1279	-10.9635
▁4176	-10.9635
▁3496	-10.9635
▁1168	-10.9635
▁4376	-10.9635
▁1378	-10.9636
▁1268	-10.9636
▁1379	-10.9636
▁anger	-10.9636
▁5001	-10.9636
▁4466	-10.9636
▁2267	-10.9636
▁4276	-10.9636
▁3367	-10.9637
how	-10.9637
▁3176	-10.9637
▁1368	-10.9637
▁4485	-10.9637
▁2378	-10.9638
▁1167	-10.9638
▁3477	-10.9638
▁2496	-10.9638
▁2379	-10.9638
▁3469	-10.9638
▁3276	-10.9638
▁1267	-10.9638
▁3485	-10.9639
▁2176	-10.9639
▁2368	-10.9639
▁1496	-10.964
▁1367	-10.964
▁4498	-10.964
▁4396	-10.9641
▁2477	-10.9641
▁2469	-10.9641
▁Ġheat	-10.9642
▁2485	-10.9642
▁2367	-10.9642
▁3466	-10.9642
▁2276	-10.9642
▁3376	-10.9642
▁1477	-10.9642
▁2100	-10.9642
▁1469	-10.9643
▁4296	-10.9643
▁1485	-10.9644
▁1176	-10.9644
▁4169	-10.9644
▁4177	-10.9644
▁1276	-10.9644
▁4377	-10.9645
▁2466	-10.9645
▁3296	-10.9645
▁1376	-10.9646
▁3169	-10.9646
▁4277	-10.9646
▁4269	-10.9646
▁3498	-10.9646
▁3177	-10.9646
▁4385	-10.9646
▁4187	-10.9647
▁1466	-10.9647
▁4285	-10.9648
▁3277	-10.9648
▁3269	-10.9648
▁2376	-10.9648
▁4166	-10.9648
▁3187	-10.9648
▁2169	-10.9649
▁2498	-10.9649
▁2177	-10.9649
▁3396	-10.9649
▁4369	-10.9649
▁3285	-10.9649
▁2296	-10.9649
▁4397	-10.965
▁3166	-10.965
▁4266	-10.965
▁4497	-10.965
▁1498	-10.9651
▁2187	-10.9651
▁1296	-10.9651
▁4398	-10.9652
▁3266	-10.9652
▁2277	-10.9652
▁3377	-10.9652
▁2269	-10.9652
▁3369	-10.9652
▁1396	-10.9652
▁2166	-10.9653
▁4366	-10.9653
▁1169	-10.9653
▁3385	-10.9653
▁2285	-10.9654
▁1177	-10.9654
▁ĠHit	-10.9654
▁Ġstimul	-10.9654
▁1277	-10.9654
▁1269	-10.9654
▁2396	-10.9654
▁4298	-10.9655
▁1377	-10.9655
▁1369	-10.9656
▁1285	-10.9656
▁3497	-10.9656
▁2266	-10.9656
▁1187	-10.9656
▁3366	-10.9656
▁3298	-10.9656
▁1385	-10.9657
▁1166	-10.9657
▁2377	-10.9657
▁2369	-10.9658
▁Ġseal	-10.9658
▁1266	-10.9658
▁ĠTi	-10.9658
oggle	-10.9658
▁3397	-10.9658
▁2497	-10.9659
▁2385	-10.9659
▁1366	-10.966
▁3398	-10.966
▁2298	-10.966
▁1497	-10.9661
▁1397	-10.9662
▁2366	-10.9662
▁1298	-10.9662
▁1398	-10.9663
▁2397	-10.9664
▁4297	-10.9664
ear	-10.9665
▁2398	-10.9665
▁3297	-10.9666
▁2297	-10.967
▁4495	-10.9672
▁4475	-10.9672
▁1297	-10.9672
▁ĠBan	-10.9673
▁4175	-10.9673
▁4375	-10.9673
sts	-10.9673
▁4275	-10.9674
▁3175	-10.9675
▁3275	-10.9676
▁Ġbump	-10.9676
▁4155	-10.9677
▁2175	-10.9677
ega	-10.9677
▁3495	-10.9678
▁3475	-10.9678
▁4399	-10.9678
▁3155	-10.9679
▁4499	-10.9679
▁ast	-10.9679
▁ĠDesign	-10.9679
▁ifi	-10.968
▁4455	-10.968
▁2495	-10.968
▁2275	-10.968
▁3375	-10.968
▁2475	-10.968
▁Ġhot	-10.9681
▁2155	-10.9681
▁4299	-10.9681
▁4355	-10.9681
▁4255	-10.9682
▁1175	-10.9682
▁3455	-10.9682
▁1495	-10.9682
▁1275	-10.9682
▁1475	-10.9682
▁4395	-10.9683
▁3299	-10.9683
▁3255	-10.9683
▁1375	-10.9684
▁4465	-10.9684
▁4165	-10.9684
▁3499	-10.9684
▁3355	-10.9685
▁2455	-10.9685
▁2375	-10.9686
▁1155	-10.9686
▁3165	-10.9686
▁4295	-10.9686
▁4265	-10.9686
▁1455	-10.9687
▁3399	-10.9687
▁2499	-10.9687
▁2299	-10.9687
▁2255	-10.9688
▁3295	-10.9688
▁3265	-10.9688
▁1355	-10.9688
▁2165	-10.9689
▁Some	-10.9689
▁1499	-10.9689
▁4365	-10.9689
▁1299	-10.9689
▁1255	-10.969
▁3465	-10.969
▁2355	-10.969
▁1399	-10.969
▁3395	-10.9691
▁2295	-10.9692
▁2265	-10.9692
▁2399	-10.9692
▁3365	-10.9692
▁2465	-10.9692
▁En	-10.9693
▁1165	-10.9693
▁1295	-10.9694
▁1265	-10.9694
▁1465	-10.9694
▁1395	-10.9695
▁1365	-10.9696
▁955	-10.9697
▁2395	-10.9697
▁2365	-10.9698
▁4185	-10.9698
▁3185	-10.97
▁769	-10.97
▁Ġdeposit	-10.9701
▁Ġpublic	-10.9701
▁766	-10.9701
▁2185	-10.9703
▁Ġpla	-10.9704
▁odi	-10.9704
▁Ta	-10.9704
▁1185	-10.9707
▁Ġcost	-10.9712
▁Ġparad	-10.9713
▁ogl	-10.9714
▁EC	-10.9715
▁ĠScal	-10.9715
▁ĠRadi	-10.972
▁ĠAss	-10.9721
AME	-10.9721
▁Ġpen	-10.9722
▁lock	-10.9723
▁Ġfresh	-10.9732
▁ĠDaw	-10.9733
▁Ġthrill	-10.9735
▁788	-10.9736
▁ita	-10.9741
▁ĠDeb	-10.9744
▁Ġstyl	-10.9746
ANT	-10.9753
▁Ġpreach	-10.9754
▁ĠId	-10.9755
acle	-10.9756
▁Ġoversee	-10.9757
▁Ġsymbol	-10.976
▁ĠNav	-10.9762
RM	-10.9765
▁Ex	-10.9771
▁ard	-10.9775
▁Ġtherap	-10.9777
▁Ġmur	-10.978
▁Ġdisrupt	-10.978
▁Ġcurs	-10.9781
▁Ġpot	-10.9782
app	-10.9786
▁ĠAB	-10.9787
▁Ġsteal	-10.979
ius	-10.9793
awn	-10.9794
▁Ro	-10.9799
▁ĠColo	-10.9799
▁Ġbet	-10.9801
ya	-10.9807
▁St	-10.9807
▁ĠMarin	-10.9812
▁Ġpark	-10.9812
▁Ġrush	-10.9813
▁Ġpoet	-10.9815
▁Ġsevent	-10.9816
▁Ġchill	-10.9816
▁Ġfree	-10.9819
▁5014	-10.982
▁abi	-10.9821
▁ĠNik	-10.9822
▁ter	-10.9824
▁ĠBarr	-10.983
▁gre	-10.9832
▁5013	-10.9832
onia	-10.9843
▁ĠZe	-10.9844
▁n	-10.9845
▁5012	-10.9845
▁ĠParad	-10.9846
▁Ġorganis	-10.9848
verage	-10.9851
▁liv	-10.9855
▁Ġdiscriminat	-10.9856
lum	-10.9861
▁ĠWild	-10.9873
▁Ġphilosoph	-10.9876
▁Ġprob	-10.9876
REE	-10.9878
▁Ġpress	-10.9878
due	-10.9879
▁ĠOut	-10.988
▁Ġdock	-10.988
▁uk	-10.9881
▁4188	-10.9888
▁5011	-10.989
▁3188	-10.9891
▁2188	-10.9894
▁ĠSc	-10.9896
▁1188	-10.9899
▁nes	-10.99
athan	-10.9902
▁wash	-10.9907
▁Ġprec	-10.9907
ole	-10.991
cca	-10.9911
▁Ġgeneral	-10.9915
▁Ġcompet	-10.9919
PA	-10.9919
▁ĠLA	-10.9927
▁Ġsocio	-10.9927
oy	-10.9929
▁ĠQuin	-10.9929
▁Ġhero	-10.9929
gon	-10.9929
▁ori	-10.9933
EW	-10.9936
▁ĠPas	-10.994
▁")	-10.9943
▁ĠShan	-10.9947
▁ĠRam	-10.9949
men	-10.9952
▁Ġdur	-10.9962
▁atche	-10.9963
▁ress	-10.9968
anche	-10.9968
▁Ġdev	-10.9973
▁ipp	-10.9974
▁ĠHom	-10.9975
▁4450	-10.9977
▁4350	-10.9979
▁enc	-10.9979
▁3450	-10.9979
coming	-10.9979
▁ĠFly	-10.9981
▁2450	-10.9981
▁put	-10.9982
▁3350	-10.9982
▁ĠPear	-10.9982
▁1450	-10.9983
▁1350	-10.9985
▁2350	-10.9988
ky	-10.9988
aska	-10.9992
▁ĠCrow	-10.9993
▁ĠCost	-10.9994
▁4186	-10.9998
▁3186	-11
xy	-11.0002
▁2186	-11.0003
▁Ġaccess	-11.0005
▁Ġexpect	-11.0007
▁1186	-11.0009
ca	-11.0018
▁ĠMik	-11.0024
▁Ġbox	-11.0026
▁4150	-11.0035
▁3150	-11.0036
▁2150	-11.0039
▁4250	-11.004
▁3250	-11.0042
▁567	-11.0044
▁1150	-11.0044
▁2250	-11.0046
▁ĠHome	-11.0047
▁1250	-11.0048
▁ink	-11.0051
▁Inst	-11.0052
▁gg	-11.0054
▁Ġsort	-11.0054
fix	-11.0061
▁569	-11.0066
▁ĠDetect	-11.0069
▁566	-11.0071
▁Ġsew	-11.0072
▁oid	-11.0077
va	-11.0079
▁="	-11.008
▁ĠTrad	-11.0083
▁ĠYou	-11.0088
▁Ġcoordinat	-11.0089
▁Ġspar	-11.0091
aid	-11.0096
▁Ġseparat	-11.0098
▁ĠZh	-11.0098
▁iev	-11.0101
▁umer	-11.0102
▁Time	-11.0104
▁4190	-11.0104
ament	-11.0105
thon	-11.0105
▁3190	-11.0107
▁Ġcons	-11.011
▁2190	-11.0111
▁ĠAD	-11.0115
iti	-11.0116
VE	-11.0117
▁1190	-11.0118
▁ĠIN	-11.0118
▁4189	-11.0123
▁3189	-11.0125
▁2189	-11.0129
art	-11.0129
▁1189	-11.0135
▁udd	-11.0139
▁Ġro	-11.0141
mission	-11.0142
▁irm	-11.0146
▁ĠLaw	-11.0146
▁ĠPra	-11.0148
▁Ġtall	-11.0149
IST	-11.0154
▁rawl	-11.0154
▁ĠRail	-11.0156
▁ĠHel	-11.016
▁Ġbow	-11.0168
▁fac	-11.0169
gel	-11.0175
▁ĠRap	-11.0176
▁\"	-11.0179
gate	-11.0185
▁ĠRoman	-11.0191
▁ome	-11.0191
sung	-11.0202
▁Ġroad	-11.0204
▁Ġscore	-11.0205
EO	-11.0209
▁ĠPen	-11.021
▁Ġobsess	-11.0214
▁Ġhospital	-11.022
▁."	-11.023
▁ĠSea	-11.0232
FF	-11.0233
osition	-11.0236
▁row	-11.0241
▁Ġwor	-11.0242
▁Ġwild	-11.0243
▁Ġelement	-11.0246
▁ĠTy	-11.0246
▁ĠIsa	-11.025
▁Ġdomin	-11.0256
▁ĠZi	-11.0262
▁Ġpreced	-11.0263
dge	-11.0263
▁Ġbuff	-11.0265
▁ĠTake	-11.0265
▁ĠMP	-11.0267
▁Ġga	-11.0268
▁Ġgrave	-11.0268
▁Ġlife	-11.0268
▁ĠAbb	-11.0274
tt	-11.0284
orry	-11.0285
▁ĠNet	-11.0285
▁urg	-11.0289
▁ĠDes	-11.0296
▁ĠElement	-11.0296
▁nea	-11.0303
▁Ġauto	-11.0304
▁Ġadvertis	-11.0306
▁Ġstat	-11.0315
▁Ġday	-11.0322
li	-11.0322
▁ĠDra	-11.0324
▁Ġbeg	-11.0324
mm	-11.0324
cock	-11.0326
▁Ġcla	-11.0334
▁ĠProtect	-11.0336
▁ĠHung	-11.0343
IM	-11.0344
▁ĠRod	-11.0355
OUR	-11.0364
▁ub	-11.0365
▁ĠLO	-11.0368
ail	-11.0369
▁Ġfat	-11.0373
▁ult	-11.0375
▁Ġelector	-11.0378
rt	-11.0379
ould	-11.0381
esh	-11.0382
itude	-11.0383
ask	-11.0385
so	-11.0385
▁Ġfer	-11.0395
▁quer	-11.0399
corn	-11.0408
▁4200	-11.0413
▁Ġpr	-11.0413
▁3200	-11.0416
▁par	-11.0418
▁ight	-11.0422
▁ĠEdit	-11.0422
▁Ġstor	-11.043
och	-11.0431
▁4195	-11.0434
▁3195	-11.0437
▁2195	-11.0441
otic	-11.0443
ark	-11.0446
▁Ġdivers	-11.0447
▁1195	-11.0447
▁ĠNar	-11.045
PG	-11.0451
▁ĠDru	-11.0453
▁EN	-11.0457
tex	-11.0458
▁ĠWin	-11.0459
▁Ġdiss	-11.0471
use	-11.0476
▁ĠAna	-11.0479
▁ique	-11.048
▁sta	-11.0485
▁Ġretire	-11.0485
▁4196	-11.0487
▁ilit	-11.0487
▁ĠVI	-11.0489
▁3196	-11.0489
▁2196	-11.0494
ays	-11.0496
iro	-11.0497
▁1196	-11.05
▁ĠSw	-11.0504
au	-11.0508
rah	-11.0509
▁ĠML	-11.0512
SS	-11.0519
yan	-11.0521
▁Ġext	-11.0529
▁4198	-11.0532
▁Ġoppress	-11.0533
hift	-11.0533
▁3198	-11.0535
▁2198	-11.0539
▁ĠEver	-11.054
▁4197	-11.0541
▁ugg	-11.0543
▁3197	-11.0544
▁lict	-11.0545
▁1198	-11.0545
▁2197	-11.0548
PD	-11.0549
▁ĠUs	-11.055
tle	-11.0552
▁ĠCN	-11.0553
▁1197	-11.0554
▁4199	-11.0557
▁Ġsta	-11.0559
▁Ġsex	-11.0559
▁3199	-11.056
▁no	-11.0561
llen	-11.0564
▁2199	-11.0564
EC	-11.0566
▁1199	-11.0571
▁Ġfee	-11.0573
course	-11.0575
▁ĠThom	-11.0584
hur	-11.0586
▁Ġdelet	-11.0586
▁ĠLin	-11.0588
igan	-11.0593
▁Ġwid	-11.0593
▁Ġenc	-11.0596
▁Ġgui	-11.06
tro	-11.0607
▁LE	-11.0608
▁aker	-11.0611
▁att	-11.0615
▁Ġcal	-11.062
▁du	-11.0621
ord	-11.0625
▁Ġbeat	-11.0627
▁ĠLiber	-11.0628
▁if	-11.0632
▁Ġsav	-11.0632
pm	-11.0637
stock	-11.0641
▁ĠRad	-11.0643
cks	-11.0646
▁ĠDr	-11.0657
▁Ġtent	-11.0659
▁Ġprefer	-11.0663
▁Ġlean	-11.0672
fe	-11.0672
bilit	-11.0673
▁pos	-11.0677
▁rav	-11.0679
▁Ġcommun	-11.0683
▁ene	-11.0684
rest	-11.0689
lore	-11.0702
▁ĠUb	-11.0702
mum	-11.0702
hand	-11.0703
▁ash	-11.0706
▁wa	-11.0709
peg	-11.0711
ART	-11.0714
▁4503	-11.0716
▁ĠHam	-11.0716
▁3503	-11.0716
▁4504	-11.0718
▁3504	-11.0718
▁Ġsyn	-11.072
▁Te	-11.0727
▁Us	-11.0728
▁Ġramp	-11.0731
▁are	-11.0738
▁Ġovers	-11.0741
▁ĠCatal	-11.0745
lish	-11.075
eutic	-11.0757
▁1503	-11.0766
▁2503	-11.0766
▁Ġpass	-11.0766
▁1504	-11.0767
▁2504	-11.0768
TS	-11.0768
▁ĠJam	-11.077
▁Ġdri	-11.0771
▁any	-11.0772
▁ĠPix	-11.0772
▁Ġdisc	-11.0778
▁Ġplan	-11.0779
▁Any	-11.0782
ober	-11.0784
▁ĠNat	-11.0786
crib	-11.079
▁Ġname	-11.0797
ara	-11.08
▁rat	-11.0806
▁Ġaccelerat	-11.0809
▁Tw	-11.0809
▁ĠRid	-11.081
▁4500	-11.0815
▁3500	-11.0817
science	-11.0819
▁ici	-11.0819
▁Ġmiss	-11.082
cession	-11.0822
▁ann	-11.0829
▁Ġact	-11.0829
▁Ġcoerc	-11.0835
▁Ġpoor	-11.0836
▁4030	-11.0836
▁3030	-11.0837
▁ĠCO	-11.0838
arp	-11.0838
▁4040	-11.0839
▁3040	-11.0839
▁Ġpara	-11.084
ayer	-11.0843
▁cul	-11.0844
▁Ġcross	-11.0844
ga	-11.0846
▁4530	-11.0846
▁abb	-11.0848
▁3530	-11.085
▁1030	-11.085
▁4540	-11.0852
oth	-11.0852
▁1040	-11.0852
▁4730	-11.0853
▁2530	-11.0853
▁1530	-11.0853
▁4930	-11.0854
▁3930	-11.0855
▁4830	-11.0855
▁3540	-11.0856
ibilit	-11.0856
▁3730	-11.0856
▁2730	-11.0857
▁1730	-11.0858
▁2930	-11.0859
▁4740	-11.0859
▁3830	-11.0859
▁2540	-11.0859
▁1540	-11.0859
▁2830	-11.0859
▁ĠDev	-11.086
▁4940	-11.086
▁3940	-11.0861
▁3740	-11.0862
▁4630	-11.0863
▁2740	-11.0863
▁ste	-11.0863
▁1740	-11.0864
▁Ġcreat	-11.0865
▁2940	-11.0865
▁3630	-11.0867
▁2630	-11.0867
▁Ġestablish	-11.0868
▁4640	-11.0869
▁1630	-11.087
▁4840	-11.0872
▁ĠLeg	-11.0872
▁imate	-11.0872
▁3640	-11.0873
▁2640	-11.0873
▁3840	-11.0875
▁2840	-11.0876
▁1640	-11.0876
▁2040	-11.0881
▁Ĥ	-11.0884
▁Ġcomplete	-11.0885
▁ĠWhe	-11.0887
lation	-11.0887
▁Ġattach	-11.0887
▁ĠDE	-11.0889
matic	-11.0889
▁Ġaff	-11.089
▁HA	-11.0893
▁Ġdiscuss	-11.0896
▁Ġspot	-11.0898
▁Ġpossess	-11.0903
▁ric	-11.0903
▁Ġshut	-11.0911
▁Ġforc	-11.0916
▁1830	-11.0918
▁4510	-11.0918
▁3510	-11.0919
▁4048	-11.0921
▁Ġalt	-11.0921
▁3048	-11.0921
▁4548	-11.0922
▁2510	-11.0923
▁1510	-11.0923
▁4810	-11.0923
▁3810	-11.0924
▁4910	-11.0924
▁3910	-11.0924
▁4710	-11.0924
▁3548	-11.0926
▁2810	-11.0927
▁3710	-11.0928
▁2910	-11.0928
▁2710	-11.0928
▁1710	-11.0929
▁2548	-11.093
▁1548	-11.093
▁1810	-11.0931
▁4610	-11.0932
▁Ġtun	-11.0933
▁1048	-11.0933
▁1840	-11.0934
▁2030	-11.0935
▁3610	-11.0936
▁2610	-11.0937
▁4047	-11.0938
▁4848	-11.0938
▁3047	-11.0938
▁4948	-11.0938
▁4547	-11.0939
▁4648	-11.0939
▁3948	-11.0939
▁4748	-11.0939
▁4046	-11.0939
▁3046	-11.094
▁1610	-11.094
▁4049	-11.0941
▁3848	-11.0942
▁3049	-11.0942
▁2848	-11.0942
▁4546	-11.0942
▁3547	-11.0943
▁3648	-11.0943
▁2948	-11.0943
▁3748	-11.0943
▁2648	-11.0943
▁2748	-11.0943
▁1748	-11.0944
▁1848	-11.0946
▁1648	-11.0946
▁2547	-11.0946
▁1547	-11.0946
▁3546	-11.0947
▁2546	-11.095
▁1546	-11.095
▁1047	-11.095
▁Ġauthor	-11.0951
▁1046	-11.0952
▁1049	-11.0954
▁Ġinsur	-11.0954
▁ura	-11.0955
▁4549	-11.0955
▁4847	-11.0956
▁4746	-11.0957
▁4947	-11.0957
▁Ġmatch	-11.0957
▁4647	-11.0957
▁3947	-11.0957
▁4846	-11.0958
▁Ġmu	-11.0958
▁4946	-11.0959
▁3549	-11.0959
▁4646	-11.0959
▁3946	-11.0959
▁Ġcheap	-11.096
▁ĠFu	-11.096
▁3847	-11.096
▁2847	-11.0961
▁3746	-11.0961
▁2746	-11.0961
▁3647	-11.0961
▁2947	-11.0962
▁2647	-11.0962
▁3846	-11.0962
▁Ġslic	-11.0962
▁1746	-11.0962
▁2549	-11.0962
▁2846	-11.0962
▁1549	-11.0962
▁3646	-11.0963
▁2946	-11.0963
▁2646	-11.0963
▁1847	-11.0964
▁1647	-11.0965
▁iss	-11.0965
▁1846	-11.0966
▁1646	-11.0966
▁4747	-11.0968
ju	-11.0969
▁4749	-11.0969
▁Ġconsum	-11.097
▁4849	-11.097
▁4649	-11.0971
▁3747	-11.0972
▁2747	-11.0972
▁4949	-11.0973
▁3749	-11.0973
▁1747	-11.0973
▁3949	-11.0973
▁2749	-11.0974
▁3849	-11.0974
▁1749	-11.0974
▁2849	-11.0975
▁3649	-11.0975
▁Ġtough	-11.0975
▁2649	-11.0976
▁ĠKey	-11.0976
▁2047	-11.0978
▁2949	-11.0978
▁1849	-11.0978
▁1649	-11.0978
▁4003	-11.0978
▁3003	-11.0978
▁2046	-11.0979
▁4703	-11.098
▁4004	-11.098
▁3004	-11.098
▁3703	-11.0981
▁2049	-11.0981
▁2703	-11.0981
▁4704	-11.0982
▁3704	-11.0982
▁2704	-11.0982
▁lo	-11.0983
▁1703	-11.0983
▁4603	-11.0984
▁4903	-11.0984
▁1704	-11.0984
▁3903	-11.0984
▁3603	-11.0984
▁4803	-11.0985
▁2903	-11.0985
▁2603	-11.0985
▁4604	-11.0985
▁4904	-11.0985
▁3803	-11.0985
▁3904	-11.0986
▁3604	-11.0986
▁4804	-11.0986
▁2803	-11.0986
▁2904	-11.0986
▁2604	-11.0986
▁3804	-11.0986
▁2804	-11.0987
▁Ġcharg	-11.0991
▁ĠDead	-11.0992
▁Ġquick	-11.0992
▁ĠMort	-11.0994
▁ĠCas	-11.0994
▁4010	-11.0998
▁3010	-11.0998
▁Ġcompil	-11.0999
▁ĠUse	-11.1001
▁1930	-11.1011
▁alk	-11.1016
▁2048	-11.1016
▁Ġprov	-11.1018
sphere	-11.1018
▁4039	-11.1019
▁3039	-11.102
▁ĠCre	-11.1023
▁ĠUnivers	-11.1026
▁4539	-11.1028
▁1603	-11.103
▁1803	-11.103
▁1604	-11.1031
▁4520	-11.1031
▁1804	-11.1032
▁3539	-11.1032
▁1039	-11.1032
▁4045	-11.1033
▁3045	-11.1033
▁3520	-11.1035
▁2539	-11.1035
▁1539	-11.1035
▁4545	-11.1036
▁ĠHD	-11.1037
▁2520	-11.1038
▁1520	-11.1038
▁1010	-11.1039
▁4038	-11.104
▁3038	-11.104
▁3545	-11.104
pal	-11.104
▁ĠCarl	-11.1041
▁2545	-11.1044
▁1545	-11.1044
▁4639	-11.1044
▁1940	-11.1044
▁4739	-11.1045
▁arm	-11.1045
▁ĠAuthor	-11.1045
▁4839	-11.1046
▁1045	-11.1046
▁4939	-11.1046
▁3939	-11.1047
▁4620	-11.1048
▁4720	-11.1048
▁3639	-11.1048
▁3739	-11.1049
▁2639	-11.1049
▁3620	-11.1049
▁2739	-11.1049
▁4820	-11.1049
▁3839	-11.105
▁1739	-11.105
▁3820	-11.105
▁2839	-11.105
▁4538	-11.1051
▁2939	-11.1051
▁4920	-11.1052
▁1639	-11.1052
▁4845	-11.1052
▁3720	-11.1052
▁2620	-11.1052
▁2720	-11.1053
▁4645	-11.1053
▁1038	-11.1053
▁4745	-11.1053
▁1720	-11.1053
▁1839	-11.1053
▁2820	-11.1053
▁4945	-11.1054
▁3945	-11.1054
▁3538	-11.1055
▁3920	-11.1055
mation	-11.1055
▁1620	-11.1055
▁3845	-11.1056
▁2920	-11.1056
▁2845	-11.1056
▁1820	-11.1057
▁3645	-11.1057
▁3745	-11.1057
▁2645	-11.1057
▁2745	-11.1057
▁Ġdr	-11.1058
▁2538	-11.1058
▁1538	-11.1058
▁1745	-11.1058
▁ĠPack	-11.1058
▁2945	-11.1058
▁ĠBear	-11.1059
▁Ġcapital	-11.1059
▁Ġshar	-11.1059
▁1845	-11.106
▁1645	-11.106
▁2039	-11.106
vice	-11.1063
▁Ġvow	-11.1064
▁4638	-11.1065
▁4738	-11.1065
bul	-11.1065
▁4838	-11.1066
▁4938	-11.1067
▁3938	-11.1067
▁3638	-11.1069
▁3738	-11.1069
▁2638	-11.1069
▁2738	-11.107
▁3838	-11.107
▁1738	-11.107
▁2838	-11.1071
▁2938	-11.1071
▁1638	-11.1072
▁4036	-11.1073
▁2045	-11.1073
▁high	-11.1073
▁3036	-11.1073
▁4536	-11.1073
▁1838	-11.1074
▁ĠDian	-11.1074
▁Ġprop	-11.1075
GB	-11.1077
▁3536	-11.1077
▁4527	-11.1078
▁4027	-11.1079
▁4028	-11.1079
▁3027	-11.1079
▁3028	-11.1079
phone	-11.1081
▁2536	-11.1081
▁1536	-11.1081
▁2038	-11.1081
▁1910	-11.1082
▁4528	-11.1082
▁3527	-11.1082
▁4037	-11.1083
▁4026	-11.1083
▁3037	-11.1083
▁3026	-11.1084
▁ĠGin	-11.1084
▁ĠHerm	-11.1085
▁ĠGri	-11.1085
▁2527	-11.1086
▁1036	-11.1086
▁1527	-11.1086
▁3528	-11.1086
▁4526	-11.1086
gram	-11.1087
▁4636	-11.1088
▁4836	-11.1089
▁ado	-11.1089
▁2528	-11.109
▁1528	-11.109
▁4936	-11.109
▁3936	-11.109
▁4736	-11.109
▁3526	-11.109
▁3636	-11.1092
▁2636	-11.1092
▁1003	-11.1092
▁3836	-11.1093
▁4029	-11.1093
▁2836	-11.1093
▁3029	-11.1094
▁4537	-11.1094
▁2526	-11.1094
▁1526	-11.1094
▁1004	-11.1094
▁2936	-11.1094
▁3736	-11.1094
▁2736	-11.1095
▁UG	-11.1095
▁1636	-11.1095
▁1736	-11.1095
▁4827	-11.1096
▁1037	-11.1096
▁3827	-11.1097
▁4927	-11.1097
▁1836	-11.1097
▁4627	-11.1097
▁4727	-11.1097
▁3537	-11.1098
▁3627	-11.1098
▁4828	-11.1098
▁3828	-11.1098
▁4928	-11.1099
▁4628	-11.1099
▁4728	-11.1099
▁Ne	-11.1099
▁3628	-11.1099
▁2827	-11.11
▁3927	-11.1101
",	-11.1101
▁4726	-11.1101
▁3727	-11.1101
▁Ġprophe	-11.1101
▁2537	-11.1101
▁2927	-11.1101
▁1537	-11.1101
▁2627	-11.1101
▁2727	-11.1102
▁4826	-11.1102
▁2828	-11.1102
▁3928	-11.1102
▁1727	-11.1102
▁3826	-11.1103
▁4926	-11.1103
▁3728	-11.1103
▁2928	-11.1103
▁4626	-11.1103
▁2628	-11.1103
▁2728	-11.1103
▁1827	-11.1103
▁3626	-11.1104
▁1728	-11.1104
▁1627	-11.1104
▁3726	-11.1105
▁1828	-11.1105
▁2726	-11.1105
▁1628	-11.1106
▁1726	-11.1106
▁2826	-11.1106
▁3926	-11.1107
▁4529	-11.1107
▁2926	-11.1107
▁2626	-11.1107
▁4637	-11.1108
▁1903	-11.1108
▁1826	-11.1109
▁4837	-11.111
▁1904	-11.111
▁1626	-11.111
▁4937	-11.111
▁3937	-11.1111
ld	-11.1111
▁3529	-11.1111
▁pect	-11.1111
▁4829	-11.1112
▁3637	-11.1112
▁3829	-11.1113
▁2637	-11.1113
▁4929	-11.1113
▁4629	-11.1113
▁4729	-11.1113
▁3837	-11.1113
▁3629	-11.1114
▁Ġpric	-11.1114
▁2837	-11.1114
▁2036	-11.1114
▁2529	-11.1114
▁1529	-11.1114
▁2937	-11.1115
aka	-11.1115
▁1637	-11.1115
▁Ġclinic	-11.1116
▁2829	-11.1116
▁3929	-11.1117
▁3729	-11.1117
▁2929	-11.1117
▁1837	-11.1117
▁2629	-11.1117
▁2729	-11.1118
▁user	-11.1118
▁1729	-11.1118
▁4737	-11.1119
▁4020	-11.1119
▁1948	-11.1119
▁1829	-11.1119
▁3020	-11.1119
▁''	-11.112
▁1629	-11.112
▁Ġdar	-11.1122
▁3737	-11.1123
▁2737	-11.1123
▁4054	-11.1123
▁3054	-11.1124
▁1737	-11.1124
▁2037	-11.1125
▁CHA	-11.1126
▁Ye	-11.1128
▁Ġunre	-11.1128
▁1054	-11.1128
▁ĠPay	-11.1129
▁4517	-11.1131
▁3517	-11.1131
▁4516	-11.1132
▁Ġpor	-11.1132
▁3516	-11.1132
▁4084	-11.1134
▁3084	-11.1135
▁2517	-11.1135
▁1517	-11.1135
▁%)	-11.1135
▁2054	-11.1135
▁2516	-11.1136
▁4053	-11.1136
▁1516	-11.1136
▁4074	-11.1136
▁3053	-11.1136
▁3074	-11.1137
▁4035	-11.1137
▁3094	-11.1137
▁3035	-11.1137
▁4094	-11.1137
▁4535	-11.1138
▁1947	-11.1138
▁4017	-11.1139
▁1946	-11.114
▁3017	-11.114
▁1053	-11.1141
▁1074	-11.1141
▁1094	-11.1141
▁3535	-11.1142
▁4016	-11.1142
▁4717	-11.1142
▁3016	-11.1142
▁unit	-11.1142
▁4716	-11.1143
▁4817	-11.1143
▁3093	-11.1143
▁4093	-11.1143
▁4063	-11.1144
▁3817	-11.1144
▁4917	-11.1144
▁4816	-11.1144
▁3063	-11.1144
▁4617	-11.1144
▁3917	-11.1144
▁3816	-11.1145
▁ĠCarn	-11.1145
▁4554	-11.1145
▁2535	-11.1145
▁4616	-11.1145
▁1535	-11.1145
▁3554	-11.1145
▁2084	-11.1146
▁3717	-11.1146
▁4073	-11.1146
▁2717	-11.1146
▁4083	-11.1146
▁3073	-11.1146
▁3716	-11.1147
▁3083	-11.1147
▁4916	-11.1147
▁1717	-11.1147
▁2716	-11.1147
▁3916	-11.1147
▁2817	-11.1147
▁1093	-11.1147
▁4854	-11.1147
▁2053	-11.1148
▁2074	-11.1148
▁1554	-11.1148
▁2554	-11.1148
▁1716	-11.1148
▁3617	-11.1148
▁1063	-11.1148
▁2816	-11.1148
▁2094	-11.1148
▁2917	-11.1148
▁2617	-11.1149
▁3616	-11.1149
▁2616	-11.1149
▁4654	-11.1149
▁1028	-11.115
▁Ġinvolve	-11.115
▁1035	-11.115
▁3654	-11.115
▁2654	-11.115
▁2027	-11.115
▁1817	-11.1151
▁4954	-11.1151
▁2028	-11.1151
▁1073	-11.1151
▁1617	-11.1151
▁2916	-11.1151
▁1816	-11.1151
▁1654	-11.1152
▁1616	-11.1152
▁4735	-11.1152
▁3854	-11.1153
▁2854	-11.1153
▁4835	-11.1153
▁4594	-11.1153
▁4754	-11.1154
▁1026	-11.1154
▁1949	-11.1154
▁4935	-11.1154
▁4635	-11.1154
▁3754	-11.1154
▁Ġmultipl	-11.1154
▁3935	-11.1154
▁2093	-11.1154
▁2754	-11.1155
▁2026	-11.1155
▁Ġmemo	-11.1155
▁2063	-11.1155
▁1854	-11.1155
▁4584	-11.1155
▁uss	-11.1156
▁3954	-11.1156
▁3584	-11.1156
▁1754	-11.1156
▁2954	-11.1156
▁4082	-11.1156
▁3735	-11.1156
▁2735	-11.1157
▁2584	-11.1157
▁3082	-11.1157
▁3835	-11.1157
▁4553	-11.1157
▁4583	-11.1157
▁1735	-11.1157
▁2835	-11.1158
▁2073	-11.1158
▁2083	-11.1158
▁3553	-11.1158
▁3583	-11.1158
▁3635	-11.1158
▁1584	-11.1158
▁3594	-11.1158
▁2935	-11.1158
▁2635	-11.1159
▁2583	-11.1159
ological	-11.1159
▁2594	-11.1159
▁4593	-11.1159
▁oco	-11.116
▁4684	-11.116
▁4784	-11.116
▁4853	-11.116
▁4763	-11.116
▁4563	-11.116
▁4663	-11.116
take	-11.116
▁4072	-11.116
▁1553	-11.116
▁2553	-11.116
▁1583	-11.116
▁4884	-11.116
▁4984	-11.1161
▁1594	-11.1161
▁3072	-11.1161
▁4894	-11.1161
▁1835	-11.1161
▁1635	-11.1161
▁4683	-11.1162
▁4653	-11.1162
▁4783	-11.1162
▁4574	-11.1162
▁4694	-11.1162
▁3653	-11.1163
▁4794	-11.1163
▁4883	-11.1163
▁4064	-11.1163
▁2653	-11.1163
▁4983	-11.1163
▁3574	-11.1163
▁3064	-11.1163
▁4953	-11.1163
▁2574	-11.1164
▁Ġresid	-11.1164
▁1029	-11.1164
▁Ġob	-11.1164
▁4994	-11.1164
▁3593	-11.1165
▁1653	-11.1165
▁3684	-11.1165
▁3994	-11.1165
▁2029	-11.1165
▁3784	-11.1165
▁3853	-11.1165
▁3763	-11.1165
▁2684	-11.1165
▁3563	-11.1165
▁2994	-11.1165
▁2784	-11.1165
▁3663	-11.1165
▁1072	-11.1165
▁2593	-11.1165
▁2763	-11.1165
▁2853	-11.1165
▁4874	-11.1165
▁1574	-11.1166
▁3884	-11.1166
▁2663	-11.1166
▁3984	-11.1166
▁2884	-11.1166
▁3894	-11.1166
▁4753	-11.1166
▁2984	-11.1166
▁2894	-11.1166
▁1784	-11.1167
▁1763	-11.1167
▁3753	-11.1167
▁3683	-11.1167
▁1593	-11.1167
▁1684	-11.1167
▁4674	-11.1167
▁2753	-11.1167
▁3783	-11.1167
▁4774	-11.1167
▁2683	-11.1167
▁2783	-11.1167
▁1663	-11.1167
▁1064	-11.1167
▁3694	-11.1168
▁3794	-11.1168
▁1563	-11.1168
▁2563	-11.1168
▁3883	-11.1168
▁1853	-11.1168
▁2082	-11.1168
▁2694	-11.1168
▁2794	-11.1168
▁3983	-11.1168
▁2883	-11.1168
▁4974	-11.1168
▁3953	-11.1168
▁2983	-11.1168
▁1753	-11.1168
▁3974	-11.1169
▁4693	-11.1169
▁2953	-11.1169
▁4793	-11.1169
▁1783	-11.1169
▁1884	-11.1169
▁1683	-11.1169
▁1794	-11.1169
▁4863	-11.1169
▁1694	-11.117
▁4963	-11.117
▁4993	-11.117
▁3874	-11.117
▁1894	-11.1171
▁2874	-11.1171
▁4893	-11.1171
▁3993	-11.1171
▁1883	-11.1171
▁2993	-11.1171
▁2072	-11.1172
▁3674	-11.1172
▁3774	-11.1172
▁4573	-11.1172
▁2674	-11.1172
▁2774	-11.1173
▁3573	-11.1173
▁1874	-11.1173
▁3092	-11.1173
▁2974	-11.1173
▁4092	-11.1174
▁3693	-11.1174
▁2573	-11.1174
▁3793	-11.1174
▁1774	-11.1174
▁2693	-11.1174
▁2793	-11.1174
▁4515	-11.1174
▁1674	-11.1174
▁3863	-11.1174
▁2064	-11.1175
▁2863	-11.1175
▁3515	-11.1175
▁4873	-11.1175
▁1573	-11.1175
▁3963	-11.1175
▁1793	-11.1175
▁2963	-11.1176
▁1693	-11.1176
▁3893	-11.1176
▁2893	-11.1176
▁4673	-11.1177
▁4773	-11.1177
▁4564	-11.1177
▁4764	-11.1177
▁4664	-11.1177
▁4582	-11.1177
▁1092	-11.1178
▁4973	-11.1178
▁3582	-11.1178
▁2035	-11.1178
▁3973	-11.1178
▁2515	-11.1178
▁1515	-11.1178
▁2582	-11.1179
▁4025	-11.1179
▁3025	-11.118
▁4081	-11.118
▁3873	-11.118
▁1582	-11.118
▁2873	-11.1181
▁3081	-11.1181
▁1084	-11.1181
▁1017	-11.1181
▁ĠRom	-11.1182
▁4682	-11.1182
▁3673	-11.1182
▁4782	-11.1182
▁3773	-11.1182
▁Ġhol	-11.1182
▁3764	-11.1182
▁3564	-11.1182
▁2673	-11.1182
▁3664	-11.1182
▁ott	-11.1182
▁2773	-11.1182
▁2764	-11.1182
▁4882	-11.1183
▁2664	-11.1183
▁4015	-11.1183
▁4982	-11.1183
▁Ġencourage	-11.1183
▁1873	-11.1183
▁3015	-11.1183
▁2973	-11.1183
▁4525	-11.1184
▁1764	-11.1184
▁1773	-11.1184
▁4602	-11.1184
▁4902	-11.1184
▁1673	-11.1184
▁3902	-11.1184
▁1664	-11.1184
▁3602	-11.1185
▁2092	-11.1185
▁1564	-11.1185
▁2564	-11.1185
▁2902	-11.1185
▁2602	-11.1185
▁4715	-11.1185
▁4062	-11.1187
▁4572	-11.1187
▁3682	-11.1187
▁3062	-11.1187
▁3782	-11.1187
▁Ġsca	-11.1187
▁4518	-11.1187
▁2682	-11.1187
▁3572	-11.1187
▁2782	-11.1187
▁4615	-11.1188
▁3882	-11.1188
▁1020	-11.1188
▁3525	-11.1188
▁3518	-11.1188
▁3982	-11.1188
▁2882	-11.1188
▁2572	-11.1188
▁2982	-11.1188
▁Ġexp	-11.1188
▁4815	-11.1189
▁1782	-11.1189
▁Ġtim	-11.1189
▁1682	-11.1189
▁4864	-11.1189
▁3815	-11.1189
▁3715	-11.1189
▁4915	-11.119
▁4592	-11.119
▁4964	-11.119
▁2715	-11.119
▁4872	-11.119
▁1572	-11.119
▁3915	-11.119
▁4725	-11.119
▁1715	-11.1191
▁4702	-11.1191
▁4825	-11.1191
▁1062	-11.1191
▁1882	-11.1191
▁4672	-11.1191
▁2525	-11.1191
▁3702	-11.1191
▁1525	-11.1191
▁4772	-11.1191
▁2518	-11.1191
▁2081	-11.1192
▁1518	-11.1192
▁3825	-11.1192
▁2702	-11.1192
▁3615	-11.1192
▁ĠColon	-11.1192
▁4925	-11.1192
▁2615	-11.1192
▁4972	-11.1192
▁3972	-11.1193
▁1083	-11.1193
▁2815	-11.1193
▁1702	-11.1193
▁2915	-11.1194
▁3725	-11.1194
▁3864	-11.1194
▁2725	-11.1194
▁Ġinfer	-11.1194
▁3964	-11.1195
▁2864	-11.1195
▁4052	-11.1195
▁3592	-11.1195
▁3872	-11.1195
▁1615	-11.1195
▁4802	-11.1195
▁2964	-11.1195
▁2872	-11.1195
▁3052	-11.1195
▁1725	-11.1195
▁2825	-11.1195
▁2592	-11.1195
▁3802	-11.1196
▁3925	-11.1196
▁4018	-11.1196
▁1815	-11.1196
▁2802	-11.1196
▁3018	-11.1196
▁3672	-11.1196
▁2925	-11.1196
▁3772	-11.1197
▁2672	-11.1197
▁2772	-11.1197
▁1592	-11.1197
▁4892	-11.1197
▁1872	-11.1197
▁2972	-11.1198
▁1772	-11.1198
▁2062	-11.1198
▁1864	-11.1198
▁1672	-11.1199
▁1825	-11.1199
▁4692	-11.1199
▁4792	-11.1199
▁UT	-11.1199
▁1939	-11.1199
▁1052	-11.12
▁Ġsumm	-11.12
▁4818	-11.12
▁3818	-11.12
▁4625	-11.12
▁4918	-11.1201
▁4992	-11.1201
▁4718	-11.1201
▁4618	-11.1201
▁3918	-11.1201
▁3625	-11.1201
▁3992	-11.1201
▁4581	-11.1201
▁2992	-11.1202
▁3581	-11.1202
▁3892	-11.1202
▁2892	-11.1203
▁2581	-11.1203
▁1082	-11.1203
▁4762	-11.1203
▁4562	-11.1203
▁4662	-11.1203
▁3692	-11.1204
▁3792	-11.1204
▁2818	-11.1204
▁2692	-11.1204
▁2792	-11.1204
▁4881	-11.1204
▁1581	-11.1204
▁3718	-11.1205
▁3618	-11.1205
▁2625	-11.1205
▁2718	-11.1205
▁2918	-11.1205
▁2618	-11.1205
▁1792	-11.1206
▁4681	-11.1206
▁1718	-11.1206
▁4781	-11.1206
▁1692	-11.1206
▁4552	-11.1206
▁2052	-11.1207
▁3552	-11.1207
▁4981	-11.1207
▁1892	-11.1207
▁1818	-11.1207
▁1625	-11.1208
▁1618	-11.1208
▁3762	-11.1208
▁3562	-11.1208
▁3662	-11.1208
▁2762	-11.1208
▁2662	-11.1209
▁4852	-11.1209
▁1552	-11.1209
▁2552	-11.1209
▁3881	-11.1209
eigh	-11.121
▁2881	-11.121
▁1762	-11.121
▁1662	-11.121
▁1562	-11.1211
▁2562	-11.1211
▁4652	-11.1211
▁3681	-11.1211
▁3781	-11.1211
▁VI	-11.1211
▁2681	-11.1211
▁2781	-11.1211
▁3652	-11.1211
▁2652	-11.1212
▁3981	-11.1212
▁4962	-11.1212
▁4952	-11.1212
▁2981	-11.1212
▁4862	-11.1212
▁1781	-11.1213
▁ĠFA	-11.1213
▁1881	-11.1213
▁1681	-11.1213
▁1652	-11.1214
▁3852	-11.1214
▁2852	-11.1214
▁4571	-11.1215
▁4752	-11.1215
▁4061	-11.1215
▁3061	-11.1216
▁3752	-11.1216
▁3571	-11.1216
▁2752	-11.1216
▁2571	-11.1216
▁1852	-11.1217
▁3962	-11.1217
▁3952	-11.1217
nic	-11.1217
laughter	-11.1217
▁1752	-11.1217
▁2962	-11.1217
▁3862	-11.1217
▁2952	-11.1218
▁2862	-11.1218
▁4871	-11.1218
▁Ġaudi	-11.1218
▁1571	-11.1218
▁4051	-11.1219
▁3051	-11.1219
▁ĠGil	-11.1219
▁4671	-11.122
▁4771	-11.122
▁1061	-11.122
▁4971	-11.122
▁1938	-11.1221
▁3971	-11.1221
▁3091	-11.1222
▁4091	-11.1223
▁3871	-11.1223
▁2871	-11.1223
▁1051	-11.1224
▁Ġlow	-11.1224
▁3671	-11.1225
▁ĠGP	-11.1225
▁3771	-11.1225
▁1015	-11.1225
▁2671	-11.1225
▁2771	-11.1225
▁1871	-11.1226
▁2971	-11.1226
▁1771	-11.1226
▁2061	-11.1227
▁1091	-11.1227
▁1671	-11.1227
▁1081	-11.1227
arrow	-11.1228
▁4761	-11.1229
▁1602	-11.123
▁2051	-11.1231
▁ĠLaur	-11.1231
▁4661	-11.1232
▁4002	-11.1233
▁3002	-11.1233
▁4561	-11.1233
▁1863	-11.1233
arch	-11.1234
▁2091	-11.1234
▁3761	-11.1234
▁4071	-11.1234
▁2761	-11.1235
▁3071	-11.1235
▁1893	-11.1235
▁1761	-11.1236
▁AS	-11.1237
▁Ġbra	-11.1237
▁3661	-11.1237
▁2661	-11.1237
▁1018	-11.1238
▁3561	-11.1238
▁4591	-11.1239
▁1661	-11.1239
▁1071	-11.1239
▁4551	-11.124
▁4961	-11.124
▁1561	-11.1241
▁2561	-11.1241
▁1802	-11.1241
▁4861	-11.1241
▁3551	-11.1241
▁ĠTra	-11.1242
meter	-11.1242
▁assi	-11.1242
▁4851	-11.1243
▁ĠWhit	-11.1243
▁1551	-11.1243
▁2551	-11.1243
▁1936	-11.1244
▁3591	-11.1244
▁2591	-11.1245
▁4651	-11.1245
▁3961	-11.1245
▁3651	-11.1246
▁2071	-11.1246
▁4791	-11.1246
▁2961	-11.1246
▁2651	-11.1246
▁3861	-11.1246
▁1591	-11.1246
▁2861	-11.1246
▁4951	-11.1246
▁4891	-11.1246
▁real	-11.1247
▁4991	-11.1248
▁1651	-11.1248
▁4691	-11.1248
▁OS	-11.1248
▁3991	-11.1248
▁3851	-11.1248
▁Ġlove	-11.1248
▁2991	-11.1248
▁2851	-11.1249
▁4751	-11.1249
▁3751	-11.125
▁2751	-11.125
▁1025	-11.125
▁1851	-11.1251
▁3791	-11.1251
▁2791	-11.1251
▁3951	-11.1251
▁3891	-11.1251
▁1751	-11.1252
▁2951	-11.1252
▁2891	-11.1252
▁1791	-11.1253
▁3691	-11.1253
▁2691	-11.1253
▁1691	-11.1255
▁1891	-11.1256
▁ĠBase	-11.1257
▁Ġpet	-11.1259
▁ĠNA	-11.126
▁ĠVis	-11.1261
▁Da	-11.1263
▁1937	-11.1264
▁ident	-11.1267
▁Ġpriorit	-11.1271
▁ĠRac	-11.1271
ref	-11.1273
▁1862	-11.1276
very	-11.1279
▁1927	-11.128
▁alys	-11.1281
▁Ġaf	-11.1281
▁1928	-11.1281
▁1926	-11.1286
▁Ġpractic	-11.1289
▁4103	-11.129
▁4104	-11.1291
▁3103	-11.1291
▁3104	-11.1292
▁2103	-11.1294
▁iment	-11.1295
▁2104	-11.1295
▁1929	-11.1295
▁4430	-11.1296
▁4230	-11.1298
▁4330	-11.1298
▁3430	-11.1298
▁1917	-11.1299
▁4403	-11.1299
▁4340	-11.1299
▁3230	-11.1299
▁2430	-11.13
▁3403	-11.13
▁4404	-11.13
▁4303	-11.13
▁3404	-11.1301
▁1430	-11.1301
▁4304	-11.1302
▁1916	-11.1302
▁4440	-11.1302
▁1330	-11.1302
▁3303	-11.1303
▁2403	-11.1303
▁2230	-11.1304
▁1403	-11.1304
▁3304	-11.1304
▁2404	-11.1304
▁3440	-11.1304
▁Ġlicense	-11.1304
▁1861	-11.1305
▁1404	-11.1305
▁1230	-11.1305
▁Ġreli	-11.1305
▁1303	-11.1306
▁2440	-11.1306
▁2025	-11.1307
▁3340	-11.1307
▁1304	-11.1307
▁2303	-11.1307
▁Ġclos	-11.1307
▁1935	-11.1307
▁1340	-11.1308
▁2330	-11.1308
▁ĠStrateg	-11.1308
▁2304	-11.1308
ograph	-11.131
mir	-11.1311
▁1902	-11.1313
▁2340	-11.1313
▁Ġmarch	-11.1318
▁1954	-11.1325
▁aver	-11.1326
▁Ġart	-11.1326
▁3330	-11.1329
▁4203	-11.133
▁Ġinjur	-11.1331
▁3203	-11.1332
▁ĠRand	-11.1332
▁erv	-11.1335
▁Ġspace	-11.1335
▁1953	-11.1338
oon	-11.1338
▁ole	-11.1339
▁1103	-11.1339
▁1104	-11.134
▁1915	-11.1344
▁4801	-11.1344
▁3801	-11.1344
▁ĠAsh	-11.1345
▁2801	-11.1345
▁4901	-11.1345
▁3901	-11.1346
▁1002	-11.1346
▁2901	-11.1346
▁ĠWo	-11.1347
▁4204	-11.1347
▁3204	-11.1349
▁4701	-11.135
▁3701	-11.1351
▁2701	-11.1351
▁4130	-11.1352
▁4601	-11.1352
▁3601	-11.1353
▁1701	-11.1353
▁3130	-11.1353
▁2601	-11.1353
▁4410	-11.1354
▁Ġviol	-11.1354
▁2130	-11.1355
▁Bet	-11.1355
▁4310	-11.1355
▁4140	-11.1355
▁1918	-11.1356
▁3140	-11.1357
▁3410	-11.1359
▁2140	-11.1359
▁2410	-11.1361
▁Ġpunch	-11.1361
▁1130	-11.1362
▁1410	-11.1362
▁4240	-11.1363
▁3310	-11.1363
▁1310	-11.1364
▁ĠWh	-11.1364
▁3240	-11.1364
▁1140	-11.1365
▁4148	-11.1367
▁2240	-11.1369
▁3148	-11.1369
▁2310	-11.1369
▁1240	-11.137
▁2148	-11.1371
▁1440	-11.1371
▁4348	-11.1371
▁4448	-11.1373
▁4248	-11.1374
▁Ġdistinguish	-11.1374
▁3448	-11.1375
▁1925	-11.1375
▁3248	-11.1376
note	-11.1377
▁Ġbit	-11.1377
▁ĠCons	-11.1377
▁1148	-11.1377
▁2448	-11.1377
▁4447	-11.1378
▁2203	-11.1378
▁4446	-11.1378
▁1448	-11.1379
▁3447	-11.1379
▁3348	-11.1379
▁1203	-11.1379
▁3446	-11.138
▁1348	-11.138
▁2248	-11.138
▁2447	-11.1381
▁1248	-11.1382
▁2446	-11.1382
▁1447	-11.1383
▁1446	-11.1384
▁4147	-11.1384
▁4146	-11.1385
▁2348	-11.1385
▁3147	-11.1386
▁3146	-11.1387
▁1952	-11.1387
▁2147	-11.1388
▁4449	-11.1388
mail	-11.1388
▁4347	-11.1388
▁2146	-11.1388
▁ĠLev	-11.1389
▁4346	-11.1389
▁Ġstretch	-11.1389
▁3449	-11.1389
▁1801	-11.139
▁Ġscratch	-11.139
▁4247	-11.1391
▁2449	-11.1391
▁4246	-11.1392
▁3247	-11.1393
▁1449	-11.1393
ica	-11.1393
▁3246	-11.1393
▁1147	-11.1394
▁4149	-11.1394
▁1146	-11.1395
▁2204	-11.1395
▁3149	-11.1396
▁3347	-11.1396
▁Ġseat	-11.1396
▁ĠWra	-11.1396
▁1204	-11.1397
▁1347	-11.1397
▁3346	-11.1397
▁2247	-11.1397
▁1601	-11.1398
▁1346	-11.1398
▁2149	-11.1398
▁2246	-11.1398
▁4349	-11.1398
▁1247	-11.1398
▁1246	-11.1399
▁Ġapproach	-11.1401
▁4249	-11.1401
▁2347	-11.1402
▁3249	-11.1403
▁2346	-11.1403
▁1149	-11.1404
▁Ġcre	-11.1404
▁3349	-11.1406
▁1349	-11.1407
▁2249	-11.1407
▁1249	-11.1409
▁Ġsearch	-11.1411
▁2349	-11.1412
DE	-11.1416
▁4210	-11.1418
▁3210	-11.142
▁1951	-11.1421
▁4110	-11.1422
▁3110	-11.1423
▁2210	-11.1424
▁4001	-11.1425
▁3001	-11.1425
▁2110	-11.1425
▁Ġaddress	-11.1425
▁1210	-11.1426
▁Ġfinish	-11.1426
struction	-11.1427
▁848	-11.1431
▁Ġstr	-11.1432
▁Ġjudge	-11.1434
▁Ġgrad	-11.1435
▁Ġunderstand	-11.1436
▁se	-11.1438
▁4454	-11.1438
▁3454	-11.144
▁4394	-11.1441
▁4494	-11.1441
▁2454	-11.1442
▁Ġswitch	-11.1443
▁1454	-11.1443
▁4484	-11.1444
▁found	-11.1445
▁Ġperson	-11.1445
▁4483	-11.1445
▁ĠSun	-11.1445
▁3484	-11.1446
▁4474	-11.1446
▁Ġbreach	-11.1446
▁4393	-11.1446
▁3483	-11.1447
▁4493	-11.1447
▁4154	-11.1448
▁2484	-11.1448
▁ĠAnn	-11.1448
▁3494	-11.1448
▁4463	-11.1448
▁1484	-11.1449
▁847	-11.1449
▁2483	-11.1449
▁3154	-11.1449
▁4453	-11.145
▁1483	-11.145
▁3394	-11.145
▁ĠPart	-11.145
▁2494	-11.1451
▁Ġdark	-11.1451
▁846	-11.1451
▁3453	-11.1451
▁4420	-11.1451
▁1494	-11.1452
▁ĠCu	-11.1452
▁2154	-11.1452
▁4354	-11.1452
▁4254	-11.1452
▁4384	-11.1452
▁1394	-11.1452
▁3474	-11.1452
▁ĠLove	-11.1453
▁2453	-11.1453
▁4383	-11.1453
▁3254	-11.1454
▁3493	-11.1454
▁1453	-11.1454
▁4439	-11.1454
▁4473	-11.1455
▁1154	-11.1455
▁3354	-11.1455
▁2394	-11.1455
▁2474	-11.1455
▁3463	-11.1455
▁4284	-11.1455
▁4382	-11.1455
▁1474	-11.1456
▁3393	-11.1456
▁3439	-11.1456
▁2493	-11.1456
▁3420	-11.1456
▁4283	-11.1456
▁4320	-11.1457
▁3284	-11.1457
▁1354	-11.1457
▁2254	-11.1457
▁4182	-11.1457
▁1493	-11.1457
▁2463	-11.1458
▁2439	-11.1458
▁3283	-11.1458
▁1254	-11.1458
▁1393	-11.1458
▁4294	-11.1458
▁2420	-11.1458
▁1110	-11.1458
▁1463	-11.1459
▁3182	-11.1459
▁4153	-11.1459
▁1439	-11.1459
▁2354	-11.1459
▁4374	-11.1459
▁4482	-11.146
▁1420	-11.146
▁3294	-11.146
▁3384	-11.146
▁2284	-11.146
▁2393	-11.146
▁3153	-11.1461
▁Ġwitness	-11.1461
▁4174	-11.1461
▁3320	-11.1461
▁2182	-11.1461
▁3482	-11.1461
▁3383	-11.1461
▁2283	-11.1461
▁3473	-11.1461
▁Ġecho	-11.1461
▁1320	-11.1461
▁1284	-11.1462
▁4402	-11.1462
▁4274	-11.1462
▁3174	-11.1462
▁1384	-11.1462
▁1283	-11.1463
▁4163	-11.1463
▁4472	-11.1463
▁2153	-11.1463
▁3402	-11.1463
▁2294	-11.1463
▁3382	-11.1463
▁4353	-11.1463
▁4253	-11.1463
▁4302	-11.1463
▁2482	-11.1463
▁1383	-11.1464
▁3274	-11.1464
▁1182	-11.1464
▁2473	-11.1464
▁4293	-11.1464
▁1294	-11.1464
▁1482	-11.1464
▁3163	-11.1464
▁849	-11.1464
▁4263	-11.1465
▁1473	-11.1465
▁2174	-11.1465
▁4139	-11.1465
▁2384	-11.1465
▁3253	-11.1465
▁4464	-11.1465
lair	-11.1465
▁3293	-11.1465
▁1382	-11.1465
▁1153	-11.1466
▁2402	-11.1466
▁3353	-11.1466
rray	-11.1466
▁2383	-11.1466
▁3302	-11.1466
▁3263	-11.1466
▁3139	-11.1466
▁1402	-11.1467
▁4145	-11.1467
▁4220	-11.1467
▁2163	-11.1467
▁2274	-11.1467
▁2320	-11.1467
▁3374	-11.1467
▁1174	-11.1467
▁4363	-11.1467
▁2382	-11.1468
▁1274	-11.1468
▁3145	-11.1468
▁2139	-11.1468
▁1353	-11.1468
▁3220	-11.1468
▁4373	-11.1468
▁2253	-11.1468
▁1302	-11.1469
▁2293	-11.1469
▁1253	-11.1469
▁1374	-11.1469
▁2263	-11.1469
▁1163	-11.1469
▁zz	-11.1469
▁4173	-11.147
▁1293	-11.147
▁3472	-11.147
▁3363	-11.147
▁948	-11.147
▁2145	-11.147
▁1263	-11.147
▁4492	-11.147
▁2353	-11.147
▁2302	-11.147
▁4345	-11.147
▁4282	-11.1471
▁4273	-11.1471
▁3173	-11.1471
▁4339	-11.1471
▁4239	-11.1472
▁Ġbrush	-11.1472
▁2374	-11.1472
▁3464	-11.1472
▁2472	-11.1472
▁1363	-11.1472
▁3282	-11.1472
▁4381	-11.1472
▁3273	-11.1473
▁4445	-11.1473
▁2220	-11.1473
▁1472	-11.1473
▁3239	-11.1473
▁4245	-11.1473
▁2173	-11.1474
▁1220	-11.1474
▁3445	-11.1474
▁1139	-11.1474
▁4181	-11.1474
▁2464	-11.1474
▁2363	-11.1474
▁3245	-11.1475
▁1464	-11.1475
▁3181	-11.1476
▁2282	-11.1476
▁2273	-11.1476
▁3373	-11.1476
▁1145	-11.1476
▁2445	-11.1476
▁1173	-11.1476
▁1339	-11.1476
▁1901	-11.1476
▁4372	-11.1477
▁4481	-11.1477
Image	-11.1477
▁1273	-11.1477
▁1282	-11.1477
▁3492	-11.1477
▁2239	-11.1477
▁1445	-11.1478
▁4172	-11.1478
▁2181	-11.1478
▁3481	-11.1478
▁1373	-11.1478
▁3345	-11.1478
▁1239	-11.1479
▁1345	-11.1479
▁2245	-11.1479
▁4272	-11.1479
▁4164	-11.1479
▁2492	-11.1479
▁3172	-11.148
▁4438	-11.148
▁ĠMak	-11.148
▁3381	-11.148
▁1492	-11.148
▁2481	-11.148
▁2373	-11.1481
▁1181	-11.1481
▁1245	-11.1481
▁3272	-11.1481
▁3164	-11.1481
▁4264	-11.1481
▁3438	-11.1481
▁1481	-11.1481
▁2339	-11.1481
▁2172	-11.1482
▁4392	-11.1482
▁1381	-11.1482
▁3264	-11.1483
▁4462	-11.1483
▁2438	-11.1483
▁2164	-11.1483
▁4471	-11.1484
▁4364	-11.1484
▁2272	-11.1484
▁3372	-11.1484
▁2345	-11.1484
▁1438	-11.1484
▁1172	-11.1485
▁2381	-11.1485
▁1272	-11.1485
▁Ġguess	-11.1485
nick	-11.1485
▁2264	-11.1486
▁1164	-11.1486
▁3364	-11.1486
▁4138	-11.1487
▁1372	-11.1487
▁1264	-11.1487
▁4292	-11.1487
▁947	-11.1488
▁4281	-11.1488
▁3138	-11.1488
▁3292	-11.1489
▁1364	-11.1489
ulous	-11.1489
▁Ġnic	-11.1489
▁2372	-11.1489
▁ĠAut	-11.1489
▁4362	-11.1489
▁3281	-11.1489
▁3462	-11.149
▁946	-11.149
▁2138	-11.149
▁Gra	-11.149
▁4452	-11.149
▁3471	-11.1491
▁2364	-11.1491
▁3392	-11.1491
kan	-11.1492
▁3452	-11.1492
▁3362	-11.1492
▁2292	-11.1492
▁2462	-11.1492
▁2281	-11.1493
▁1292	-11.1493
▁1462	-11.1493
▁2471	-11.1493
▁4338	-11.1493
▁4238	-11.1493
▁1392	-11.1494
▁1471	-11.1494
▁1281	-11.1494
▁2452	-11.1494
▁1362	-11.1494
ctive	-11.1494
▁1452	-11.1495
▁3238	-11.1495
▁Ġallerg	-11.1496
▁Ġshin	-11.1496
▁2392	-11.1496
▁1138	-11.1496
▁itch	-11.1496
▁2362	-11.1496
▁4162	-11.1497
▁4371	-11.1497
▁1338	-11.1498
▁3162	-11.1499
▁rit	-11.1499
▁4262	-11.1499
▁4171	-11.1499
▁2238	-11.1499
▁4152	-11.15
▁4271	-11.15
▁4184	-11.15
▁3171	-11.15
▁3262	-11.15
▁1238	-11.1501
▁2162	-11.1501
▁enge	-11.1501
▁3152	-11.1501
▁3271	-11.1502
▁3184	-11.1502
vern	-11.1502
▁2171	-11.1503
▁ith	-11.1503
▁Ġrig	-11.1503
▁4183	-11.1503
▁2338	-11.1503
▁ĠLis	-11.1503
▁2152	-11.1504
▁3339	-11.1504
▁2262	-11.1504
▁Ġcloth	-11.1504
▁1162	-11.1504
▁4352	-11.1504
▁4461	-11.1504
▁4252	-11.1504
▁2184	-11.1504
▁1262	-11.1505
▁3183	-11.1505
▁2271	-11.1505
▁3371	-11.1505
▁1171	-11.1505
▁3252	-11.1506
▁1271	-11.1506
▁1152	-11.1506
▁3352	-11.1506
▁4136	-11.1507
▁1184	-11.1507
▁2183	-11.1507
▁1371	-11.1507
▁3136	-11.1508
▁1352	-11.1509
▁2252	-11.1509
▁2371	-11.151
▁1252	-11.151
▁Ġkeep	-11.151
▁4391	-11.151
▁1183	-11.151
▁2136	-11.151
▁3461	-11.1511
▁4491	-11.1511
▁2352	-11.1511
▁4436	-11.1512
▁2461	-11.1513
▁4336	-11.1514
▁4236	-11.1514
▁1461	-11.1514
▁3436	-11.1514
▁4127	-11.1514
▁3236	-11.1515
▁3127	-11.1516
▁2436	-11.1516
▁1136	-11.1516
▁4427	-11.1517
▁4120	-11.1517
▁izz	-11.1517
▁1436	-11.1517
▁2127	-11.1518
▁3491	-11.1518
▁4161	-11.1518
▁4428	-11.1518
▁3120	-11.1519
▁1336	-11.1519
▁4126	-11.1519
▁4437	-11.152
▁3391	-11.152
VER	-11.152
▁2236	-11.152
▁3161	-11.152
▁4261	-11.152
▁2491	-11.152
▁3126	-11.152
▁2120	-11.152
▁els	-11.1521
GN	-11.1521
▁1491	-11.1521
▁1236	-11.1521
▁3437	-11.1521
▁4227	-11.1521
▁4426	-11.1522
▁3261	-11.1522
▁1391	-11.1522
▁3427	-11.1522
▁2161	-11.1522
▁2126	-11.1522
▁4327	-11.1522
▁3227	-11.1523
▁4361	-11.1523
▁2437	-11.1523
▁4228	-11.1523
▁1127	-11.1524
▁2336	-11.1524
▁3428	-11.1524
▁4328	-11.1524
▁2427	-11.1524
▁2391	-11.1524
▁1437	-11.1524
▁3228	-11.1525
▁Ġspac	-11.1525
▁2261	-11.1525
▁1161	-11.1525
▁3361	-11.1525
▁1427	-11.1525
▁ĠIb	-11.1525
▁3338	-11.1526
▁1261	-11.1526
▁2428	-11.1526
▁4151	-11.1526
▁4226	-11.1526
▁4137	-11.1526
▁3327	-11.1526
▁4129	-11.1526
▁3426	-11.1527
▁1120	-11.1527
▁4326	-11.1527
▁1428	-11.1527
▁1327	-11.1527
▁2227	-11.1527
▁3151	-11.1528
▁3226	-11.1528
▁1361	-11.1528
▁4291	-11.1528
▁3137	-11.1528
▁3129	-11.1528
▁3328	-11.1528
▁1126	-11.1529
▁1227	-11.1529
▁2426	-11.1529
▁1328	-11.1529
▁4429	-11.1529
▁2228	-11.1529
▁4451	-11.1529
▁3291	-11.1529
▁2137	-11.153
▁2129	-11.153
▁2151	-11.153
▁2361	-11.153
▁1426	-11.153
▁4351	-11.153
▁1228	-11.153
▁4251	-11.153
▁3451	-11.1531
▁3326	-11.1531
▁1326	-11.1532
▁3251	-11.1532
▁2226	-11.1532
▁2327	-11.1532
▁2291	-11.1533
▁1151	-11.1533
▁3351	-11.1533
▁2451	-11.1533
▁4337	-11.1533
▁4237	-11.1533
▁1291	-11.1533
▁1226	-11.1533
▁4229	-11.1534
▁1451	-11.1534
▁CH	-11.1534
▁2328	-11.1534
▁3429	-11.1534
▁4329	-11.1535
▁3237	-11.1535
▁1351	-11.1535
▁3229	-11.1535
▁2251	-11.1535
▁Ġport	-11.1536
ea	-11.1536
▁1137	-11.1536
▁1129	-11.1536
Name	-11.1536
▁1251	-11.1536
▁2429	-11.1536
▁2326	-11.1537
▁2351	-11.1537
▁4519	-11.1538
▁1429	-11.1538
▁1337	-11.1538
▁3519	-11.1538
▁3329	-11.1539
▁2237	-11.1539
▁1329	-11.1539
▁2229	-11.154
▁1237	-11.1541
▁1229	-11.1541
▁2519	-11.1542
▁1519	-11.1542
▁Li	-11.1542
▁Ġkiss	-11.1543
▁2337	-11.1543
▁2329	-11.1545
▁845	-11.1545
▁3336	-11.1546
▁4019	-11.1547
▁939	-11.1547
▁3019	-11.1547
▁4719	-11.1549
▁4619	-11.1549
▁ka	-11.155
▁abet	-11.155
▁4819	-11.1551
▁3819	-11.1551
▁4919	-11.1551
▁3919	-11.1552
▁3719	-11.1553
▁3619	-11.1553
▁2719	-11.1554
▁2619	-11.1554
▁1719	-11.1554
▁2819	-11.1555
▁2919	-11.1556
▁ĠTri	-11.1556
▁rap	-11.1556
▁4116	-11.1557
▁4117	-11.1557
▁1619	-11.1557
▁Ġon	-11.1558
▁3116	-11.1558
▁3117	-11.1558
▁1819	-11.1558
▁4102	-11.1558
▁Ġpublish	-11.1559
▁4416	-11.156
▁4417	-11.156
▁2116	-11.156
▁2117	-11.156
▁3102	-11.156
▁4135	-11.1561
▁4316	-11.1561
▁4317	-11.1561
▁Ġfunction	-11.1562
▁ĠBos	-11.1562
▁3135	-11.1563
▁2102	-11.1563
▁ĠBoo	-11.1563
▁4216	-11.1564
▁4217	-11.1564
▁938	-11.1564
▁mi	-11.1564
▁2135	-11.1564
▁839	-11.1565
▁3416	-11.1565
▁3417	-11.1565
▁3337	-11.1565
point	-11.1566
▁3216	-11.1566
▁Ġremark	-11.1566
▁3217	-11.1566
▁4435	-11.1567
▁2416	-11.1567
▁2417	-11.1567
▁4335	-11.1568
▁4235	-11.1568
▁1416	-11.1568
▁1417	-11.1568
▁3435	-11.1568
▁3316	-11.1569
▁3317	-11.1569
▁3235	-11.157
▁1316	-11.157
▁1317	-11.157
▁2216	-11.157
▁2217	-11.157
▁2435	-11.157
▁1135	-11.1571
▁1216	-11.1571
▁1217	-11.1571
▁1435	-11.1572
▁Ġsn	-11.1572
▁1335	-11.1573
▁2235	-11.1574
▁ĠIns	-11.1575
▁Ġlaunch	-11.1575
▁2316	-11.1575
▁2317	-11.1575
▁1235	-11.1575
▁ĠWeb	-11.1576
▁4128	-11.1577
▁2335	-11.1578
▁3128	-11.1578
▁2128	-11.158
▁ong	-11.1581
▁838	-11.1581
▁506	-11.1582
▁Writ	-11.1583
▁ĠUnit	-11.1585
▁507	-11.1585
▁936	-11.1586
▁1128	-11.1586
▁Ġpitch	-11.1588
▁4401	-11.1588
▁1019	-11.1589
▁Ġlat	-11.1589
▁3401	-11.1589
▁4301	-11.159
▁4115	-11.1591
▁4101	-11.1592
▁2401	-11.1592
▁3115	-11.1592
▁3301	-11.1592
▁4125	-11.1593
▁1401	-11.1593
▁945	-11.1593
▁3101	-11.1593
▁4415	-11.1594
▁3125	-11.1594
▁1116	-11.1594
▁1117	-11.1594
▁2115	-11.1594
▁1301	-11.1595
▁4425	-11.1595
▁4315	-11.1595
▁2101	-11.1596
▁2125	-11.1596
▁Ga	-11.1596
▁2301	-11.1597
ml	-11.1597
▁Ġnas	-11.1598
▁4215	-11.1598
▁ĠSher	-11.1599
▁Ġpoke	-11.1599
▁3415	-11.1599
▁4225	-11.16
▁3215	-11.16
▁3335	-11.16
▁3425	-11.1601
▁ĠMedi	-11.1601
▁4325	-11.1601
▁2415	-11.1601
▁Ġcrash	-11.1601
▁3225	-11.1601
▁1125	-11.1602
▁746	-11.1602
▁1415	-11.1602
▁2425	-11.1603
▁836	-11.1603
▁3315	-11.1603
▁4118	-11.1604
▁1425	-11.1604
▁1315	-11.1604
▁2215	-11.1604
▁3325	-11.1605
▁3118	-11.1605
▁937	-11.1605
▁ĠTitan	-11.1605
▁1325	-11.1606
▁1215	-11.1606
▁2225	-11.1606
▁4418	-11.1607
▁508	-11.1607
▁2118	-11.1607
▁1225	-11.1607
▁ĠStat	-11.1608
▁1102	-11.1608
▁Ġpush	-11.1608
▁4318	-11.1608
ards	-11.1608
▁827	-11.1609
▁2315	-11.1609
▁509	-11.161
▁828	-11.161
▁Ġaut	-11.1611
▁2325	-11.1611
▁4218	-11.1611
▁3418	-11.1612
▁3218	-11.1613
▁2418	-11.1614
▁Ġdress	-11.1615
▁826	-11.1615
▁1418	-11.1615
▁749	-11.1616
▁3318	-11.1616
itch	-11.1616
▁1318	-11.1617
▁2218	-11.1617
▁ĠTu	-11.1618
gg	-11.1618
▁1218	-11.1619
▁927	-11.1621
▁Ġwish	-11.1622
▁928	-11.1622
▁837	-11.1622
▁2318	-11.1622
▁ĠAny	-11.1624
▁ĠWall	-11.1625
▁Ġconc	-11.1626
▁829	-11.1626
▁926	-11.1627
▁1115	-11.1629
report	-11.1629
standing	-11.1629
▁1962	-11.163
FL	-11.1636
▁929	-11.1638
▁1101	-11.1641
▁1118	-11.1641
mination	-11.1642
▁Ġtheor	-11.1644
▁Ġsit	-11.1645
▁935	-11.1653
▁817	-11.1653
▁816	-11.1654
▁ĠCode	-11.1655
▁Ġcustom	-11.1658
▁1961	-11.166
▁pert	-11.166
▁739	-11.166
▁Sp	-11.1661
▁Ġref	-11.1662
▁ĠWid	-11.1663
▁iction	-11.1664
child	-11.1665
▁639	-11.1666
▁835	-11.167
▁Ġwin	-11.167
▁Ġside	-11.1675
▁Ġfe	-11.1677
▁738	-11.1678
▁Ġanim	-11.1678
▁ian	-11.1678
▁ĠChar	-11.1682
▁638	-11.1684
av	-11.1687
unning	-11.1691
▁head	-11.1691
▁ĠFra	-11.1691
▁Ġcurl	-11.1693
▁])	-11.1693
``	-11.1697
▁ĠPor	-11.1702
▁Ġdeep	-11.1703
▁818	-11.1706
▁636	-11.1706
rial	-11.1707
▁ĠTur	-11.1713
▁1919	-11.1713
▁la	-11.1716
▁agh	-11.1716
▁ĠPlat	-11.1718
▁917	-11.172
▁637	-11.1726
piece	-11.1727
sterda	-11.1728
ploy	-11.1728
▁ĠFire	-11.1728
human	-11.1728
▁Ġafford	-11.1739
itial	-11.1741
▁ĠInd	-11.1744
core	-11.1744
▁Ġquant	-11.1744
▁Ġunf	-11.1747
▁Ġcomplex	-11.175
▁Read	-11.1756
▁Ġprofit	-11.1757
▁505	-11.1759
obby	-11.1763
▁Ġsan	-11.1764
▁Ġva	-11.1765
ught	-11.1766
▁735	-11.1766
▁inc	-11.1767
▁726	-11.1767
▁DA	-11.1768
▁Ġmark	-11.1772
▁918	-11.1773
IGHT	-11.1774
▁{	-11.1777
▁737	-11.1778
▁ĠPep	-11.1791
▁Ġbound	-11.1792
▁Ġgl	-11.1792
▁Ġben	-11.1794
▁717	-11.1804
▁716	-11.1805
▁4202	-11.1808
▁ich	-11.1808
▁Ġskill	-11.1809
▁3202	-11.181
âĢĵ	-11.181
▁Ġbuild	-11.1811
dder	-11.1813
▁uit	-11.1816
▁Ġensu	-11.1816
▁inate	-11.182
▁Intern	-11.1823
âĢĭ	-11.1826
▁ĠPerson	-11.183
▁iva	-11.1833
▁Ġcop	-11.1838
ãĢ	-11.1839
▁903	-11.1839
▁904	-11.1839
In	-11.1841
weight	-11.1845
▁715	-11.1852
▁Ġvisual	-11.1853
▁2202	-11.1856
▁Ġshoot	-11.1857
▁1202	-11.1858
▁Ġforg	-11.1861
▁aw	-11.1861
tention	-11.1863
▁Ġcann	-11.1864
▁ĠMiss	-11.1866
fer	-11.1866
▁ĠBor	-11.1866
▁Ġtid	-11.1868
urious	-11.187
▁Ġadj	-11.1874
▁ĠCher	-11.1878
med	-11.1882
▁Ġhappi	-11.1884
world	-11.1886
▁Ġfare	-11.1892
com	-11.1893
▁4119	-11.1895
▁Ġsin	-11.1896
▁3119	-11.1897
▁Di	-11.1898
▁2119	-11.1898
▁4419	-11.1899
▁ĠGO	-11.1899
▁4319	-11.19
hawk	-11.1902
▁rup	-11.1902
▁4219	-11.1903
oto	-11.1904
▁3419	-11.1904
▁3219	-11.1905
▁ĠCome	-11.1905
▁2419	-11.1906
▁1419	-11.1907
▁3319	-11.1908
▁1319	-11.1909
▁2219	-11.1909
lon	-11.191
▁1219	-11.191
▁bar	-11.1911
▁Ġlead	-11.1911
EXT	-11.1911
▁ĠLuc	-11.1912
action	-11.1912
▁Ġcard	-11.1912
▁2319	-11.1914
▁854	-11.1915
▁ĠMus	-11.1917
▁Ġpartner	-11.1918
pread	-11.1919
▁Ġcoach	-11.1921
rative	-11.1921
▁ĠSin	-11.1923
▁Ġscreen	-11.1923
▁Ġweb	-11.1926
aneous	-11.1928
▁853	-11.1928
▁Ġfacilit	-11.193
▁1119	-11.1933
▁Ġpul	-11.1936
▁Ġseparate	-11.1939
uggest	-11.1944
▁ie	-11.1948
▁ĠMcK	-11.1949
ICE	-11.1954
▁Ġbroadcast	-11.1954
▁Ġreport	-11.1955
▁ĠBarb	-11.1957
data	-11.1964
▁Ġrang	-11.1965
▁Ġbro	-11.1966
▁894	-11.1969
▁874	-11.1971
▁852	-11.1975
▁ĠCru	-11.1976
▁ĠCub	-11.1977
▁Mar	-11.1978
▁Ġsil	-11.1979
▁873	-11.1982
▁Ġelect	-11.1983
▁ĠBol	-11.1985
▁stro	-11.1985
▁863	-11.1985
▁Ġver	-11.1989
▁STE	-11.1989
▁Ġmanag	-11.199
▁ĠHand	-11.1991
▁Ġnorm	-11.1991
▁974	-11.1992
▁Ġoppos	-11.1995
▁ĠSim	-11.1995
▁963	-11.1995
▁Ġlev	-11.1996
▁ĠEat	-11.1997
▁872	-11.1997
zo	-11.1998
tan	-11.2002
▁973	-11.2002
closure	-11.2003
▁ĠPL	-11.2006
▁892	-11.2006
▁ĠClass	-11.2009
▁851	-11.2011
▁964	-11.2012
▁972	-11.2018
▁asp	-11.202
rn	-11.2021
IV	-11.2022
▁Ġauthorit	-11.2025
ership	-11.2026
▁902	-11.2026
▁862	-11.2027
▁871	-11.2027
▁962	-11.2029
▁ivers	-11.2031
▁4502	-11.2033
▁Ġrestrain	-11.2034
▁3502	-11.2035
▁ave	-11.2037
▁Ġmock	-11.2038
▁819	-11.2039
▁Ġspeak	-11.204
▁ĠPyr	-11.2041
▁971	-11.2048
gage	-11.2051
ik	-11.2052
▁891	-11.2056
▁861	-11.2058
""	-11.2059
▁961	-11.206
ja	-11.2061
▁Ġcontribut	-11.2062
▁Game	-11.2063
▁ĠTob	-11.2063
▁Tru	-11.2064
▁984	-11.2066
▁âĢĶ	-11.2066
▁Ġacknowledge	-11.2067
▁ĠFro	-11.2069
▁Ġsurge	-11.2069
▁983	-11.2069
▁ĠFac	-11.2072
▁Ġreach	-11.2073
▁Ġrefine	-11.2073
▁Ġkill	-11.2078
▁ĠLat	-11.208
▁onom	-11.2081
▁Ġru	-11.2082
▁2502	-11.2084
▁1502	-11.2086
▁bi	-11.2088
natural	-11.2089
committee	-11.2089
▁982	-11.209
▁Ġseek	-11.2091
▁olin	-11.2093
▁Ġtrip	-11.2095
▁4193	-11.2096
▁3193	-11.2098
▁2193	-11.2102
▁Ġpil	-11.2102
▁Ġje	-11.2103
▁4194	-11.2103
+++	-11.2104
▁Ġnation	-11.2104
▁with	-11.2104
▁BU	-11.2105
▁3194	-11.2105
jan	-11.2106
▁1193	-11.2106
▁919	-11.2106
▁cm	-11.2107
▁ĠOff	-11.2107
▁ĠPri	-11.2109
▁2194	-11.2109
▁1194	-11.2113
▁Ġpit	-11.2115
▁Ġlad	-11.2115
▁ĠFarm	-11.2116
▁981	-11.2117
▁Ġsurround	-11.212
▁Ġproceed	-11.2121
▁avi	-11.2122
▁Ġhash	-11.2124
▁Ġgather	-11.2126
Message	-11.2127
▁Ġbelong	-11.2127
sync	-11.2128
▁ĠDon	-11.2128
▁Ġpromot	-11.2128
▁Ġthink	-11.213
▁4192	-11.213
▁fight	-11.213
▁3192	-11.2132
▁hed	-11.2133
zen	-11.2133
@@	-11.2134
through	-11.2135
roll	-11.2136
▁2192	-11.2136
▁Ġrelat	-11.2137
▁Ġent	-11.2137
▁Ġmaxim	-11.2139
▁Ġinspect	-11.2139
▁ĠNov	-11.214
▁1192	-11.214
▁ĠBon	-11.2142
nn	-11.2143
information	-11.2144
eg	-11.2146
oid	-11.2149
▁Du	-11.215
▁Ġtele	-11.2151
▁ĠGam	-11.2152
gender	-11.2152
times	-11.2155
▁che	-11.2156
q	-11.2156
▁4191	-11.2157
▁illa	-11.2158
▁3191	-11.2159
▁2191	-11.2163
original	-11.2163
▁764	-11.2165
elcome	-11.2166
▁1191	-11.2167
▁Ġstrike	-11.2167
▁Dec	-11.2169
shift	-11.2172
▁Ġdistract	-11.2173
▁Ġphoto	-11.2177
▁Ġexceed	-11.218
▁Ġinject	-11.2181
dog	-11.2182
▁ĠWrit	-11.2184
▁mon	-11.2184
▁ĠNob	-11.2184
▁oli	-11.2184
▁Ġcircum	-11.2187
▁Ġint	-11.2187
▁Ġobject	-11.2189
▁activ	-11.219
shop	-11.219
▁Ġconcept	-11.219
▁ĠDen	-11.2191
▁Ġcommission	-11.2191
after	-11.2194
▁719	-11.2194
▁Ġcontend	-11.2194
▁Fil	-11.2194
▁Christ	-11.2195
sa	-11.2196
;;	-11.2198
PI	-11.2199
▁break	-11.2199
▁ocrat	-11.22
▁Ġfail	-11.2206
▁ĠCont	-11.2207
Code	-11.2209
▁Ġborrow	-11.221
▁Ġâĸ	-11.2211
team	-11.2211
▁Ġwithdraw	-11.2213
▁Ġbuy	-11.2215
▁Ġshock	-11.2219
▁ĠAu	-11.2219
▁Ġinspir	-11.2219
▁Ġquot	-11.222
▁ĠCra	-11.222
insula	-11.2221
▁Ġcounsel	-11.2221
▁761	-11.2222
anish	-11.2225
▁ĠSouth	-11.2226
▁Ġplug	-11.2227
▁Ġsq	-11.2229
▁Ġtopp	-11.2231
long	-11.2231
▁lish	-11.2235
▁author	-11.2235
iving	-11.2236
rie	-11.2236
▁Ġresearch	-11.2237
▁ign	-11.2239
▁Ġstaff	-11.2239
rawl	-11.2239
▁ener	-11.2242
▁Ġfrag	-11.2243
▁Ġdisturb	-11.2243
structure	-11.2246
▁Ġbear	-11.2246
▁Ġdisagree	-11.2246
▁ĠBang	-11.2246
ountain	-11.2246
▁ĠSoc	-11.2247
▁Ġdeploy	-11.2247
▁Ġdepart	-11.2247
▁Ġinterest	-11.2247
▁Ġdeal	-11.2248
▁oca	-11.2248
▁Ġneighbour	-11.2248
▁Ġas	-11.2248
################	-11.2248
////////////////	-11.2248
ÂłÂłÂłÂłÂłÂłÂłÂł	-11.2248
▁Ġkilomet	-11.2248
▁Ġphosph	-11.2248
▁Source	-11.2248
▁Ġfavour	-11.2248
▁Ġdimension	-11.2248
▁Ġhierarch	-11.2248
▁ĠSecret	-11.2248
▁Ġanomal	-11.2248
▁Ġhomosexual	-11.2248
▁Ġautonom	-11.2248
▁Ġretreat	-11.2248
▁second	-11.2249
▁ĠPhotograph	-11.2249
▁Ġcompuls	-11.2249
▁ĠRodrig	-11.2249
▁Ġdisorder	-11.2249
▁Ġharvest	-11.2249
▁Feature	-11.2249
▁ĠDirect	-11.2249
▁Ġbetray	-11.2249
▁Ġforecast	-11.2249
▁Ġmirror	-11.2249
▁Ġobtain	-11.2249
▁Ġdelusion	-11.2249
▁Ġmonument	-11.2249
▁Ġdiminish	-11.2249
▁Ġintellectual	-11.2249
▁Ġannex	-11.2249
▁Ġflourish	-11.2249
▁Ġsympath	-11.2249
▁ĠDocument	-11.2249
▁Increase	-11.2249
▁Ġdissatisf	-11.2249
▁Ġprosper	-11.2249
▁Ġdiscount	-11.2249
▁Ġdifficult	-11.2249
▁Ġunemploy	-11.2249
▁Ġpatriarch	-11.2249
▁ĠMethod	-11.2249
▁Ġsummarize	-11.2249
▁Ġinherit	-11.2249
▁Ġperipher	-11.2249
▁Ġfacult	-11.2249
▁Ġscatter	-11.2249
▁Ġentire	-11.2249
▁Ġguitar	-11.2249
▁Ġenrich	-11.2249
▁John	-11.2249
▁ĠReturn	-11.2249
▁Ġimprison	-11.2249
▁Ġinstrument	-11.2249
▁Ġbehaviour	-11.2249
▁require	-11.2249
▁Ġimplant	-11.2249
▁Ġuniform	-11.2249
▁ĠLeban	-11.2249
▁Ġlecture	-11.2249
▁Ġabdom	-11.2249
▁Ġrecount	-11.2249
▁Ġsuperior	-11.2249
▁Ġorient	-11.2249
▁Ġcompound	-11.2249
▁Ġvillage	-11.2249
▁Ġgrocer	-11.2249
▁Ġwield	-11.2249
▁ĠRelease	-11.2249
▁Ġconstant	-11.2249
▁Ġeffort	-11.225
▁Ġjewel	-11.225
▁Ġpicture	-11.225
▁Ġattain	-11.225
▁Ġfashion	-11.225
▁Ġimpair	-11.225
▁Ġprevail	-11.225
▁Ġpredator	-11.225
▁ĠâĨ	-11.225
▁Ġsnow	-11.225
▁ĠUpdate	-11.225
▁Ġadvantage	-11.225
▁Ġshatter	-11.225
▁Ġupload	-11.225
▁Ġcompliment	-11.225
▁ĠChallenge	-11.225
▁Ġgenetic	-11.225
▁Ġunveil	-11.225
▁Ġbomb	-11.225
▁Ġarchive	-11.225
▁ĠCaucas	-11.225
▁ĠFernand	-11.225
▁":[	-11.225
▁Ġventure	-11.225
▁Ġdispute	-11.225
▁Ġforbid	-11.2251
▁Ġstagger	-11.2251
▁Ġstitch	-11.2251
▁Ġspiritual	-11.2251
▁Ġcontest	-11.2251
▁çĶ	-11.2251
▁âĨ	-11.2251
▁Ġresign	-11.2251
▁ĠUnder	-11.2251
▁Ġpatent	-11.2251
▁Ġeffect	-11.2251
▁ĠBloom	-11.2251
▁Ġdrift	-11.2251
▁ĠTimber	-11.2251
▁ĠChamber	-11.2251
▁Ġenact	-11.2251
▁Ġoverlook	-11.2251
▁Ġalternative	-11.2251
▁Ġprovision	-11.2251
▁Ġsrf	-11.2251
▁Ġdynamic	-11.2252
▁Ġtalent	-11.2252
▁Ġinstant	-11.2252
▁Ġdisadvantage	-11.2252
▁Ġyouth	-11.2252
▁Ġarsen	-11.2252
▁Ġcircuit	-11.2252
▁Ġswallow	-11.2252
▁ĠMormon	-11.2252
▁Ġlegend	-11.2252
▁Ġdrown	-11.2252
▁ĠVaugh	-11.2252
▁Report	-11.2252
▁Ġinfring	-11.2253
▁value	-11.2253
▁ĠLegend	-11.2253
▁Ġsentiment	-11.2253
▁Ġscrew	-11.2253
▁Ġelectronic	-11.2254
▁Ġmountain	-11.2254
▁Ġbreast	-11.2254
▁Ġinhabit	-11.2254
▁Ġsweep	-11.2254
▁Ġneighbor	-11.2254
▁ĠBE	-11.2254
▁ĠFitz	-11.2254
▁Ġsuspect	-11.2254
urchase	-11.2254
▁ĠPortug	-11.2254
▁ĠAfghan	-11.2254
▁Ġanchor	-11.2255
▁Ġbribe	-11.2255
▁Ġblink	-11.2255
▁Ġpriest	-11.2255
▁Ġtraged	-11.2255
▁Ġsideline	-11.2255
▁Ġdread	-11.2255
▁ĠKen	-11.2255
▁Ġmonth	-11.2255
▁Ġheaven	-11.2255
▁Ġairline	-11.2255
▁Ġfluor	-11.2256
▁Ġgrasp	-11.2256
▁train	-11.2256
▁Ġobjective	-11.2256
▁Ġvolcan	-11.2256
▁Ġnuance	-11.2256
▁Ġjail	-11.2256
▁Ġgarden	-11.2256
▁ĠLimit	-11.2256
▁ĠParent	-11.2257
▁Ġspray	-11.2257
▁Ġreckon	-11.2257
▁Ġdisgust	-11.2257
▁Ġsuspend	-11.2257
▁Ġincrement	-11.2257
▁Ġpray	-11.2258
▁881	-11.2258
▁Ġprize	-11.2258
ging	-11.2259
▁Ġplent	-11.2259
▁ãĥī	-11.2259
▁Ġpretend	-11.2259
▁ĠChild	-11.226
▁issue	-11.226
▁ĠComment	-11.2261
▁ĠBullet	-11.2261
▁Ġglance	-11.2261
▁Other	-11.2261
▁Ġrat	-11.2261
▁block	-11.2261
▁Ġpetition	-11.2261
▁Ġsmash	-11.2262
▁Ġheadline	-11.2262
▁Ġrich	-11.2262
▁Ġmortal	-11.2262
▁Ġprogressive	-11.2262
▁Ġvanish	-11.2262
▁Jew	-11.2262
▁Ġreconcil	-11.2262
▁Ġsociet	-11.2262
▁Ġconsult	-11.2263
▁ĠBlock	-11.2263
▁Ġshelter	-11.2263
▁Ġweapon	-11.2263
▁ĠHighland	-11.2264
▁Ġstag	-11.2264
▁ĠHuff	-11.2264
▁ĠObserv	-11.2264
▁ĠBasic	-11.2264
▁iscover	-11.2265
▁ĠSpark	-11.2265
▁Ġfault	-11.2265
▁Ġbranch	-11.2265
▁ĠDragon	-11.2265
▁ĠTrail	-11.2265
▁Ġrefresh	-11.2266
▁Ġarous	-11.2266
▁ĠMobil	-11.2266
▁Ġcontinent	-11.2266
▁Ġbail	-11.2266
▁ĠGerman	-11.2267
▁Ġresume	-11.2267
▁ĠIsland	-11.2267
▁ĠOther	-11.2267
▁Ġunrel	-11.2268
▁Ġferment	-11.2268
▁umin	-11.2268
▁Ġenchant	-11.2268
boot	-11.2268
▁Ġbullet	-11.2268
▁Ġresurrect	-11.2269
▁Ġseem	-11.2269
▁Ġdoctor	-11.2269
▁Pok	-11.227
▁Ġphase	-11.227
tr	-11.227
▁Ġcurrent	-11.227
▁avor	-11.227
▁ĠAdam	-11.227
▁Ġcent	-11.2271
▁Ġcommence	-11.2271
▁Ġprivilege	-11.2271
▁ĠClaud	-11.2271
▁ĠFO	-11.2271
▁Ġappoint	-11.2271
▁ĠOpen	-11.2272
▁Ġacid	-11.2273
▁Ġthick	-11.2273
▁Ġscout	-11.2274
▁Ġemail	-11.2274
▁Ġrival	-11.2274
▁etermin	-11.2274
▁Ġwander	-11.2274
▁Ġalert	-11.2274
▁Ġessential	-11.2275
▁Ġascend	-11.2275
▁Ġvictim	-11.2275
▁Ġscroll	-11.2276
▁Ġencrypt	-11.2276
▁Ġcolumn	-11.2276
▁Ġproclaim	-11.2276
▁Ġrandom	-11.2276
▁ĠCatholic	-11.2276
▁Ġcontext	-11.2276
▁ĠChurch	-11.2276
▁Ġparticular	-11.2277
nch	-11.2277
▁Ġcommercial	-11.2277
▁Ġmaterial	-11.2277
▁Ġnetwork	-11.2277
▁ĠOccup	-11.2277
▁Ġâľ	-11.2277
▁ĠWorld	-11.2277
▁Ġenroll	-11.2277
▁Ġbudget	-11.2277
ho	-11.2278
▁join	-11.2278
▁Ġmachine	-11.2278
▁ĠBrother	-11.2278
▁Ġserious	-11.2278
▁Ġwreck	-11.2278
▁Ġnail	-11.2278
▁Ġpositive	-11.2278
▁ĠObama	-11.2278
▁Ġsanction	-11.2279
▁ĠGhost	-11.2279
▁Ġradical	-11.2279
▁Ġbasket	-11.2279
▁ĠJeff	-11.2279
▁opath	-11.2279
($	-11.2279
▁igg	-11.2279
▁Ġunique	-11.2279
▁Ġshadow	-11.2279
▁Ġliquid	-11.2279
▁Ġstuff	-11.228
▁ĠSupp	-11.228
▁Ġhonest	-11.228
▁Ġwheel	-11.228
▁Ġdescend	-11.228
▁ĠHapp	-11.228
[]	-11.228
▁Ġspirit	-11.228
▁Ġsad	-11.228
▁Ġluc	-11.228
▁Ġhazard	-11.228
▁Ġstreet	-11.2281
▁Ġthread	-11.2281
▁ĠâĪ	-11.2281
▁ĠCongress	-11.2281
▁Ġdoor	-11.2281
▁Ġadminister	-11.2282
▁Ġtighten	-11.2282
▁ĠQue	-11.2282
▁ĠGRE	-11.2282
▁ĠWheel	-11.2282
▁ĠEnhance	-11.2282
▁ĠCapital	-11.2283
▁Ġmust	-11.2283
▁Ġconspir	-11.2283
▁Ġsurface	-11.2283
▁Ġconfine	-11.2283
▁Ġpatron	-11.2283
▁ĠRich	-11.2283
istance	-11.2284
▁Ġsolicit	-11.2284
▁ĠBridge	-11.2284
▁Ġrepeat	-11.2284
▁ĠJava	-11.2285
▁Ġsquad	-11.2285
▁Ġtruth	-11.2285
▁ĠQual	-11.2286
▁ĠItem	-11.2286
▁Ġsurvey	-11.2287
▁Ġwill	-11.2287
▁Ġstrain	-11.2287
▁Ġtroll	-11.2287
▁Ġlength	-11.2287
▁"},	-11.2288
▁ĠChristian	-11.2289
▁ĠProcess	-11.2289
▁Ġdefense	-11.2289
▁Ġquiet	-11.2289
▁Ġstrand	-11.229
▁Ġsolid	-11.229
▁Ġoffend	-11.229
▁ĠDaniel	-11.229
▁ĠQuant	-11.229
▁Ġcoron	-11.229
▁Ġtask	-11.229
▁ĠAval	-11.2291
▁Ġstandard	-11.2291
▁ĠWolf	-11.2292
▁Ġstrip	-11.2292
▁ĠGamer	-11.2292
▁Ġslight	-11.2292
▁ĠWOR	-11.2292
▁Ġdistinct	-11.2292
▁Ġcloud	-11.2293
▁Ġstrict	-11.2293
▁every	-11.2293
▁ĠCur	-11.2293
▁Ġawaken	-11.2293
▁Compan	-11.2294
▁ĠRoyal	-11.2294
▁ĠFunction	-11.2294
▁ĠElectric	-11.2294
▁ĠAlbert	-11.2296
sty	-11.2296
▁Ġtranscript	-11.2296
▁Ġsmooth	-11.2296
▁Ġtang	-11.2296
▁ĠMonth	-11.2296
bart	-11.2296
▁ĠSpeak	-11.2296
▁Ġrational	-11.2297
▁Ġheight	-11.2298
▁ĠColumb	-11.2298
▁ĠDrop	-11.2298
▁Ġfound	-11.2298
▁Ġindependent	-11.2298
▁Ġmotor	-11.2299
▁Ġdesert	-11.2299
▁Ġbasic	-11.23
liberal	-11.23
▁Ġhalf	-11.23
▁Ġmayor	-11.23
▁Ġlaund	-11.2301
▁Ġproportion	-11.2301
▁ĠRound	-11.2301
▁Ġconquer	-11.2301
▁ĠScout	-11.2302
▁ĠConstantin	-11.2302
▁ĠEther	-11.2303
▁Ġresort	-11.2303
▁Ġanalytic	-11.2304
▁Ġworsen	-11.2304
SQ	-11.2304
▁Ġobjection	-11.2305
▁Ġrepeal	-11.2305
▁Ġinfant	-11.2305
▁ĠHealth	-11.2305
▁Ġamount	-11.2305
▁Ġhour	-11.2305
▁Ġbundle	-11.2306
▁Ġdesk	-11.2306
▁ormon	-11.2306
ternal	-11.2306
▁Ġcertain	-11.2306
▁Ġbank	-11.2306
▁Ġequip	-11.2306
▁Ja	-11.2307
▁Ġgodd	-11.2307
▁Ġschool	-11.2308
venue	-11.2308
▁Ġgraph	-11.2308
▁quarter	-11.2309
▁Ġmammal	-11.2309
▁Ġreconstruct	-11.2309
▁umm	-11.2309
▁Ġpastor	-11.231
▁ĠPRES	-11.231
▁Ġbehavior	-11.231
▁Ġstair	-11.231
▁Ġchief	-11.231
▁Ġcombat	-11.2311
▁Ġsweet	-11.2312
▁ĠBeth	-11.2312
▁ĠFried	-11.2312
▁Ġspear	-11.2313
▁ĠGrow	-11.2313
▁Ġpic	-11.2313
▁619	-11.2314
▁ĠGlas	-11.2314
▁Ġrumor	-11.2315
▁Ġcluster	-11.2315
▁ĠGodd	-11.2315
▁Ġodd	-11.2315
▁ĠSurve	-11.2315
▁Ġgovernment	-11.2315
▁Net	-11.2316
▁ĠBattle	-11.2316
▁ĠPremier	-11.2316
▁991	-11.2317
▁Ġparaly	-11.2318
▁Ġgreen	-11.2318
▁Ġbrace	-11.2318
avorite	-11.2319
▁Link	-11.2319
▁ĠSurviv	-11.2319
▁791	-11.2319
▁Ġdub	-11.2319
▁Ġconscious	-11.2319
utton	-11.232
▁664	-11.232
▁Ġthought	-11.232
▁Ġorganization	-11.232
▁ĠPAC	-11.232
▁Ġdetach	-11.2321
▁ategor	-11.2321
▁Ġwall	-11.2321
▁Ġhook	-11.2321
▁Ġofficial	-11.2321
▁shape	-11.2321
▁Ġeffective	-11.2321
▁Ġaspir	-11.2321
▁Ġoccupation	-11.2321
▁Ġweaken	-11.2322
▁Ġpersecut	-11.2322
fore	-11.2322
▁Ġradio	-11.2322
▁Ġharsh	-11.2323
▁Ġcrawl	-11.2323
▁Ġinstitution	-11.2323
▁ĠSuz	-11.2324
▁Ġoutrage	-11.2324
▁ĠCommon	-11.2325
**	-11.2325
▁Ġstrap	-11.2325
▁ĠErn	-11.2325
▁pick	-11.2326
▁Ġpeak	-11.2326
▁Ġchance	-11.2326
▁ĠSport	-11.2327
▁ĠOak	-11.2327
▁Ġregular	-11.2328
▁Ġhint	-11.2328
▁seek	-11.2328
▁ĠBro	-11.2329
▁ĠHill	-11.2329
▁Ġmasc	-11.2329
▁ĠÙ	-11.2329
▁ĠCelebr	-11.2329
▁Ġrank	-11.233
▁Ġreaction	-11.2331
▁Ġplain	-11.2331
▁ĠBorder	-11.2331
▁ĠAnders	-11.2331
▁ĠCorrection	-11.2332
▁ĠTalk	-11.2332
▁Ġcrush	-11.2332
▁itor	-11.2332
▁Ġwilling	-11.2332
▁Ġstamp	-11.2332
▁Ġsatir	-11.2332
▁Ġsituation	-11.2332
▁Ġlett	-11.2333
partisan	-11.2335
▁arent	-11.2335
▁Ġathletic	-11.2336
▁Ġclub	-11.2336
▁))	-11.2336
▁ĠHamp	-11.2336
onic	-11.2337
▁Ġglut	-11.2338
▁ĠEngineer	-11.2338
▁547	-11.2338
▁Ġstorm	-11.2339
▁Ġfalse	-11.2339
▁Ġcamp	-11.234
▁lean	-11.234
▁visor	-11.234
▁ĠBull	-11.2341
▁angle	-11.2342
OT	-11.2342
▁ĠLuck	-11.2342
▁ĠTrain	-11.2342
▁ĠSix	-11.2343
▁Ġpropos	-11.2343
▁ĠID	-11.2343
▁Ġcorrupt	-11.2343
▁Ġir	-11.2343
▁ĠMyster	-11.2344
▁Ġtoss	-11.2344
▁ĠNev	-11.2344
▁Ġluck	-11.2345
▁Ġjoy	-11.2345
▁Ġmask	-11.2346
▁Ġplanet	-11.2346
▁Ġstake	-11.2347
▁Ġfolk	-11.2347
▁`	-11.2348
▁Ġelder	-11.2348
ruption	-11.2349
▁employ	-11.2349
▁Ġpour	-11.235
▁Ġfight	-11.235
▁Ġutter	-11.235
▁ĠTransform	-11.2351
▁Ġcrop	-11.2352
▁ĠCell	-11.2352
▁Ġslash	-11.2352
▁Ġremed	-11.2352
▁Ġregulator	-11.2352
▁Call	-11.2352
▁Look	-11.2353
▁Ġbegg	-11.2353
▁ĠBatt	-11.2353
▁Ġpatient	-11.2356
▁Ġmother	-11.2357
▁Ġchemical	-11.2358
▁Ġprinciple	-11.2358
▁Ġassess	-11.2358
▁Ġroutine	-11.2359
▁Ġassembl	-11.236
▁Ġcere	-11.236
▁Ġpig	-11.236
▁ĠLoad	-11.2361
▁Initial	-11.2361
▁qui	-11.2361
▁ĠArk	-11.2362
▁Ġdamn	-11.2363
▁Know	-11.2363
▁tail	-11.2363
▁oh	-11.2364
▁Ġdevelopment	-11.2364
▁Ġcrystal	-11.2365
▁Ġmetal	-11.2365
▁Ġquarter	-11.2365
▁group	-11.2367
▁Prim	-11.2367
▁Ġdelight	-11.2367
▁Ġdeem	-11.2367
▁ĠGut	-11.2368
▁Ġspike	-11.2368
▁Ġabduct	-11.2368
▁Ġthrough	-11.237
▁Ġfoundation	-11.237
anyon	-11.237
▁Ġherb	-11.2373
gree	-11.2373
▁ĠHawk	-11.2373
▁ĠRah	-11.2374
▁++	-11.2375
▁ĠAthen	-11.2377
▁there	-11.2378
▁limit	-11.238
▁ĠGit	-11.2381
."	-11.2383
▁Ġplead	-11.2383
▁Ġburst	-11.2383
▁Ġliberal	-11.2384
▁ulator	-11.2384
▁Ġcensor	-11.2384
▁Ġtitle	-11.2385
▁ĠBless	-11.2385
▁Ġyog	-11.2386
▁Ġyear	-11.2387
▁Ġbuck	-11.2388
▁ĠHuss	-11.2388
▁Ġmot	-11.2388
▁cern	-11.2389
▁ĠWat	-11.2389
▁',	-11.2389
▁Gold	-11.2389
rinth	-11.239
▁Ġneck	-11.239
▁esse	-11.2391
▁ĠRun	-11.2391
▁ĠKnow	-11.2391
▁ĠCompan	-11.2391
▁Ġdeport	-11.2391
▁Ġlimb	-11.2392
▁Option	-11.2393
▁Ġinstruction	-11.2393
▁Ġrib	-11.2394
▁Ġimmun	-11.2395
▁Ġconvention	-11.2396
▁Ġsplit	-11.2397
▁Ġbowl	-11.24
▁ĠWord	-11.2401
rust	-11.2402
▁Ġdiet	-11.2402
▁Ġdash	-11.2404
▁Ġinitial	-11.2404
▁4201	-11.2404
▁Ġshove	-11.2404
▁Ġgift	-11.2405
▁Ġconcert	-11.2406
cow	-11.2406
▁cient	-11.2406
▁Ġroar	-11.2406
▁Ġcredit	-11.2406
▁3201	-11.2406
▁pr	-11.2407
▁section	-11.2407
iamond	-11.2408
▁Ġcongress	-11.2408
▁564	-11.2408
▁ĠCheck	-11.2409
avior	-11.241
▁ĠSuper	-11.241
▁Ġingen	-11.241
▁Ġbehav	-11.2411
▁Ġsink	-11.2412
▁ĠMaster	-11.2415
▁Ġstopp	-11.2415
▁Ġbag	-11.2415
▁Ġfertil	-11.2416
luster	-11.2416
▁ĠLad	-11.2417
▁Ġstall	-11.2418
▁Ġmotivation	-11.2418
AA	-11.2418
▁ethy	-11.2419
▁ĠWith	-11.2419
▁ĠLink	-11.242
▁ĠBL	-11.2421
▁Ġhung	-11.2422
llor	-11.2423
▁Ġjoint	-11.2424
▁Ġantiqu	-11.2424
screen	-11.2424
▁ĠVul	-11.2425
▁Ġcategor	-11.2428
▁Load	-11.2428
▁Ġbreed	-11.2429
▁ogg	-11.2429
▁Ġforest	-11.2429
▁ĠST	-11.243
▁ĠPenn	-11.2431
▁539	-11.2431
▁Ġsoak	-11.2433
▁ĠBrand	-11.2433
▁force	-11.2434
▁Ġprepar	-11.2434
▁Ġobservation	-11.2436
▁Ġdig	-11.2436
▁Ġundergo	-11.2436
▁ĠNOT	-11.2436
▁Ġfung	-11.2437
▁Ġdefin	-11.2438
▁ĠBat	-11.2439
▁Ġrefin	-11.2439
▁Ġcharm	-11.244
▁ĠBrewer	-11.244
▁Ġpatrol	-11.2442
bury	-11.2443
▁Ġsoar	-11.2446
▁Ġtank	-11.2447
rage	-11.2448
▁Ġcancell	-11.2448
▁},	-11.2449
▁Ġsexual	-11.2449
▁ĠTrib	-11.2451
▁Ġannounce	-11.2452
▁Ġsensation	-11.2452
▁2201	-11.2452
▁ĠNiet	-11.2453
▁Ġkey	-11.2453
▁walk	-11.2453
▁Ġbug	-11.2453
▁Ġicon	-11.2454
▁ĠBrown	-11.2454
▁Ġadvisor	-11.2454
▁ĠInt	-11.2454
▁1201	-11.2455
▁Ġchalleng	-11.2457
▁ild	-11.2457
▁Ġacknowledg	-11.2459
▁ook	-11.246
▁ĠFlo	-11.2461
▁Ġrewrit	-11.2462
▁Ġargu	-11.2464
▁ĠChap	-11.2464
▁ĠMark	-11.2465
▁ĠSever	-11.2467
▁te	-11.2467
▁Ġentitle	-11.2469
▁Ġinfl	-11.2469
▁ĠISI	-11.2471
▁start	-11.2472
▁rom	-11.2472
▁ĠFair	-11.2473
▁Ġinflict	-11.2473
▁Ġpause	-11.2473
▁Construct	-11.2475
▁ĠAL	-11.2478
▁Ġgam	-11.2482
▁ĠTour	-11.2483
▁Ġemulat	-11.2484
▁ĠDer	-11.2484
emption	-11.2486
▁zb	-11.2486
▁Ġhorse	-11.2487
▁ĠDraw	-11.2488
▁Ġpant	-11.2489
▁Ġlab	-11.249
▁Ġwiden	-11.249
▁ĠCarb	-11.2491
▁Ġsharp	-11.2492
pair	-11.2492
▁ĠPatt	-11.2493
▁ĠPi	-11.2493
▁Ġhorn	-11.2493
▁Ġskeptic	-11.2494
▁Ġknow	-11.2494
▁reg	-11.2494
▁Ġnodd	-11.2495
▁iddle	-11.2496
▁Ġtower	-11.2497
▁Me	-11.2498
▁rik	-11.2499
▁Ġother	-11.2499
▁Ġhaunt	-11.2499
▁ĠCat	-11.2499
las	-11.25
▁Ġeight	-11.25
▁Ġclan	-11.2501
▁Ġsensor	-11.2501
▁Ġnucle	-11.2502
▁aunder	-11.2503
▁Ġstate	-11.2504
▁Ġassum	-11.2504
▁Ġswing	-11.2505
▁ĠSpace	-11.2505
▁geon	-11.2508
▁need	-11.251
▁ug	-11.2512
vil	-11.2512
▁Jam	-11.2514
▁Require	-11.2515
▁ĠHEL	-11.2517
▁Ġalign	-11.2517
▁inator	-11.2518
▁Ġju	-11.252
▁bring	-11.252
▁ĠIr	-11.252
▁ĠTax	-11.2521
mes	-11.2522
▁ival	-11.2523
▁Ġwitch	-11.2524
▁ĠRuss	-11.2528
▁Ġemergenc	-11.2528
▁Ġpurchase	-11.2529
▁Ġpersonal	-11.2529
▁chen	-11.253
▁Ġsteer	-11.2531
▁Ġfuck	-11.2531
▁Ġvision	-11.2532
▁ĠForce	-11.2532
▁Ġsuburb	-11.2535
▁path	-11.2537
▁Ġchain	-11.2538
▁Ġdependenc	-11.2538
▁Ġpool	-11.2539
▁Ġmanual	-11.2539
▁527	-11.2539
▁Ġcontent	-11.2542
▁ĠRegion	-11.2542
sage	-11.2542
▁ĠInspect	-11.2544
▁ĠSon	-11.2544
▁],	-11.2545
▁ĠAlban	-11.2545
▁Ġlayer	-11.2546
▁ĠCol	-11.2546
▁Event	-11.2546
▁ĠMurd	-11.2549
▁Ġgal	-11.255
▁Ġinsight	-11.2551
ops	-11.2552
▁ATION	-11.2553
▁Ġmatter	-11.2555
▁Ġinvent	-11.2556
IR	-11.2557
▁Ġmoderate	-11.2557
▁ĠGrant	-11.2557
▁ĠCoff	-11.2559
▁ett	-11.2559
▁ĠRaz	-11.2559
▁ĠRead	-11.256
▁Ġstring	-11.2566
▁Ġbolt	-11.2567
▁Ġslave	-11.2567
▁Ġpromotion	-11.2568
▁ĠAnim	-11.2569
▁aughter	-11.2571
▁Ġwarn	-11.2571
▁Ġbad	-11.2571
▁ĠPD	-11.2571
▁Ġtick	-11.2575
▁')	-11.2576
▁Ġtopic	-11.2578
▁Ġsport	-11.2579
▁Ġharmon	-11.2579
▁ĠIz	-11.2579
▁Ġsolve	-11.2579
▁Ġinstinct	-11.258
▁Ġcapacit	-11.2581
▁ĠShoot	-11.2583
▁think	-11.2585
▁Ġangle	-11.2586
▁Ġelectric	-11.2587
iffe	-11.2588
▁Ġpenn	-11.2589
▁fund	-11.2589
▁Ġrenew	-11.259
▁intend	-11.2592
scape	-11.2593
▁Ġsingle	-11.2594
▁Ġminister	-11.2594
▁ĠJoin	-11.2595
▁EE	-11.2597
▁ĠLook	-11.2598
▁then	-11.26
▁ĠUltr	-11.2601
▁ĠSau	-11.2603
▁ĠColor	-11.2603
▁ĠTay	-11.2605
▁ĠGod	-11.2606
▁Ġrack	-11.2608
▁ĠMichel	-11.2608
▁ĠCollect	-11.2608
▁Ġfleet	-11.2608
minent	-11.2612
▁Ġeuro	-11.2614
▁ĠArab	-11.2615
▁Ġbeliev	-11.2615
▁Ġregion	-11.2616
sed	-11.2617
▁Ġgap	-11.2619
▁ument	-11.2619
▁Ġspend	-11.2619
▁ĠArmor	-11.2623
▁Ġwind	-11.2624
▁ĠDem	-11.2625
▁Ġprincipal	-11.2626
▁Ġfre	-11.2626
▁Ġwhisk	-11.2627
▁ĠSan	-11.2628
▁Ġethic	-11.2628
▁Ġpath	-11.2628
▁ry	-11.2629
lopp	-11.2629
▁Ġnegative	-11.263
ovo	-11.263
cific	-11.2632
▁Ġoperation	-11.2632
▁Ġartist	-11.2632
▁track	-11.2633
▁Ġrelative	-11.2634
▁ĠCycl	-11.2634
▁pir	-11.2635
ength	-11.2637
tress	-11.2638
▁over	-11.2641
▁nex	-11.2642
▁Ġexpert	-11.2642
▁ĠOption	-11.2644
chemical	-11.2645
▁ĠIv	-11.2647
▁Ġbrutal	-11.2647
▁Ġcorner	-11.2647
▁ĠNurs	-11.265
▁Ġaction	-11.2652
▁Ġbath	-11.2655
▁ĠAC	-11.2656
▁Ġsacrific	-11.2658
▁link	-11.2658
▁Ġboy	-11.2659
▁Ġundermin	-11.266
▁Ġnav	-11.266
▁cast	-11.266
▁Syn	-11.266
▁Ġcho	-11.266
▁Que	-11.2662
▁ĠPap	-11.2663
▁ĠComput	-11.2663
verse	-11.2664
▁Ġcollaps	-11.2665
▁ĠMetro	-11.2666
▁ĠDemon	-11.2666
▁Ġbot	-11.2667
▁Ġchees	-11.2669
▁Ġcomput	-11.2669
▁Ġass	-11.2669
▁Ġdescrib	-11.267
▁Ġbroker	-11.2671
▁Ġdiagnos	-11.2673
▁Post	-11.2674
▁Ġrecogniz	-11.2674
▁Ġhurt	-11.2674
▁ĠIslam	-11.2675
▁ĠSUP	-11.2675
▁Connect	-11.2675
▁Ġcorrection	-11.2675
▁Ġvine	-11.2676
▁Ġanalys	-11.2677
▁Ġflower	-11.268
▁ĠKeep	-11.268
▁Ġbust	-11.2681
▁Ġright	-11.2682
▁ĠFund	-11.2682
▁vention	-11.2684
▁Ġfigur	-11.2684
DL	-11.2685
▁cla	-11.2685
▁ĠTable	-11.2685
pawn	-11.2686
▁Ġband	-11.2687
▁Ġvoic	-11.269
▁Ġdad	-11.2691
flex	-11.2691
▁Ġneuron	-11.2692
▁inn	-11.2694
ita	-11.2695
ental	-11.2695
▁ĠHead	-11.2696
▁ĠPaul	-11.2698
▁ĠBeat	-11.27
▁ĠRem	-11.2704
▁ĠEle	-11.2706
▁Ġingest	-11.2706
▁Ġgame	-11.2706
▁Ġindict	-11.2707
▁Ġcafe	-11.2712
▁Ġlog	-11.2713
agazine	-11.2714
▁Jon	-11.2716
▁ĠFound	-11.2716
▁Ġdistribut	-11.2718
▁ĠSimpl	-11.2718
▁ĠSound	-11.2719
▁Ġrelieve	-11.272
▁Ġtap	-11.2721
▁ĠHeal	-11.2721
rable	-11.2723
▁rypt	-11.2727
▁Ġprosecut	-11.2727
▁ĠContra	-11.2727
▁ĠRobot	-11.2727
▁Ġsack	-11.2728
▁Col	-11.2728
▁Ġknee	-11.2729
▁Ġshell	-11.273
▁Ġmagnet	-11.273
▁Ġoffer	-11.2731
▁ĠMarc	-11.2732
▁ĠRome	-11.2735
▁Ġgeneration	-11.2735
▁Ġinclud	-11.2736
din	-11.2736
▁Ġconclud	-11.2737
▁Ġdirection	-11.2738
▁Ġvolt	-11.2738
▁ĠSwed	-11.2739
▁Ġmov	-11.274
brew	-11.2741
▁ĠJane	-11.2742
▁Ġnud	-11.2742
▁Mich	-11.2742
▁ipper	-11.2742
cking	-11.2744
▁Ġfocus	-11.2744
▁mediate	-11.2745
▁Ġextreme	-11.2746
▁Ġarc	-11.2746
▁TA	-11.2747
▁charg	-11.2747
▁ĠOx	-11.2748
▁ĠGreg	-11.2748
▁ĠPrint	-11.2748
▁Ġwash	-11.2749
▁Ġeditor	-11.2749
lu	-11.2751
▁human	-11.2752
▁ĠGrave	-11.2753
▁ĠBook	-11.2753
▁agg	-11.2754
▁Ġtactic	-11.2754
▁ĠClassic	-11.2758
achel	-11.276
▁Ġgre	-11.2761
▁Ġhear	-11.2761
su	-11.2764
▁Ġglobal	-11.2766
▁show	-11.2766
▁riot	-11.2766
▁ĠMet	-11.2767
▁ĠToy	-11.277
▁ĠBun	-11.277
▁UR	-11.2772
▁enda	-11.2774
▁Ġesp	-11.2776
▁Ġentrepreneur	-11.2777
▁4044	-11.2777
▁3044	-11.2777
▁Ġrestor	-11.2779
▁Ġimprov	-11.2779
SH	-11.278
▁ĠKy	-11.278
shore	-11.2782
▁ĠGene	-11.2782
▁ĠResident	-11.2783
▁4544	-11.2783
▁4543	-11.2786
▁Ġpage	-11.2786
▁1044	-11.2786
▁pell	-11.2788
▁ĠDeal	-11.2788
▁3544	-11.2789
▁Ġmeasur	-11.279
gger	-11.279
▁Ġtight	-11.279
▁3543	-11.2791
viation	-11.2791
▁2544	-11.2792
▁1544	-11.2792
▁2543	-11.2794
▁1543	-11.2794
▁4744	-11.2796
py	-11.2796
▁4844	-11.2797
▁4944	-11.2798
▁4644	-11.2798
▁3944	-11.2798
▁ĠGlob	-11.2798
mount	-11.2799
▁4743	-11.2801
▁3744	-11.2801
▁2744	-11.2801
▁4843	-11.2801
▁3844	-11.2802
▁2844	-11.2802
▁ĠDick	-11.2802
▁4943	-11.2802
▁1744	-11.2802
▁4643	-11.2803
ritis	-11.2803
▁3943	-11.2803
▁2944	-11.2803
▁3644	-11.2803
▁2644	-11.2804
▁ĠBark	-11.2804
▁ĠBank	-11.2805
bama	-11.2805
▁1844	-11.2805
▁Ġbrew	-11.2805
▁3743	-11.2806
▁On	-11.2806
▁1644	-11.2806
▁2743	-11.2806
▁2044	-11.2806
▁3843	-11.2806
▁2843	-11.2807
▁ĠWalk	-11.2807
▁ĠEditor	-11.2807
▁1743	-11.2807
▁Ġpresum	-11.2807
rizon	-11.2808
▁2943	-11.2808
▁3643	-11.2808
▁Ġlav	-11.2808
▁2643	-11.2808
▁ĠCaf	-11.2809
▁ĠCamp	-11.281
▁1843	-11.281
▁ĠShap	-11.281
▁1643	-11.2811
▁Ġbring	-11.2812
▁clud	-11.2814
▁ĠHond	-11.2815
▁ĠRat	-11.2815
▁Ġachiev	-11.2815
pt	-11.2816
▁Ġneuro	-11.2818
▁Ġlob	-11.2818
▁Ġeth	-11.2819
▁ĠJen	-11.2821
▁Ġirre	-11.2822
▁Ġopt	-11.2822
▁Ġpopp	-11.2823
▁Ġcomed	-11.2823
▁4043	-11.2824
▁3043	-11.2824
▁ĠAstro	-11.2826
patient	-11.2828
▁ĠHO	-11.283
▁Ġassassin	-11.2832
▁ĠNeed	-11.2833
▁1043	-11.2833
ser	-11.2833
▁Ġcast	-11.2834
▁ĠSTE	-11.2841
▁ĠRena	-11.2842
▁Ġsubscrib	-11.2843
▁Ġbus	-11.2844
▁worth	-11.2844
▁Ġmind	-11.2844
▁Ġuse	-11.285
▁Ġcalculat	-11.2852
▁Ġflag	-11.2852
▁Ġinterven	-11.2852
▁Ġunde	-11.2853
▁uster	-11.2853
▁ĠWein	-11.2853
▁ĠRow	-11.2854
▁Ġutiliz	-11.2855
▁Ġdemonstrat	-11.2859
▁ĠRet	-11.2859
▁Ġsadd	-11.2859
alk	-11.2862
▁ĠChang	-11.2863
▁Ġprospect	-11.2865
▁Ġjournalist	-11.2865
▁4042	-11.2866
▁3042	-11.2866
▁4034	-11.2868
▁Ġlend	-11.2868
▁3034	-11.2868
▁4534	-11.2868
▁Lo	-11.2868
▁allow	-11.287
▁Ġqualit	-11.287
▁ĠGerr	-11.2873
▁3534	-11.2873
▁1042	-11.2875
CHO	-11.2877
▁2534	-11.2877
▁1534	-11.2877
▁1034	-11.2877
▁ĠMine	-11.2877
▁ĠEvent	-11.2879
oh	-11.2879
▁4033	-11.2881
▁4542	-11.2881
▁3033	-11.2881
ITE	-11.2882
▁4634	-11.2883
▁4734	-11.2883
▁4533	-11.2884
▁4032	-11.2884
▁4834	-11.2884
▁3032	-11.2884
▁4532	-11.2885
▁4934	-11.2885
▁3934	-11.2886
▁3542	-11.2886
▁Ġins	-11.2887
▁Ġrelie	-11.2887
ille	-11.2888
▁3634	-11.2888
▁3734	-11.2888
▁2634	-11.2889
▁2734	-11.2889
▁3533	-11.2889
▁2542	-11.2889
▁1542	-11.2889
▁Ġast	-11.2889
▁3834	-11.2889
▁ĠCook	-11.2889
▁Ġchang	-11.2889
▁2834	-11.289
▁3532	-11.289
▁1734	-11.289
▁1033	-11.289
▁Ġmiser	-11.289
▁2934	-11.2891
▁1634	-11.2891
try	-11.2892
▁2533	-11.2892
▁1533	-11.2892
▁1834	-11.2893
▁2532	-11.2893
▁1532	-11.2893
▁1032	-11.2893
▁Lin	-11.2894
▁4514	-11.2895
▁2042	-11.2896
▁4742	-11.2896
▁3514	-11.2896
▁4633	-11.2896
▁2034	-11.2896
▁4842	-11.2897
▁4942	-11.2897
▁4642	-11.2898
▁3942	-11.2898
▁4933	-11.2898
▁3933	-11.2899
▁4733	-11.2899
▁Ġrout	-11.2899
▁2514	-11.2899
▁1514	-11.2899
▁4632	-11.2899
▁4833	-11.29
▁4732	-11.29
▁4832	-11.29
▁Put	-11.2901
▁3742	-11.2901
▁4014	-11.2901
▁2742	-11.2901
▁3633	-11.2901
▁4932	-11.2901
▁3014	-11.2902
▁2633	-11.2902
▁3842	-11.2902
▁3932	-11.2902
▁2842	-11.2902
▁1742	-11.2902
▁4513	-11.2903
▁2942	-11.2903
▁3642	-11.2903
▁ĠKid	-11.2903
▁2642	-11.2903
▁3513	-11.2904
▁2933	-11.2904
▁3733	-11.2904
▁4814	-11.2904
▁1633	-11.2904
▁2733	-11.2904
▁Ġmental	-11.2904
▁3632	-11.2905
▁3814	-11.2905
▁3833	-11.2905
▁Ġnote	-11.2905
▁3732	-11.2905
▁2632	-11.2905
▁2833	-11.2905
▁2732	-11.2905
▁4914	-11.2905
▁1842	-11.2905
▁4714	-11.2905
▁1733	-11.2905
▁4614	-11.2905
▁3914	-11.2906
▁3832	-11.2906
▁ĠBoe	-11.2906
▁1642	-11.2906
▁2832	-11.2906
▁Ġtrait	-11.2906
▁1732	-11.2906
media	-11.2907
▁4041	-11.2907
▁2513	-11.2907
▁1513	-11.2907
▁2932	-11.2907
▁3041	-11.2907
▁1632	-11.2907
▁Ġgate	-11.2908
▁4524	-11.2908
▁1833	-11.2908
▁4013	-11.2909
▁1832	-11.2909
▁2033	-11.2909
▁2814	-11.2909
▁3013	-11.2909
▁3714	-11.291
▁3614	-11.2911
▁2714	-11.2911
▁2914	-11.2911
▁4541	-11.2911
▁2614	-11.2911
▁4813	-11.2912
▁1714	-11.2912
▁Ġdescript	-11.2912
▁1814	-11.2912
▁2032	-11.2912
▁3813	-11.2912
▁4913	-11.2913
▁4713	-11.2913
▁3524	-11.2913
▁4613	-11.2913
▁3913	-11.2913
▁1614	-11.2913
▁4031	-11.2913
▁3031	-11.2914
▁4531	-11.2914
ife	-11.2914
▁4344	-11.2914
▁3541	-11.2916
▁1041	-11.2916
▁Gr	-11.2916
▁2524	-11.2916
▁1524	-11.2916
▁4523	-11.2916
▁4143	-11.2917
▁2813	-11.2917
▁4444	-11.2918
▁Ġskin	-11.2918
▁3143	-11.2918
▁3713	-11.2918
▁3613	-11.2918
▁2713	-11.2918
▁2913	-11.2918
▁4343	-11.2918
▁4012	-11.2918
▁4244	-11.2919
▁2613	-11.2919
▁3012	-11.2919
▁4024	-11.2919
▁2541	-11.2919
▁1541	-11.2919
▁3531	-11.2919
▁3444	-11.2919
▁3024	-11.2919
▁1713	-11.292
ohn	-11.292
▁2143	-11.292
▁1813	-11.292
▁3244	-11.292
▁4624	-11.292
▁4724	-11.2921
▁2444	-11.2921
▁3624	-11.2921
▁1613	-11.2921
▁4812	-11.2921
▁4824	-11.2921
▁3523	-11.2922
▁3812	-11.2922
▁3824	-11.2922
▁4443	-11.2922
▁1444	-11.2922
▁4924	-11.2922
▁4912	-11.2922
▁2531	-11.2922
▁1531	-11.2922
▁4712	-11.2922
▁1031	-11.2923
▁3344	-11.2923
▁4023	-11.2923
▁4612	-11.2923
▁4243	-11.2923
▁3912	-11.2923
▁3023	-11.2923
▁1344	-11.2923
▁3443	-11.2923
▁ĠCam	-11.2924
▁2244	-11.2924
▁4512	-11.2924
▁1143	-11.2924
▁4522	-11.2924
▁3243	-11.2924
▁1244	-11.2924
▁3512	-11.2925
▁2523	-11.2925
▁1523	-11.2925
▁2443	-11.2925
▁3724	-11.2926
▁4741	-11.2926
▁2624	-11.2926
▁2724	-11.2926
▁1443	-11.2926
▁4841	-11.2926
▁2812	-11.2927
▁2824	-11.2927
▁3343	-11.2927
▁1724	-11.2927
▁3924	-11.2927
▁4941	-11.2927
▁1343	-11.2927
▁3712	-11.2928
▁2512	-11.2928
▁4641	-11.2928
▁3941	-11.2928
▁3612	-11.2928
▁1512	-11.2928
▁2924	-11.2928
▁2712	-11.2928
▁2912	-11.2928
▁2243	-11.2928
▁2344	-11.2928
▁2612	-11.2928
▁1624	-11.2928
▁1243	-11.2929
medical	-11.2929
▁4631	-11.2929
▁4723	-11.2929
▁4731	-11.2929
▁1712	-11.2929
▁3522	-11.2929
▁1812	-11.2929
▁1824	-11.2929
▁4823	-11.293
▁4831	-11.293
▁3823	-11.293
▁1612	-11.2931
▁4931	-11.2931
▁3741	-11.2931
▁4923	-11.2931
▁2741	-11.2931
▁4623	-11.2931
▁3931	-11.2931
▁Ġhide	-11.2931
▁3841	-11.2932
▁Ġthem	-11.2932
▁3623	-11.2932
▁2841	-11.2932
▁4022	-11.2932
▁2343	-11.2932
▁1741	-11.2932
▁2522	-11.2932
▁1522	-11.2932
▁3022	-11.2933
▁2941	-11.2933
▁3641	-11.2933
▁2641	-11.2933
une	-11.2934
▁3631	-11.2934
▁3723	-11.2934
▁3731	-11.2934
▁Brit	-11.2934
▁2631	-11.2934
▁2723	-11.2934
▁2731	-11.2934
▁3831	-11.2935
▁1841	-11.2935
▁2823	-11.2935
▁2831	-11.2935
▁Ġurge	-11.2935
▁1723	-11.2936
▁1731	-11.2936
▁3923	-11.2936
▁1641	-11.2936
▁2041	-11.2936
▁2923	-11.2936
▁2931	-11.2936
▁Ġtranslat	-11.2936
▁4622	-11.2936
▁2623	-11.2937
▁4722	-11.2937
▁1631	-11.2937
ouse	-11.2937
▁3622	-11.2937
▁4822	-11.2937
▁1823	-11.2938
▁3822	-11.2938
▁1831	-11.2938
▁4922	-11.2938
▁1623	-11.2939
▁Ġdivid	-11.294
▁Ġseiz	-11.2941
▁2031	-11.2942
▁3722	-11.2942
▁2622	-11.2942
▁2722	-11.2942
▁ĠModer	-11.2942
▁ĠCoin	-11.2942
▁2822	-11.2943
▁1722	-11.2943
▁3922	-11.2943
▁2922	-11.2944
▁1622	-11.2944
▁4511	-11.2945
bar	-11.2945
actic	-11.2945
▁Ġedge	-11.2945
▁3511	-11.2945
▁1822	-11.2946
▁Ġresembl	-11.2948
▁2511	-11.2949
▁1511	-11.2949
▁asion	-11.2949
▁Ġloot	-11.2949
▁1014	-11.2951
▁4011	-11.2951
▁3011	-11.2951
emporar	-11.2952
▁4711	-11.2952
▁4521	-11.2953
▁4611	-11.2953
▁4811	-11.2953
▁ĠGi	-11.2954
▁3811	-11.2954
▁ĠFerr	-11.2956
▁3711	-11.2957
▁2711	-11.2958
▁3521	-11.2958
▁3611	-11.2958
▁2611	-11.2958
▁ĠWay	-11.2958
▁1013	-11.2959
▁ĠCast	-11.2959
▁2811	-11.2959
▁1711	-11.2959
▁1611	-11.2961
▁2521	-11.2961
▁1521	-11.2961
▁1811	-11.2962
▁ĠDres	-11.2963
▁4021	-11.2963
▁3021	-11.2963
▁ĠIntern	-11.2965
▁Ġant	-11.2965
key	-11.2966
▁ĠGun	-11.2966
▁ĠBlaz	-11.2966
dict	-11.2967
▁4621	-11.2967
▁4721	-11.2967
▁4144	-11.2968
▁3621	-11.2968
MA	-11.2968
▁1012	-11.2968
▁4821	-11.2968
▁4911	-11.2968
▁ĠMagic	-11.2968
▁Ġbene	-11.2969
▁3821	-11.2969
▁3911	-11.2969
▁3144	-11.2969
▁4921	-11.2969
▁1944	-11.297
▁Ġenvironmental	-11.297
▁2144	-11.2971
▁Ġcoin	-11.2972
▁3721	-11.2973
▁2621	-11.2973
▁2721	-11.2973
▁Ġarise	-11.2973
▁2821	-11.2974
▁2911	-11.2974
▁Ġarter	-11.2974
▁1721	-11.2974
▁3921	-11.2974
▁1943	-11.2975
▁äo	-11.2975
▁2921	-11.2975
▁Ġspecializ	-11.2975
▁1621	-11.2975
▁1144	-11.2976
▁Ġlist	-11.2976
▁1821	-11.2976
▁Ġclassic	-11.2978
▁Ġideal	-11.298
KK	-11.2981
CA	-11.2982
arget	-11.2982
▁open	-11.2983
▁Ġpars	-11.2983
ters	-11.2985
▁4434	-11.2986
▁Ġimpress	-11.2987
▁UL	-11.2987
▁3434	-11.2988
▁ĠRou	-11.2989
▁Ass	-11.2989
▁2434	-11.2989
▁Ġcome	-11.299
▁1434	-11.299
▁Ġcoat	-11.299
▁Ġhous	-11.2991
▁2023	-11.2994
▁4442	-11.2994
▁4134	-11.2995
▁3442	-11.2995
▁3134	-11.2996
▁2442	-11.2997
▁2134	-11.2998
▁1442	-11.2998
▁idd	-11.3
▁1011	-11.3
▁Ġward	-11.3
▁4334	-11.3001
▁4234	-11.3001
▁Ġfram	-11.3001
▁4142	-11.3002
▁1134	-11.3002
▁3234	-11.3002
▁3142	-11.3003
▁4342	-11.3004
▁1334	-11.3005
▁2142	-11.3005
▁2234	-11.3006
▁4133	-11.3006
▁4501	-11.3007
▁4132	-11.3007
▁ĠGlo	-11.3007
▁1234	-11.3007
▁3133	-11.3008
▁Ġrealiz	-11.3008
▁3132	-11.3008
▁3501	-11.3008
▁4242	-11.3008
▁ĠAc	-11.3009
▁Ġcas	-11.3009
▁1142	-11.3009
▁2133	-11.3009
▁2334	-11.3009
▁2132	-11.301
▁3242	-11.301
▁4433	-11.3011
▁4432	-11.3012
▁3342	-11.3012
▁4332	-11.3013
▁4233	-11.3013
▁1023	-11.3013
▁3433	-11.3013
▁4232	-11.3013
▁1342	-11.3013
▁3432	-11.3013
▁Ġvalid	-11.3013
▁2242	-11.3013
▁4114	-11.3014
▁1133	-11.3014
▁3233	-11.3014
▁1132	-11.3014
▁1242	-11.3014
▁3232	-11.3014
▁2433	-11.3014
▁2432	-11.3015
▁4414	-11.3015
▁3114	-11.3015
▁1433	-11.3015
▁1432	-11.3015
▁4314	-11.3016
▁ĠGaz	-11.3016
▁1332	-11.3016
▁2114	-11.3017
han	-11.3017
▁2233	-11.3018
▁ade	-11.3018
▁2342	-11.3018
aving	-11.3018
▁2232	-11.3018
▁1233	-11.3018
▁1934	-11.3019
▁1232	-11.3019
▁4441	-11.3019
▁3441	-11.302
▁4214	-11.3021
NC	-11.3021
▁4113	-11.3021
▁2332	-11.3021
▁3414	-11.3021
▁3214	-11.3022
▁1022	-11.3022
▁2441	-11.3022
▁4413	-11.3022
▁3113	-11.3022
▁Ġconvinc	-11.3022
▁4431	-11.3023
▁1441	-11.3023
▁2414	-11.3023
▁4313	-11.3024
▁1414	-11.3024
▁3431	-11.3024
▁2113	-11.3024
▁3314	-11.3025
▁1314	-11.3025
▁4333	-11.3026
▁2431	-11.3026
▁2214	-11.3026
▁Ġoptic	-11.3026
▁1431	-11.3026
▁4112	-11.3026
▁1214	-11.3026
▁4141	-11.3027
▁4412	-11.3027
▁3112	-11.3028
▁4213	-11.3028
▁4124	-11.3028
▁3141	-11.3028
▁3413	-11.3029
▁4312	-11.3029
▁4424	-11.3029
▁4341	-11.3029
▁2112	-11.3029
▁3213	-11.3029
▁3124	-11.3029
▁1333	-11.3029
▁Ġinquir	-11.3029
▁2141	-11.303
▁2314	-11.303
▁Ġbab	-11.303
▁2413	-11.303
▁Ġrug	-11.303
▁1413	-11.3031
rift	-11.3031
▁4131	-11.3031
▁2124	-11.3031
▁1933	-11.3032
▁3313	-11.3032
▁3131	-11.3032
▁1313	-11.3032
▁ĠDemocrat	-11.3033
▁2213	-11.3033
▁4212	-11.3033
▁4241	-11.3033
▁bit	-11.3034
▁1213	-11.3034
▁3412	-11.3034
▁Ġauthentic	-11.3034
▁2131	-11.3034
▁1141	-11.3034
▁2333	-11.3034
▁1932	-11.3035
▁3212	-11.3035
▁3241	-11.3035
▁4224	-11.3035
▁3424	-11.3035
▁1124	-11.3035
▁4324	-11.3036
▁Ġdegrad	-11.3036
▁2412	-11.3036
▁4123	-11.3036
▁3224	-11.3036
▁1412	-11.3036
▁4423	-11.3037
▁4331	-11.3037
▁2424	-11.3037
▁3123	-11.3037
▁3312	-11.3037
▁4231	-11.3037
▁3341	-11.3037
▁2313	-11.3037
▁1424	-11.3038
▁1312	-11.3038
▁1341	-11.3038
▁ĠJuda	-11.3038
▁raz	-11.3038
▁2212	-11.3038
▁2241	-11.3038
▁1131	-11.3038
▁3231	-11.3039
ches	-11.3039
▁ĠRequire	-11.3039
▁3324	-11.3039
▁1212	-11.3039
▁1241	-11.3039
▁1914	-11.3039
▁2123	-11.3039
▁1324	-11.3039
▁2224	-11.304
▁4122	-11.304
▁1224	-11.304
▁4422	-11.3041
▁1331	-11.3041
▁ĠCorn	-11.3041
▁3122	-11.3041
▁2231	-11.3042
▁4223	-11.3043
▁2312	-11.3043
▁2341	-11.3043
▁Len	-11.3043
▁2122	-11.3043
▁aku	-11.3043
▁1231	-11.3043
▁3423	-11.3043
▁1123	-11.3043
▁3334	-11.3043
▁4323	-11.3043
▁3223	-11.3044
▁ĠPersonal	-11.3044
▁2324	-11.3044
▁2423	-11.3045
▁ĠDia	-11.3045
▁1423	-11.3046
▁2331	-11.3046
lastic	-11.3046
▁ENC	-11.3046
▁4222	-11.3046
▁1913	-11.3047
▁3323	-11.3047
tious	-11.3047
▁3422	-11.3047
▁1122	-11.3047
▁1323	-11.3047
▁4322	-11.3047
▁2223	-11.3048
▁3222	-11.3048
▁Ġcheat	-11.3048
▁1223	-11.3048
▁ĠAle	-11.3049
▁2422	-11.3049
▁1422	-11.3049
▁ĠDay	-11.305
▁gar	-11.305
▁2024	-11.305
▁Ġclip	-11.305
▁Ġfunctional	-11.305
▁3322	-11.3051
onkey	-11.3051
▁1322	-11.3051
▁2222	-11.3051
▁1222	-11.3052
▁2323	-11.3052
▁Ġlay	-11.3053
▁1021	-11.3053
▁ĠLyn	-11.3053
▁4411	-11.3054
▁ĠAll	-11.3055
▁Ġloose	-11.3055
▁3332	-11.3055
▁4311	-11.3056
▁2322	-11.3056
▁1912	-11.3056
▁2501	-11.3057
▁Ġblue	-11.3059
▁Ġimped	-11.3059
▁ĠObject	-11.306
▁4211	-11.306
▁1114	-11.306
▁Ġki	-11.3061
▁3411	-11.3061
▁ĠActiv	-11.3061
▁ĠRams	-11.3061
▁1501	-11.3061
▁3211	-11.3061
match	-11.3062
▁2411	-11.3063
▁1411	-11.3063
▁2022	-11.3063
▁1931	-11.3064
▁3311	-11.3064
▁1311	-11.3065
▁2211	-11.3065
▁ĠPrince	-11.3065
▁4121	-11.3066
▁1211	-11.3066
▁4421	-11.3066
▁ĠBarbar	-11.3067
▁4111	-11.3067
▁3121	-11.3067
▁1113	-11.3068
▁3111	-11.3068
▁2121	-11.3069
▁2311	-11.307
▁2111	-11.307
▁Ġplate	-11.307
▁ĠPaint	-11.307
▁power	-11.307
▁1942	-11.3071
▁4221	-11.3072
▁1121	-11.3073
▁3421	-11.3073
▁1112	-11.3073
▁4321	-11.3073
▁3221	-11.3074
▁2421	-11.3075
rom	-11.3075
▁1421	-11.3075
▁3321	-11.3076
▁Ġflare	-11.3077
▁1321	-11.3077
▁2221	-11.3077
▁ĠMoon	-11.3078
▁1221	-11.3078
▁ĠRud	-11.3079
▁3331	-11.308
▁ĠTen	-11.308
▁2321	-11.3082
▁Ġfabric	-11.3082
TOR	-11.3084
▁ĠPresident	-11.3085
▁Ġni	-11.3085
PN	-11.3088
▁ĠRule	-11.309
▁Ġpleas	-11.3092
▁Ġdefect	-11.3093
▁2021	-11.3094
▁Man	-11.3095
▁Ġoriginal	-11.3097
▁1924	-11.3097
▁1941	-11.3101
▁ĠRec	-11.3101
▁1911	-11.3102
▁1923	-11.3105
▁Ġretriev	-11.3106
ered	-11.3108
erman	-11.3108
▁Part	-11.311
physical	-11.311
▁aken	-11.3111
▁Ġhast	-11.3111
▁US	-11.3113
▁ĠLock	-11.3113
▁Ġendors	-11.3113
▁1922	-11.3113
BS	-11.3116
▁Ġtablet	-11.3117
▁Ġarrang	-11.3117
▁ĠVega	-11.3118
▁Ġcarb	-11.312
ounge	-11.312
▁Ġlov	-11.3121
▁ĠBenn	-11.3124
▁Ġrefus	-11.3124
uce	-11.313
▁ĠStor	-11.313
▁Ġsubsid	-11.313
▁Ġmake	-11.3132
▁Ġpan	-11.3133
MAG	-11.3135
▁aint	-11.3138
▁Ġhalt	-11.314
▁Ġdel	-11.3141
▁Ġtermin	-11.3141
▁ĠBern	-11.3142
▁zi	-11.3142
▁ĠWho	-11.3143
▁1921	-11.3143
▁ĠSara	-11.3144
▁ĠSU	-11.3144
▁.)	-11.3147
▁Ġjam	-11.3149
▁Ġdwar	-11.3149
▁ĠMill	-11.3151
lla	-11.316
▁Ġsee	-11.3161
▁Creat	-11.3165
irrel	-11.3166
▁Ġweight	-11.3171
▁ĠEmer	-11.3171
titude	-11.3174
ouble	-11.3175
▁Ġembryo	-11.3176
▁bu	-11.3177
▁Engine	-11.3181
▁Ġalien	-11.319
ud	-11.3191
▁ĸ	-11.3192
▁Ġge	-11.3192
▁ĠLak	-11.3193
▁Ġdiplomat	-11.3196
▁Ġtell	-11.3197
▁Ġrev	-11.3198
▁Ġbest	-11.3198
exit	-11.3202
▁ĠXu	-11.3207
▁ĠWell	-11.321
▁Sam	-11.3213
▁Count	-11.3213
▁Ġmarginal	-11.3214
▁Ġterr	-11.3216
▁Effect	-11.3216
national	-11.3218
▁Ġlegaliz	-11.3219
ened	-11.322
▁Ġquantit	-11.3225
▁gha	-11.3227
▁ĠAw	-11.3229
▁po	-11.3229
▁Ġfatal	-11.3229
▁ĠSO	-11.3232
▁No	-11.3234
▁ĠSyn	-11.3236
▁Ġexamine	-11.3237
▁Ġseed	-11.3244
iquid	-11.3244
lyn	-11.3245
▁Ġhope	-11.3246
▁Ġplac	-11.3249
▁ĠAnth	-11.3252
▁Ġsettle	-11.3253
▁Ġtear	-11.3254
look	-11.3256
ks	-11.3256
▁ile	-11.3257
▁ĠHim	-11.3258
▁Ġoil	-11.3258
▁Ġentit	-11.3262
▁,'	-11.3263
▁za	-11.3263
▁ĠRay	-11.3266
▁ĠCath	-11.3267
▁Ġpresident	-11.3269
▁Ġmanipulat	-11.3269
▁ential	-11.3272
▁product	-11.3272
ortion	-11.3276
▁ĠTempl	-11.3278
▁ĠPul	-11.3279
▁Ġterm	-11.328
▁Ġwip	-11.3284
▁Ġunsu	-11.3286
▁omet	-11.3289
▁Ġlicens	-11.329
▁ĠHER	-11.3294
cut	-11.3295
▁light	-11.3295
election	-11.3298
▁place	-11.33
spread	-11.3301
▁ĠPad	-11.3301
▁ĠNation	-11.3302
▁ĠMaz	-11.3304
ric	-11.3307
▁arth	-11.3308
▁fort	-11.3311
▁Ġsay	-11.3311
▁Ġbell	-11.3313
mund	-11.3315
▁Ġlegal	-11.332
▁Ġerupt	-11.3331
▁anni	-11.3333
▁Ġyea	-11.3336
▁ĠGab	-11.3337
ost	-11.3344
▁av	-11.3345
▁ĠLot	-11.3346
▁May	-11.335
▁box	-11.3352
ebra	-11.3352
▁Ġrot	-11.3355
▁action	-11.3356
▁Vari	-11.3367
▁ĠBea	-11.3367
▁eng	-11.3369
▁bec	-11.3369
▁ĠShir	-11.337
▁Ġcame	-11.3374
▁ĠJon	-11.3374
▁Ġtrad	-11.3377
▁Ġendur	-11.338
▁Ġkid	-11.3381
ead	-11.3382
▁ĠKor	-11.3387
▁ĠVers	-11.3391
▁ĠOne	-11.3392
▁Min	-11.3392
▁Ġcoff	-11.3392
▁We	-11.3395
▁Ġjur	-11.3397
▁Ġye	-11.3399
▁Ġhur	-11.3403
ODU	-11.3405
▁Ġorgan	-11.3408
▁Ġaffirm	-11.3408
shine	-11.341
▁Ġhas	-11.341
▁igs	-11.3415
▁yr	-11.3415
▁ĠGate	-11.3417
▁ĠMig	-11.342
▁Ġador	-11.342
▁844	-11.3421
▁Ġauthoriz	-11.3423
▁Ġbeh	-11.3423
▁ĠPik	-11.3425
▁ET	-11.3425
▁ethe	-11.3426
any	-11.3426
▁843	-11.3426
▁ĠMore	-11.3428
▁ara	-11.343
▁Dam	-11.3431
▁Ġvo	-11.3432
ranch	-11.3433
▁ĠNex	-11.3434
▁zy	-11.3434
▁Go	-11.3434
▁Ġboot	-11.3438
▁ĠAshe	-11.3438
▁Ġplat	-11.3439
▁Ġdebt	-11.3441
voc	-11.3443
▁Ń	-11.3447
▁ĠHug	-11.3448
▁alt	-11.3451
ify	-11.3451
▁ob	-11.3452
▁wh	-11.3452
▁Ġcoal	-11.3452
//	-11.3453
▁ĠFree	-11.3454
▁ĠLiter	-11.3456
▁ĠAur	-11.3462
hind	-11.3462
▁Ġeva	-11.3465
mber	-11.3466
▁Support	-11.3466
away	-11.3469
ierre	-11.3469
▁atch	-11.3469
▁Ġabus	-11.3471
▁944	-11.3471
▁943	-11.3476
tenant	-11.3478
▁Ġlur	-11.3479
CD	-11.3479
▁Ġrec	-11.3479
()	-11.3482
▁rict	-11.3482
▁erg	-11.3483
▁hett	-11.3484
▁Ar	-11.3484
▁ĠBund	-11.3484
▁Ġphenomen	-11.3485
▁ĠMen	-11.3485
▁KE	-11.3487
▁Ġliv	-11.3496
DA	-11.3497
mo	-11.3497
▁ĠNeuro	-11.3497
▁ĠJohns	-11.3497
▁Ġshel	-11.3499
▁Ġerect	-11.35
▁Ġdelic	-11.35
morph	-11.35
emic	-11.3501
▁ĠHua	-11.3505
▁Ġnurse	-11.3508
DP	-11.3512
▁934	-11.3515
▁Ġtou	-11.3516
▁842	-11.3518
▁ĠPeg	-11.3519
arson	-11.3523
errill	-11.3525
▁933	-11.3528
nge	-11.353
▁932	-11.3533
cept	-11.3534
lake	-11.3535
▁xi	-11.3535
▁Ġproblem	-11.3538
▁ONE	-11.3539
▁etic	-11.354
▁drop	-11.3541
▁ĠCare	-11.3541
▁834	-11.3543
▁some	-11.3544
ondon	-11.3545
▁da	-11.3545
▁qu	-11.3546
▁rang	-11.3547
ascar	-11.3548
▁841	-11.355
▁ĠMann	-11.355
▁ĠWis	-11.3551
▁Ġcris	-11.3554
zzle	-11.3557
▁Ġprophet	-11.3558
▁Ġpal	-11.3559
▁814	-11.356
▁832	-11.3561
▁ĠPolitic	-11.3563
▁931	-11.3564
▁813	-11.3568
▁942	-11.3568
▁ĠSant	-11.3568
▁Ġmi	-11.3568
▁ve	-11.357
▁Ġstrateg	-11.3571
▁Ġdeni	-11.3572
▁Ġrepl	-11.3572
▁2043	-11.3574
▁Ġdrum	-11.3575
▁Ġuncon	-11.3577
▁824	-11.3577
▁itter	-11.3578
▁812	-11.3578
▁fire	-11.3581
▁Ġoxid	-11.3581
bound	-11.3585
▁Ġpub	-11.3586
▁823	-11.3586
▁amin	-11.3586
▁744	-11.3587
aj	-11.3587
▁924	-11.3589
▁ĠFinal	-11.359
▁Ġnu	-11.359
▁743	-11.3592
▁831	-11.3593
▁rain	-11.3594
▁Dur	-11.3594
▁822	-11.3595
▁RA	-11.3597
▁Ġintoler	-11.3598
▁Ġassure	-11.3598
▁923	-11.3599
▁941	-11.36
▁Ġfade	-11.3603
hips	-11.3603
▁ĠNH	-11.3604
▁Ġgram	-11.3607
oku	-11.3607
▁922	-11.3607
ique	-11.3608
▁ilt	-11.3609
▁ĠCass	-11.3609
ano	-11.3612
▁811	-11.3613
▁ĠRei	-11.3613
▁Q	-11.3615
▁IE	-11.3616
▁Ġpolic	-11.3616
▁Ġtheolog	-11.3618
▁634	-11.3619
▁ĠMiner	-11.3619
▁ĠSpot	-11.3622
▁ĠEsp	-11.3624
▁Ġwhi	-11.3625
▁Ġcentral	-11.3626
▁man	-11.3627
▁va	-11.3627
▁ask	-11.3628
▁821	-11.3628
▁734	-11.3632
▁633	-11.3632
▁632	-11.3636
▁itive	-11.3637
zone	-11.3639
▁921	-11.364
▁Ġintens	-11.3644
▁ĠTit	-11.3645
▁Ġsmuggl	-11.3646
▁Ġcort	-11.3647
▁ĠCind	-11.3649
▁Com	-11.3649
▁732	-11.3649
▁914	-11.3649
▁ĠRA	-11.3654
▁to	-11.3656
mort	-11.3658
▁913	-11.3658
▁ĠMat	-11.3659
▁ĠBM	-11.3659
▁je	-11.3659
▁Ġve	-11.3662
▁ĠSpecific	-11.3664
▁631	-11.3667
pload	-11.3668
▁912	-11.3668
▁Ġja	-11.3669
▁yl	-11.3671
▁Ġnormal	-11.3672
▁ĠJak	-11.3675
▁Ġcooperat	-11.3677
▁731	-11.3681
hi	-11.3681
))	-11.3683
▁ĠGuide	-11.3683
▁742	-11.3684
▁Ġdeduct	-11.3686
▁gin	-11.3687
▁atic	-11.3688
▁Ġjun	-11.3689
▁ĠHan	-11.3691
bab	-11.3692
▁Ġmicrobi	-11.3692
ike	-11.3695
▁ĠLim	-11.3696
agger	-11.3698
▁ĠRed	-11.3699
▁Ġstarv	-11.37
ication	-11.3701
▁iling	-11.3702
▁Ġhumanit	-11.3704
▁ĠCON	-11.3713
AG	-11.3714
nonymous	-11.3716
▁741	-11.3717
▁ĠOd	-11.3719
▁Ġappropriate	-11.3723
▁Ġfascinat	-11.3723
▁Ġsell	-11.3723
▁ĠJi	-11.3724
vel	-11.3727
▁ĠNE	-11.373
▁phi	-11.3731
▁Ġclo	-11.3732
▁ĠWarn	-11.3734
che	-11.3736
▁aza	-11.3738
▁ĠFif	-11.3739
▁Ġoverc	-11.374
oxy	-11.3743
▁724	-11.3744
▁ģ	-11.3744
XT	-11.3744
▁ĠLIN	-11.3745
▁ĠGoth	-11.3746
▁abe	-11.3748
▁Ġmang	-11.3751
▁723	-11.3753
▁Ġvot	-11.3753
▁Work	-11.3754
▁Ġparam	-11.3756
eval	-11.3759
▁722	-11.3762
▁DO	-11.3769
▁ĠSing	-11.3769
▁Ġmitigat	-11.3769
raged	-11.377
▁bo	-11.3772
▁asur	-11.3773
▁ension	-11.3777
ample	-11.3777
▁711	-11.3778
ont	-11.378
▁ans	-11.3783
▁Ġsem	-11.3785
▁ĠKer	-11.3785
system	-11.3786
▁Ġcode	-11.3788
▁ĠLow	-11.3788
▁ĠPal	-11.3789
asy	-11.3791
▁Ġgas	-11.3791
▁Stud	-11.3794
▁Ġclue	-11.3795
▁721	-11.3795
▁Ear	-11.3796
▁Ġscene	-11.3796
▁ĠPC	-11.3797
▁ĠHans	-11.3799
inger	-11.3801
▁Ġash	-11.3802
▁ization	-11.3805
▁Ġglor	-11.3806
▁Ġze	-11.3806
▁Do	-11.3807
▁ister	-11.3808
▁Ġactiv	-11.3808
tine	-11.381
▁Ġhate	-11.3813
▁ix	-11.3814
▁Ġinde	-11.3816
▁Ġinnoc	-11.3821
▁board	-11.3822
band	-11.3823
▁Ġem	-11.3823
▁Ġampl	-11.3826
▁Ġveget	-11.3828
rack	-11.3829
olet	-11.3833
▁Ġinvestigat	-11.3839
▁ĠHear	-11.3842
ifferent	-11.3844
▁Ġneglig	-11.3844
▁Ġsurprise	-11.3845
▁Ġincrease	-11.3845
▁624	-11.3846
▁col	-11.3848
▁Ġsou	-11.3849
▁Ġcondo	-11.3852
llow	-11.3852
▁ĠSay	-11.3853
▁ĠLand	-11.3855
cill	-11.3858
▁ĠLuci	-11.3864
▁622	-11.3865
shell	-11.3873
late	-11.3874
▁mitt	-11.3877
▁ĠEconom	-11.3879
▁Ġpopul	-11.3885
▁Ġax	-11.3886
▁ĠCand	-11.3893
▁ime	-11.3896
▁621	-11.3898
▁Ġfunn	-11.39
▁ĠCoul	-11.3909
▁agon	-11.3912
▁Stor	-11.3913
▁enn	-11.3914
▁amar	-11.3914
▁Ġendo	-11.3914
tom	-11.3915
▁Ġtype	-11.3915
▁Ġident	-11.3915
burg	-11.3917
▁611	-11.3921
▁¶	-11.3927
▁Ġfitt	-11.3928
▁iff	-11.3929
▁ĠHA	-11.3931
▁--	-11.3935
▁ine	-11.3936
▁":"	-11.3939
▁Ġpanc	-11.3941
ank	-11.3943
attle	-11.3945
har	-11.3945
ape	-11.3946
▁ĠSy	-11.3946
▁ĠAli	-11.3955
▁pper	-11.3956
▁Ġsing	-11.3962
ected	-11.3964
▁ĠDud	-11.3965
▁Ġshake	-11.3965
▁Ġgrav	-11.3966
demon	-11.3968
▁Ġwhe	-11.3968
▁Ġvet	-11.397
▁Ġmyster	-11.3976
▁ĠPai	-11.3977
▁ATE	-11.3981
▁ĠEc	-11.3982
▁Ġcache	-11.3982
▁ĠEth	-11.3986
▁ĠThere	-11.3989
▁Ġcab	-11.3992
EE	-11.3994
▁Ġimage	-11.3995
▁Ġnin	-11.3995
▁alog	-11.3996
▁Ġsubt	-11.3998
▁Ġeat	-11.3998
▁Ġutilit	-11.4003
arriage	-11.4006
▁miss	-11.4009
▁ek	-11.4014
▁amb	-11.4015
ebug	-11.4016
▁Ġtire	-11.4024
▁ower	-11.4026
▁POS	-11.4028
▁ĠMod	-11.4028
▁Ġhumili	-11.403
ERS	-11.4031
▁Ġcharge	-11.4032
▁Ġsiz	-11.4034
▁ĠBai	-11.4036
▁idi	-11.4036
▁ĠCance	-11.4039
▁Ġsid	-11.4042
▁ĠPhil	-11.4043
▁arg	-11.4044
form	-11.4044
▁ĠEffect	-11.4045
▁ĠFlor	-11.4046
▁ĠGH	-11.4049
▁ĠHast	-11.405
lime	-11.4056
▁Ġpri	-11.4058
▁EG	-11.4059
cultural	-11.4068
▁Ġdece	-11.4069
▁Ġfol	-11.407
lip	-11.4074
ifi	-11.4075
wig	-11.4076
▁Ġsalt	-11.4076
▁Ī	-11.4078
▁Ġsalv	-11.4078
▁Ġconstitute	-11.4081
wood	-11.4083
▁Ġmay	-11.4083
▁ĠMedic	-11.4083
▁Conn	-11.4085
▁olve	-11.4092
▁Ġcor	-11.4094
owing	-11.4096
▁Ġvent	-11.4097
MI	-11.4098
▁ĠGener	-11.4099
▁Ġelev	-11.4102
▁LO	-11.4102
▁Ġaudit	-11.4103
▁ĠDy	-11.4105
▁Ġresident	-11.4107
▁Ġsend	-11.4107
▁Ġunit	-11.4108
OC	-11.4108
▁Ġcrate	-11.4112
rpent	-11.4114
▁Ġpav	-11.4115
▁ĠCour	-11.4118
hy	-11.4119
▁Ġeliminat	-11.4121
▁Ġcorrelate	-11.4123
▁Ġeconom	-11.4127
uk	-11.4133
▁Ġhair	-11.4134
▁Ġthro	-11.4135
argo	-11.4137
▁ĠAv	-11.414
▁).	-11.4145
PE	-11.4146
▁Ġappar	-11.4147
▁Ġsla	-11.4147
ump	-11.4154
▁Ġspr	-11.4156
▁Wh	-11.4158
▁ĠCase	-11.4158
▁ĠKind	-11.4159
▁Ġpond	-11.4159
▁Ġfift	-11.4161
▁Ġassociate	-11.4162
▁Ch	-11.4164
▁Ġthin	-11.4166
▁cut	-11.4174
AW	-11.4179
▁Ġsixt	-11.418
▁awa	-11.4181
mix	-11.4184
focused	-11.4185
ime	-11.4187
▁..	-11.419
NT	-11.419
▁ĠOvers	-11.419
avage	-11.4191
wan	-11.4193
▁ĠPh	-11.4195
▁ĠCald	-11.4196
▁ĠZer	-11.4196
▁Ġero	-11.4196
▁543	-11.4198
▁Ġham	-11.4204
annon	-11.421
▁?"	-11.4215
▁Ġbend	-11.4216
▁El	-11.4223
▁ĠSai	-11.4224
▁Ġsho	-11.4226
▁ĠAlb	-11.423
▁ĠBott	-11.4231
▁ram	-11.4235
▁ander	-11.4235
▁ĠSee	-11.4245
▁oni	-11.4249
▁Ġfine	-11.4252
▁Ġpreserv	-11.4253
▁ĠDH	-11.4253
▁Ġquar	-11.4257
▁ĠArc	-11.4259
ris	-11.4262
▁ĠTenn	-11.4267
▁est	-11.4272
▁exist	-11.4274
MENT	-11.4274
▁friend	-11.4276
▁Ġbusiness	-11.4278
BO	-11.4278
▁ĠRevis	-11.4279
▁534	-11.4285
▁Ġnotice	-11.4286
UI	-11.4288
▁ĠHog	-11.4288
▁Dis	-11.4288
▁Ġapolog	-11.429
▁ĠMah	-11.429
ego	-11.4291
▁Ġcontrovers	-11.4291
▁lev	-11.4295
▁542	-11.4297
▁532	-11.4301
▁ĠStud	-11.431
▁ĠJess	-11.431
▁Ġceremon	-11.4312
▁Ġintern	-11.4315
▁ĠSen	-11.4317
▁Ġcharit	-11.4318
▁ĠFIR	-11.432
▁ĠFactor	-11.4323
▁":	-11.4323
escription	-11.4324
▁541	-11.4327
orts	-11.4329
phere	-11.433
▁531	-11.4331
OO	-11.4337
▁Ġscan	-11.434
▁ĠFriend	-11.434
▁Ġwast	-11.4341
▁Ġwr	-11.4342
▁ĠKurd	-11.4342
▁oph	-11.4343
▁Ġquit	-11.4347
▁Ġhistor	-11.4348
▁Ġshutt	-11.435
▁ate	-11.4352
▁Ġdictate	-11.4353
▁Ġspec	-11.4359
ERR	-11.4363
ears	-11.4366
▁ĠEmb	-11.4372
AMA	-11.4379
▁Ġindicat	-11.4381
opy	-11.4383
▁Ġidentifi	-11.4385
▁ĠLL	-11.4389
▁Mu	-11.4389
▁ĠExtra	-11.4389
▁Ġpron	-11.4391
nb	-11.4391
▁ĠMini	-11.4392
▁ĠJuli	-11.4392
▁oma	-11.4393
▁list	-11.4396
▁ĠMS	-11.4399
▁Ġcapt	-11.4401
▁ĠEarl	-11.4402
▁ĠDrac	-11.4402
▁Ġspan	-11.4402
▁do	-11.4406
▁Ġvic	-11.4406
▁Ġwave	-11.4409
▁Ġprove	-11.4411
FA	-11.4412
hing	-11.4415
▁IDE	-11.4422
▁wo	-11.4423
▁Ġcav	-11.4424
▁Ġdispatch	-11.4429
▁Ġgener	-11.4429
▁ĠSki	-11.4431
▁ĠUser	-11.4431
▁Ġlitera	-11.4432
▁¥	-11.4437
▁Ġfreeze	-11.4438
▁chi	-11.4441
▁WH	-11.4445
▁alla	-11.4446
▁Ġprox	-11.4447
▁521	-11.4449
mage	-11.4449
▁Ġbout	-11.4449
▁Marc	-11.445
▁ĠSalv	-11.445
▁INT	-11.445
▁eral	-11.4454
kg	-11.4464
lem	-11.4466
▁Review	-11.4472
bs	-11.4472
▁ĠTreat	-11.4475
▁Nin	-11.4476
▁ĠNB	-11.4476
▁ansk	-11.4478
▁Ġtreasure	-11.4478
▁Ġag	-11.4489
▁Off	-11.449
nal	-11.4501
▁ĠJur	-11.4505
▁ĠGen	-11.4505
▁ĠMemor	-11.4506
▁Mad	-11.4511
omb	-11.4511
▁insk	-11.4511
▁Ġscen	-11.4513
▁Ġpel	-11.4517
▁leg	-11.4519
▁Ġuser	-11.452
▁Ġgor	-11.4522
▁ĠBI	-11.4523
▁Ġhypothes	-11.4526
▁ĠTam	-11.4527
▁lect	-11.4528
▁Ġslid	-11.4533
bel	-11.4537
itation	-11.4538
LS	-11.454
▁Ġdelegate	-11.4542
▁ack	-11.4544
▁Ġav	-11.4546
▁Ġdy	-11.4547
vana	-11.4547
ivers	-11.4547
▁ĠDA	-11.4549
▁claim	-11.4549
▁ĠDub	-11.4552
▁Ġhike	-11.4553
▁ĠKur	-11.4557
▁ora	-11.456
▁aga	-11.4563
iation	-11.4564
▁ĠIdent	-11.4568
▁Ġspread	-11.4573
▁SI	-11.4576
▁Ġsense	-11.4577
▁orse	-11.458
▁Ġquer	-11.458
alo	-11.4587
▁ĠBak	-11.459
▁How	-11.4592
▁ĠHat	-11.4592
▁ĠAssociate	-11.4593
▁ĠGre	-11.4595
iggin	-11.4601
▁Ġcentr	-11.4601
▁ĠPla	-11.4604
▁ĠDM	-11.4605
▁ĠRO	-11.4608
▁ĠNep	-11.4614
▁ĠYo	-11.4615
▁Ġraise	-11.4615
▁ĠCann	-11.4616
▁Ġexpire	-11.4619
▁ĠMart	-11.462
ctor	-11.4625
▁Ġspur	-11.4626
ymph	-11.4628
▁ĠSil	-11.4636
▁Ġpatriot	-11.4637
▁ING	-11.4637
vention	-11.4638
ntry	-11.4639
▁pai	-11.4642
▁Ġhar	-11.4645
▁Ġmap	-11.4647
▁Ġjoke	-11.4649
▁vers	-11.4651
ari	-11.4658
▁Ġenv	-11.466
▁Ġrise	-11.4662
▁face	-11.4666
rich	-11.4667
HP	-11.4669
▁Ġnarrat	-11.467
▁Ġfisher	-11.4673
▁Ġton	-11.4675
lude	-11.4676
▁Ġby	-11.4676
▁Ġacc	-11.4679
▁idate	-11.4679
▁Ġalcohol	-11.4681
eus	-11.4681
▁Ġche	-11.4684
▁Ġte	-11.4692
arry	-11.4695
▁ĠGoo	-11.47
▁Ġsqu	-11.4701
▁ien	-11.4703
▁504	-11.4706
east	-11.4708
aine	-11.4715
ulli	-11.4717
▁Unit	-11.472
scription	-11.4722
▁Ġtwi	-11.4723
▁hem	-11.4725
▁503	-11.4726
▁Ġfri	-11.473
▁ĠFir	-11.4731
ften	-11.4731
▁ĠWea	-11.4739
▁!"	-11.4741
quest	-11.4747
▁Ġfact	-11.4747
ogan	-11.4748
itness	-11.475
pu	-11.4754
▁Ġconserv	-11.4755
neck	-11.4755
▁Pr	-11.4758
lain	-11.476
▁Ġchart	-11.4764
▁Ġhid	-11.4765
dia	-11.4772
lone	-11.4775
▁ĠLion	-11.4778
▁ĠProm	-11.478
▁Ġuphe	-11.4781
▁ari	-11.4785
▁ĠIs	-11.479
▁atur	-11.479
▁ĠRiver	-11.4791
▁ĠTheo	-11.4793
▁ĠCort	-11.4794
▁fl	-11.4795
▁Ġaffiliate	-11.4797
abl	-11.4798
▁dom	-11.4799
▁ĠConn	-11.4799
▁Ġshad	-11.4803
▁Ġcomprise	-11.4803
▁Ġexplode	-11.4807
▁Ġfile	-11.4807
▁ĠVel	-11.4807
▁ĠAla	-11.4812
▁Ġmy	-11.4813
▁ĠAlm	-11.4814
▁Ġdesire	-11.4817
▁atern	-11.4818
▁ĠStam	-11.4818
▁lease	-11.4821
▁ista	-11.4821
▁hol	-11.4822
▁Ġpill	-11.4825
▁ĠLine	-11.4825
▁Ġculture	-11.4827
ceptive	-11.4827
▁Ġvel	-11.4828
▁get	-11.4832
▁usion	-11.4833
▁ica	-11.4835
▁ĠAlv	-11.4835
ridge	-11.4838
▁Ġrid	-11.484
▁Ġdeserve	-11.4841
▁ĠSol	-11.4844
▁Ġovert	-11.4847
▁Ġaccuse	-11.4848
▁ĠLie	-11.4853
▁Ġstore	-11.4854
▁aut	-11.4855
▁Ġwag	-11.4856
fia	-11.4861
▁ĠContinu	-11.4861
▁Ġirritat	-11.4864
▁Ġdemo	-11.4865
▁ĠKas	-11.4869
▁Ġnavigat	-11.4869
▁Ġdevastat	-11.4872
▁Ġsect	-11.4874
▁Ġculminat	-11.4876
▁Ġwrapp	-11.4877
▁ĠHal	-11.4877
▁Ġdeteriorat	-11.4878
▁atar	-11.4883
▁ĠManda	-11.4886
▁Ġear	-11.4886
▁ĠDisc	-11.4889
▁Ġcircle	-11.4897
▁Ġsubstitute	-11.4897
▁Ġgraduat	-11.4897
▁Ġwe	-11.4901
▁Ġsmoke	-11.4902
▁eb	-11.4906
NES	-11.4907
▁ound	-11.4911
▁Ġmanager	-11.4912
▁Ġemerge	-11.4916
▁Ġprovide	-11.4923
▁Ġdot	-11.4924
▁File	-11.4926
lix	-11.4926
▁jur	-11.4927
akes	-11.4929
▁ĠTher	-11.493
▁Ġchi	-11.493
▁Jo	-11.4937
dependent	-11.4941
▁CA	-11.4941
VERS	-11.4943
▁Ġlik	-11.4943
▁Ġdecrease	-11.4948
▁Ġpresid	-11.4948
rief	-11.495
▁ĠArchitect	-11.4953
▁ess	-11.4956
real	-11.4956
▁Ġcollaborat	-11.4958
gular	-11.4966
▁ĠFeder	-11.4969
erfect	-11.4971
▁Ġdebate	-11.4975
ptic	-11.4977
▁Ali	-11.498
▁Ġund	-11.498
awa	-11.498
▁Ġcustomiz	-11.4981
▁Ġemit	-11.4984
▁Ġilluminat	-11.4985
▁ĠSE	-11.4991
▁Ġhire	-11.4992
▁An	-11.4994
▁ĠSN	-11.4995
▁iner	-11.4995
▁ĠInc	-11.4996
▁ĠIG	-11.5
▁Ġinfect	-11.5001
▁Ġaccumulat	-11.5001
▁Ġblame	-11.5002
▁ĠPand	-11.5007
▁Ġissue	-11.5008
▁ĠTowns	-11.5008
▁ĠHamm	-11.5015
▁ĠMit	-11.5015
▁ĠTan	-11.5022
▁ĠTin	-11.5023
▁Ġroof	-11.5025
strate	-11.5027
▁Ġreson	-11.5027
▁ĠJama	-11.5028
ettlement	-11.5035
vor	-11.5035
RS	-11.5037
spect	-11.5038
▁ĠIncrease	-11.5044
▁ĠGD	-11.5047
▁Ġreceive	-11.5053
▁Ġadvocate	-11.5053
▁Hu	-11.5055
▁ĠScar	-11.5056
nburg	-11.5057
▁Ġvalue	-11.5062
aching	-11.5063
▁Ġsmile	-11.5065
▁Ġpromise	-11.5066
▁ĠFul	-11.5067
▁ict	-11.5069
▁ĠUT	-11.5069
▁Ġpenetrat	-11.5071
▁Ġexclude	-11.5072
▁Ġrequire	-11.5075
▁ĠFull	-11.5076
orn	-11.5082
▁WAR	-11.5083
▁olit	-11.5084
▁ĠCris	-11.5084
▁ARD	-11.5085
▁Ġmagn	-11.5088
▁Ġbun	-11.5089
▁lat	-11.509
▁post	-11.5091
▁Ġsecure	-11.5093
▁yle	-11.5096
▁Ġacadem	-11.5098
▁ĠOlymp	-11.5099
lling	-11.51
▁Ġfir	-11.5101
▁Ġepi	-11.5101
▁Ġrange	-11.5102
▁ĠAlic	-11.5107
▁Ġprogramme	-11.511
▁ĠOP	-11.5116
▁Ġclar	-11.5117
▁Ġsubs	-11.5118
▁âĢĶâĢĶâĢĶâĢĶ	-11.5121
▁ĠServ	-11.5123
mma	-11.5124
▁Ġtre	-11.5124
▁Ġcouple	-11.5124
▁Ġhandle	-11.5127
▁Ġcram	-11.5127
▁Ġlos	-11.5131
egal	-11.5133
▁vis	-11.5134
bor	-11.5135
▁TI	-11.5137
▁ino	-11.514
▁So	-11.5142
kay	-11.5143
▁Ġconfus	-11.5145
▁Change	-11.5147
true	-11.5149
▁Ġdouble	-11.515
tin	-11.5151
esis	-11.5151
▁ĠTrop	-11.5151
iden	-11.5153
▁ite	-11.5156
UB	-11.5158
▁ifle	-11.5163
▁ĠFur	-11.5164
▁Ġmanufacture	-11.5174
▁ĠPhysic	-11.5175
▁Ġword	-11.5176
▁Ġpraise	-11.5177
▁umber	-11.518
▁Ġrelease	-11.5181
▁Interest	-11.5183
▁ape	-11.5184
▁Tor	-11.5185
onica	-11.5188
>>	-11.5192
▁Ġpy	-11.5192
▁ĠAN	-11.5193
▁Spe	-11.5193
▁FI	-11.5194
▁Ġformat	-11.52
▁orth	-11.5201
▁uther	-11.5205
▁Ġengage	-11.5207
▁Ġtrou	-11.5207
road	-11.521
▁Ġpuzzle	-11.521
▁ĠAk	-11.5212
▁ĠFort	-11.5216
▁Ġlip	-11.5216
▁odd	-11.5217
▁Ġmeth	-11.5218
▁Ġenhance	-11.5221
▁ĠSas	-11.5223
▁uter	-11.5225
PT	-11.5226
▁ĠPre	-11.5226
ombat	-11.523
▁ax	-11.523
▁Ġstruggle	-11.5234
▁ĠGro	-11.5236
▁Ġescape	-11.5236
▁alo	-11.5237
▁Ġadvance	-11.5239
▁ep	-11.524
▁Ġtackle	-11.524
▁Ġreinforce	-11.5241
:-	-11.5241
▁OP	-11.5245
polit	-11.5246
ssenger	-11.5246
▁ibu	-11.5247
▁ĠTraff	-11.5247
▁Ġevolve	-11.525
▁ĠPlan	-11.5252
▁change	-11.5253
▁Ġupdate	-11.5253
▁Vis	-11.5257
▁ĠRes	-11.526
comfort	-11.5262
wn	-11.5263
▁Am	-11.5266
▁Thom	-11.5266
▁ĠWing	-11.5268
▁Ġresolve	-11.5268
▁het	-11.5269
▁Ġpledge	-11.5272
▁ĠSelect	-11.5272
▁Ġnob	-11.5273
▁Ġincorporat	-11.528
▁ĠMist	-11.5286
▁Ġthr	-11.5286
▁Ġensure	-11.529
▁Ġinflu	-11.5293
▁Not	-11.5295
▁Ġamuse	-11.5299
▁Ġmobil	-11.5302
ensor	-11.5303
▁UC	-11.5307
▁Ġreplace	-11.5307
▁ravi	-11.5308
▁Qu	-11.5309
▁Ġupgrade	-11.5309
▁Ġshape	-11.531
▁bag	-11.5312
▁Ġhit	-11.5317
▁Ġexercise	-11.5318
▁Ġque	-11.5319
▁ĠOm	-11.5319
▁Ġshowcase	-11.5331
▁Ġfar	-11.5332
▁Ġemphasize	-11.5332
▁Ġcapture	-11.5334
▁Ġfeature	-11.5334
▁Ġembrace	-11.5335
▁ĠFeature	-11.5335
▁Ġcompromise	-11.5336
▁Ġfacilitate	-11.5336
▁Ġmandate	-11.5336
▁Ġtransmitt	-11.5337
▁ĠThi	-11.5337
▁gl	-11.5339
▁Ġpackage	-11.5342
▁Ġschedule	-11.5344
▁Ġwelcome	-11.5345
▁Ġfracture	-11.5345
▁Ġexchange	-11.5346
▁Ġsentence	-11.5346
▁ĠDart	-11.5351
rection	-11.5351
▁ĠInclude	-11.5352
▁Ġdecline	-11.5352
▁ama	-11.5353
▁Ġsample	-11.5354
▁Ġdamage	-11.5355
amas	-11.536
▁utic	-11.5361
▁ative	-11.5361
▁ĠFil	-11.5361
▁ĠFed	-11.5363
▁ource	-11.5365
▁Ġdominate	-11.5368
▁Ġbounce	-11.5368
▁Ġsi	-11.5368
▁Ġshame	-11.5369
▁ipe	-11.5371
▁Ġaverage	-11.5371
▁Ġenable	-11.5371
▁ĠAki	-11.5372
▁Ġoutline	-11.5376
▁Ġdiscipline	-11.5376
▁ĠBegin	-11.5376
▁Ġindic	-11.5379
▁ĠNas	-11.5379
▁Ġsource	-11.5379
▁Ġinfluence	-11.538
▁Ġpressure	-11.5381
▁ĠTol	-11.5381
the	-11.5384
▁Ġbalance	-11.5387
▁ĠGuard	-11.5388
▁Ġexperience	-11.5391
▁Ġov	-11.5394
▁AF	-11.5394
itter	-11.5398
mas	-11.5398
▁Ġfinance	-11.5398
SM	-11.5399
cker	-11.54
▁Ġage	-11.54
TY	-11.5401
nife	-11.5401
▁ĠAlexand	-11.5403
▁ĠEri	-11.5404
▁ĠMur	-11.5411
▁Ġconcede	-11.5412
▁enz	-11.5414
lder	-11.5415
▁Ġparticipate	-11.5416
ongo	-11.542
▁ĠHaz	-11.5424
▁Ġalleg	-11.5427
emia	-11.5427
▁ada	-11.5431
▁Ġmut	-11.5431
▁Ġpl	-11.5431
▁res	-11.5431
▁ĠHell	-11.5432
▁word	-11.5434
▁OO	-11.5437
▁Ġinvite	-11.5438
▁ĠBarne	-11.5439
oral	-11.5439
▁zh	-11.5439
▁ĠBren	-11.5441
ds	-11.5442
▁Ġstructure	-11.5443
▁ĠKenn	-11.5445
▁ĠLil	-11.5447
▁Ġanarch	-11.5448
▁ube	-11.5449
▁oter	-11.5454
rge	-11.5454
▁Ġpropag	-11.5456
▁ounce	-11.5456
▁Ġcommit	-11.5457
▁ĠFres	-11.5459
▁Ġneo	-11.5459
torial	-11.546
oll	-11.5461
▁Ġreference	-11.5466
▁ĠFlore	-11.547
▁ca	-11.5472
▁ĠPA	-11.5478
▁ĠMove	-11.548
▁hand	-11.5483
ulu	-11.5485
▁Ġnurs	-11.5486
▁Ġintegrate	-11.5488
▁ock	-11.5489
▁ĠShut	-11.5497
▁ĠSwee	-11.5498
▁ater	-11.5499
AV	-11.5499
▁ĠJohn	-11.5499
▁the	-11.55
▁Ġcurve	-11.5502
▁Ġwise	-11.5503
▁Ġabuse	-11.5505
▁tern	-11.5507
▁CL	-11.5508
wear	-11.5511
▁Ġdance	-11.5512
▁isk	-11.5515
esy	-11.5518
▁interest	-11.5518
▁ier	-11.552
▁Ġstagn	-11.5521
▁ĠUr	-11.5521
ses	-11.5524
▁Ġmad	-11.5526
▁Ġtom	-11.5526
▁itation	-11.5527
▁Ġest	-11.5529
ench	-11.5529
▁ĠFact	-11.553
▁Ġpredic	-11.5534
▁Ġmon	-11.5536
lbert	-11.5543
▁ne	-11.5544
▁uten	-11.5544
▁Cru	-11.5544
▁rec	-11.5545
▁Ġcritic	-11.555
▁Build	-11.5551
▁Ġviolate	-11.5552
ext	-11.5552
▁Lay	-11.5553
▁Ġcelebrate	-11.5554
▁ribute	-11.5554
▁Ġjournal	-11.5556
▁Ġillustrate	-11.5557
▁Ġnice	-11.5558
▁Ġorigin	-11.5562
▁ĠKra	-11.5563
▁Ju	-11.5567
▁Ġlia	-11.5569
▁lv	-11.557
▁Ġwom	-11.5575
▁Ġbal	-11.5577
▁ibli	-11.5585
▁Ġimag	-11.5588
▁anco	-11.5589
DER	-11.5589
▁Ġfreel	-11.5597
▁aha	-11.5597
▁gener	-11.5599
▁ĠHas	-11.5599
▁icon	-11.5599
nis	-11.5602
▁Ġwhen	-11.5603
▁Ti	-11.5605
▁up	-11.5606
fort	-11.5608
▁Ġber	-11.5609
▁ĠWhi	-11.5609
▁ĠExplos	-11.561
▁Ġfur	-11.5611
antic	-11.5616
llar	-11.5616
lus	-11.5617
▁ĠTrip	-11.5618
▁urrenc	-11.5618
cide	-11.5619
▁Ġactivate	-11.562
▁ĠEar	-11.5622
▁Ġinver	-11.5623
▁ĠCD	-11.5623
▁Ġcommunicate	-11.5624
▁Ġlit	-11.5626
▁Ġestimat	-11.5626
▁ĠFail	-11.5628
▁ĠFind	-11.5628
asting	-11.5628
▁Ġevaluate	-11.563
scope	-11.563
▁Foot	-11.5634
▁prim	-11.5635
▁Sh	-11.5636
"/	-11.5638
▁Sal	-11.564
▁wi	-11.5642
▁Ġtempor	-11.5643
tted	-11.5645
▁Ġgraphic	-11.5648
▁ĠCav	-11.5649
▁oll	-11.565
▁ĠEd	-11.5656
▁ĠCharge	-11.5657
▁ĠHE	-11.5657
▁Ġgraduate	-11.5659
▁Ġpermit	-11.5661
iator	-11.5661
▁OD	-11.5663
▁Ġshed	-11.5668
uture	-11.567
▁Ġphysic	-11.5671
▁see	-11.5673
▁ĠHot	-11.5674
▁ĠInst	-11.5676
▁ĠBerm	-11.5676
▁ocus	-11.5677
▁Ġlac	-11.5678
▁ĠCree	-11.568
▁Ġmod	-11.5681
▁serv	-11.5684
▁gam	-11.5685
▁file	-11.5685
▁jo	-11.5687
▁code	-11.5695
▁Ġexpose	-11.5695
eep	-11.5698
punct	-11.5699
▁ĠNorth	-11.5704
▁For	-11.5705
▁Ġrule	-11.5706
▁ĠNeb	-11.5708
ati	-11.5711
▁ĠNR	-11.5713
▁ille	-11.5718
▁ĠPut	-11.5718
oof	-11.5719
▁ĠAs	-11.5728
▁ĠBett	-11.5729
▁Ġincorporate	-11.5732
▁Ġfish	-11.5734
▁ĠRos	-11.5736
rising	-11.5741
▁Ġdeclare	-11.5742
▁ĠImag	-11.5743
estation	-11.5744
▁Ġamp	-11.5745
▁ĠKno	-11.5745
▁Ġpreserve	-11.5751
rate	-11.5753
▁Ġapprove	-11.5753
▁Ġarrive	-11.5754
▁Ġstimulate	-11.5754
▁Ġpolitic	-11.5756
▁Ġhumiliat	-11.5758
▁ibl	-11.5759
▁ĠState	-11.5762
▁HO	-11.5763
▁Ġsimilar	-11.5767
olds	-11.5768
▁Ġgen	-11.5769
▁ICA	-11.577
▁Ġmajor	-11.5774
▁Ġestimate	-11.5777
▁Ġimpose	-11.5779
âĢĶâĢĶâĢĶâĢĶ	-11.578
▁ĠGal	-11.5781
asha	-11.5782
▁Ġexamin	-11.5789
▁Ġderive	-11.5794
▁ĠFun	-11.5795
▁Cas	-11.58
▁ĠSto	-11.5802
▁ĠMarri	-11.5804
efore	-11.5806
▁ette	-11.5811
▁Ġbudd	-11.5822
▁ĠSte	-11.5822
▁kill	-11.5827
▁Ġadvers	-11.5828
▁ĠPy	-11.583
▁Ġmus	-11.5832
netic	-11.5833
▁ĠJoe	-11.5835
▁ĠNu	-11.5835
▁ĠCard	-11.5843
▁Ġlinem	-11.5845
elong	-11.585
▁Wil	-11.585
maker	-11.5851
▁Ġcru	-11.5853
▁ĠHI	-11.5855
net	-11.586
▁Ġplot	-11.5864
gun	-11.5871
zie	-11.5871
him	-11.5872
▁Ġrace	-11.5872
▁by	-11.5872
▁Ġstatu	-11.5875
▁writ	-11.5877
▁com	-11.5878
▁ets	-11.5882
▁ĠClar	-11.5885
▁apse	-11.5886
▁Ġmargin	-11.5887
▁Ġstatistic	-11.5887
▁que	-11.5888
▁Ġaccident	-11.5889
▁ĠNO	-11.589
ption	-11.5892
vi	-11.5894
▁Ġwage	-11.5898
▁Ġcombine	-11.5899
▁Ġmechanic	-11.5902
▁prov	-11.5902
▁bet	-11.5903
▁Ġdiver	-11.5905
▁Ġrevis	-11.5906
▁Ġfro	-11.591
▁iot	-11.5912
mal	-11.5914
▁Ġcrim	-11.5915
hose	-11.5915
▁Ġleg	-11.5917
▁Ġlease	-11.5921
▁Ġattent	-11.5922
wal	-11.5923
ute	-11.5924
▁ĠSupplement	-11.5927
▁Ġbapt	-11.593
▁Ġtradition	-11.593
▁ĠOrigin	-11.593
rade	-11.5932
▁ĠWork	-11.5933
page	-11.5934
▁Ġdiploma	-11.5935
▁ĠName	-11.5936
▁ago	-11.5938
oud	-11.5939
▁ĠWag	-11.5939
▁Ġjo	-11.5939
▁pre	-11.5941
▁Ġreduce	-11.5942
▁Ġexception	-11.5943
▁Ġoccasion	-11.5945
▁Ġeliminate	-11.5946
▁aid	-11.5946
▁Ġdigit	-11.5949
▁ĠCamer	-11.5949
DD	-11.5951
▁ĠTwi	-11.5951
▁Thank	-11.5952
▁Ġtrop	-11.5953
▁AL	-11.5955
▁ĠHil	-11.5955
ablo	-11.5956
▁Ġlun	-11.5959
▁Ġsettl	-11.5963
▁Ġdam	-11.5965
▁ĠFE	-11.5967
▁ĠCe	-11.5972
▁ĠSor	-11.5972
▁Ġmode	-11.5973
▁Gam	-11.5976
▁ideo	-11.5976
▁Ġminor	-11.5976
▁Ġincident	-11.5982
▁run	-11.5982
▁Ġhal	-11.5988
▁zer	-11.5988
▁ĠMotor	-11.5989
kar	-11.5992
▁ĠMov	-11.5993
▁Ġemotion	-11.5994
▁ĠEng	-11.5994
ube	-11.5995
▁ond	-11.6001
▁produc	-11.6002
▁Ġrem	-11.6003
▁Ġeconomic	-11.6006
▁Ġverb	-11.6008
▁ĠBuddh	-11.601
▁igh	-11.6012
▁Ġaddition	-11.6012
▁hetic	-11.6013
▁Ġregime	-11.6016
▁Ġshade	-11.6018
▁Ġdos	-11.6019
cia	-11.6019
▁ĠPAR	-11.6021
▁Ġcirculat	-11.6021
▁ool	-11.6021
▁Ġvote	-11.6024
▁anche	-11.603
elve	-11.603
▁aki	-11.6031
nda	-11.6035
▁Ġyoung	-11.6036
▁goo	-11.6036
▁Ġsmart	-11.6038
▁nos	-11.6038
ama	-11.604
▁ĠGem	-11.6043
▁Ġep	-11.6046
▁ience	-11.6046
▁Ġadmir	-11.6047
igation	-11.6053
▁Ġdispar	-11.6059
▁BO	-11.606
▁ĠDI	-11.6063
▁ĠGreenw	-11.6065
hill	-11.6067
▁Ġintention	-11.6068
▁ĠNI	-11.607
▁Ġadmit	-11.6072
lphi	-11.6074
▁Don	-11.6079
▁ĠHT	-11.6079
▁net	-11.6084
▁Ġmel	-11.6084
▁Ġbelieve	-11.6085
▁Ġchat	-11.6093
ciation	-11.6097
▁ĠCrim	-11.6098
▁Ġnod	-11.6102
▁ĠGE	-11.6102
▁ĠKr	-11.6105
▁Ġservic	-11.6106
▁ĠPin	-11.611
▁Ġinduce	-11.611
▁You	-11.6111
▁Ġwing	-11.6111
▁astic	-11.6113
▁He	-11.6116
▁Gener	-11.6118
▁Ġcolleg	-11.6122
▁Ġcol	-11.6124
▁Ġempir	-11.6127
▁Ġrob	-11.6131
▁Ġcycl	-11.6132
▁ĠDisco	-11.6135
bet	-11.6135
▁Ġneur	-11.6135
eit	-11.6136
▁ĠRee	-11.614
▁ĠPric	-11.6145
▁ĠTime	-11.6147
▁ographic	-11.615
▁Ġreb	-11.6152
▁Ġtrib	-11.6154
▁Ġstereotyp	-11.6157
reek	-11.6157
▁ĠTerr	-11.6159
nding	-11.6169
BD	-11.6173
▁Ġmagic	-11.6174
▁ati	-11.6176
▁ĠAlli	-11.6176
ivia	-11.6177
▁Ġtrade	-11.6178
▁Ġtract	-11.6179
▁Ġoutp	-11.6179
▁Ġformula	-11.6183
▁ĠEdi	-11.6185
▁ĠDoug	-11.6185
rise	-11.6187
▁Ġrav	-11.6187
rown	-11.6188
▁doc	-11.6191
▁Ġtrac	-11.6194
▁Par	-11.6194
rish	-11.62
▁ĠBrus	-11.6201
aura	-11.6202
▁Ġsm	-11.6202
▁ĠHav	-11.6203
▁Ġhapp	-11.6204
▁Ġenvironment	-11.6205
eum	-11.6212
base	-11.6215
store	-11.6215
▁Ġnet	-11.6215
▁con	-11.6215
▁Ġwrit	-11.622
HAR	-11.622
▁item	-11.6223
▁ĠNico	-11.6224
fire	-11.6224
▁itar	-11.6225
▁ĠAppl	-11.623
rian	-11.623
▁rank	-11.623
utch	-11.6231
bal	-11.6232
▁Ġrub	-11.6235
▁Ġconduc	-11.6237
▁Jan	-11.6238
erver	-11.6238
▁Ġcasual	-11.624
tract	-11.6241
▁urd	-11.6241
▁ĠOk	-11.6242
▁ĠXia	-11.6245
▁Ġroute	-11.6245
▁Ġcorro	-11.6246
▁ĠMons	-11.6246
▁ĠRobert	-11.6248
▁Ġregulate	-11.6249
▁Ġchallenge	-11.6251
▁ĠCrime	-11.6256
▁ĠAccess	-11.6257
▁Ġbrun	-11.626
▁asure	-11.6261
umble	-11.6261
▁hel	-11.6265
▁gra	-11.6267
▁ĠDig	-11.6269
PC	-11.6269
▁Ġreserve	-11.6269
icken	-11.6269
▁Ġincom	-11.627
▁Ġdivide	-11.6271
▁Ġcomplet	-11.6272
▁Ze	-11.6274
▁Ġrealize	-11.6275
vantage	-11.6282
▁round	-11.6282
▁Ġspor	-11.6283
▁Ġgenerate	-11.6283
▁ni	-11.6286
▁ĠJournal	-11.6288
▁Ġdifferent	-11.629
case	-11.6291
▁Ġreside	-11.6292
▁Ġtub	-11.6292
▁Tr	-11.6293
▁Ġbel	-11.6295
▁ĠClark	-11.6297
▁ester	-11.6298
▁Ġanth	-11.63
▁fit	-11.6303
▁mit	-11.6306
▁ĠSpirit	-11.6306
▁Ġinduc	-11.6309
▁Ġow	-11.6311
▁Ġoverse	-11.6312
▁Ġwipe	-11.6315
▁Ġshak	-11.6317
kee	-11.6318
▁Ġqui	-11.6318
▁ĠCy	-11.6319
▁olic	-11.632
▁ore	-11.6321
---	-11.6323
▁Ġphon	-11.6325
▁Ġnames	-11.6326
robe	-11.6334
▁ĠEnter	-11.6335
▁ĠBuc	-11.6337
▁Ġserve	-11.6339
atisf	-11.6341
▁omin	-11.6341
▁elf	-11.6343
▁ĠOPE	-11.6344
▁Ġparticipat	-11.6345
▁cipl	-11.6347
ename	-11.6347
▁?)	-11.635
ln	-11.6351
▁Bon	-11.6351
▁ava	-11.6353
vocation	-11.6354
▁ĠCI	-11.6355
▁ĠTemp	-11.6356
▁plan	-11.636
▁ĠCut	-11.6363
▁ias	-11.6364
▁ĠRES	-11.6366
▁Ġya	-11.6366
oga	-11.6367
▁Ton	-11.6369
▁Ġcomfort	-11.6371
▁roph	-11.6376
▁NE	-11.6376
irtual	-11.6382
obe	-11.6384
▁ache	-11.6387
▁afe	-11.6387
▁ĠBoot	-11.6389
lvin	-11.639
▁Ġcub	-11.6391
▁ĠTermin	-11.6395
▁eye	-11.6396
▁ĠLov	-11.64
▁Ġred	-11.64
elief	-11.6401
ague	-11.6402
chain	-11.6404
▁ĠCorp	-11.6407
▁Ġachieve	-11.6409
vis	-11.6411
▁Shar	-11.6414
▁Ġproper	-11.6416
▁Activ	-11.6417
▁Ġsevere	-11.6419
iction	-11.6419
▁ĠHeb	-11.6423
▁Ġsequ	-11.6426
▁ĠBrav	-11.6427
eated	-11.6428
lt	-11.6429
▁Ġproduce	-11.643
▁Ġutilize	-11.643
utter	-11.6432
▁Ġtheme	-11.6432
Type	-11.6432
▁Ġilleg	-11.6433
▁Ġpun	-11.6435
tte	-11.6436
▁ĠCLI	-11.6438
friend	-11.6439
content	-11.6439
▁Ġmeasure	-11.644
▁ĠPac	-11.6444
▁ĠReal	-11.6444
ntage	-11.6444
▁abl	-11.6445
HS	-11.6446
acco	-11.6446
▁Ġrefuse	-11.6449
▁ĠMut	-11.6449
▁Ġtow	-11.6451
▁ĠChange	-11.6452
icks	-11.6453
▁Ġmethod	-11.6454
oming	-11.6455
rete	-11.6456
▁nu	-11.6458
▁ĠTim	-11.646
▁andr	-11.646
▁Ġframe	-11.6461
▁ĠAlla	-11.6462
▁Ġconsume	-11.6464
▁Ġped	-11.6464
ili	-11.6464
▁ina	-11.6465
▁Ġcat	-11.6467
▁Ġresemble	-11.6468
▁Ġcontamin	-11.6471
▁Ġspecialize	-11.6473
▁Ġoption	-11.6474
▁Ġchange	-11.6476
▁Ġinval	-11.6478
▁Ġfle	-11.6478
bow	-11.6478
▁Ġlogg	-11.6478
▁Ġinvad	-11.6479
▁ming	-11.6481
▁Up	-11.6484
▁ĠJona	-11.6489
▁;	-11.649
▁Ġrevolution	-11.6491
▁exp	-11.6493
▁Ka	-11.6493
▁ĠGing	-11.6494
▁Scot	-11.6496
▁ĠControl	-11.6498
▁Ġconclude	-11.6498
▁Ġinclude	-11.6502
tri	-11.6502
▁Ġrestore	-11.6502
▁hov	-11.6503
rogen	-11.6504
▁Ġvers	-11.6505
stella	-11.6507
▁UF	-11.6508
▁Ġimprove	-11.651
▁Ġsocial	-11.6512
▁ĠTuc	-11.6513
▁arc	-11.6514
▁Ġnumer	-11.6516
tech	-11.6519
▁Late	-11.6519
zer	-11.6521
▁Ġeng	-11.6524
▁ĠMedica	-11.6527
▁vern	-11.6529
wind	-11.6529
metic	-11.6529
▁Vi	-11.653
wait	-11.6531
rby	-11.6531
▁ĠMcCa	-11.6532
▁reat	-11.6533
iate	-11.6534
▁Ġelevat	-11.6536
▁ĠPLA	-11.6539
track	-11.6541
ilk	-11.6544
▁ĠJudg	-11.6544
Color	-11.6545
Book	-11.6546
nforcement	-11.6546
▁ĠBlu	-11.6548
▁Pro	-11.6548
enth	-11.6548
▁AB	-11.6553
chemist	-11.6553
▁byte	-11.6557
▁oke	-11.6557
frame	-11.656
sey	-11.6562
IL	-11.6565
▁ĠAngl	-11.6566
riminal	-11.6567
posed	-11.6569
▁Ġanticipat	-11.657
▁mu	-11.6571
▁Ġcaf	-11.6571
▁uch	-11.6571
▁Ġcalcul	-11.6573
▁Ġintimidat	-11.6573
▁Ġface	-11.6574
▁Ġfigure	-11.6577
▁bas	-11.6578
▁Ġincap	-11.658
bour	-11.658
▁oy	-11.6581
Text	-11.6582
▁Ġcultivat	-11.6583
▁bl	-11.6584
▁Ġtemper	-11.6584
▁ali	-11.6584
▁Ġoperate	-11.6586
▁Ġcontemplat	-11.6588
▁clude	-11.6589
▁Ġescalat	-11.6591
▁Ġimm	-11.6591
▁ieve	-11.6592
Availab	-11.6593
▁Ġdiagnose	-11.6594
▁Ġrecognize	-11.6595
▁OV	-11.6596
▁Ġdescribe	-11.6596
opher	-11.6596
▁ĠGrav	-11.6598
plex	-11.6601
▁Ġglob	-11.6601
Bot	-11.6602
comp	-11.6602
▁Ġcollapse	-11.6604
▁Ġripp	-11.6604
▁pt	-11.6607
▁Ġpres	-11.661
▁ĠProto	-11.6611
▁ĠStr	-11.6612
▁Ġundermine	-11.6612
▁Ġembod	-11.6614
▁ĠPatr	-11.6615
▁Ġsacrifice	-11.6616
hon	-11.6616
beat	-11.6617
▁itud	-11.6619
nut	-11.6619
▁Ġcove	-11.6621
▁ĠGT	-11.6625
▁oul	-11.6625
embed	-11.6627
▁Ġmedia	-11.6628
interest	-11.6629
▁Ġcarn	-11.663
umbl	-11.6632
▁Ġdun	-11.6633
▁Ġshri	-11.6636
▁Ġdigest	-11.6637
▁enta	-11.6638
▁Ġpromote	-11.6639
▁igen	-11.6639
ura	-11.6642
▁Ġmini	-11.6644
df	-11.6645
ederal	-11.6646
▁Ġmisc	-11.6647
▁LI	-11.6647
cussion	-11.6652
▁Ġrel	-11.6652
Magi	-11.6653
▁work	-11.6653
think	-11.6653
▁Ġregret	-11.6655
tten	-11.6655
lick	-11.6657
▁itate	-11.6658
oulder	-11.6659
▁uv	-11.666
▁ĠMir	-11.6662
▁opa	-11.6667
▁Ġvoice	-11.6671
▁Ġmove	-11.6672
▁Ġrag	-11.6672
lie	-11.6674
ç	-11.6675
cture	-11.6676
▁ĠNeg	-11.6676
▁ĠNC	-11.6678
▁fre	-11.6679
▁ĠXi	-11.668
vidence	-11.6682
▁Ġdra	-11.6682
far	-11.6686
uth	-11.6686
▁ĠTC	-11.6689
▁ane	-11.6692
▁FO	-11.6693
▁cel	-11.6695
Ù	-11.6695
▁charge	-11.6695
▁ret	-11.6696
▁Ġgive	-11.67
▁Ġoccur	-11.6702
\"	-11.6704
▁Ġprofession	-11.6705
▁Ġhug	-11.6711
▁ĠChev	-11.6713
▁Ġdemonstrate	-11.6713
!!	-11.6714
▁Ġtranslate	-11.6716
▁Ġneg	-11.6716
▁Ġintermedi	-11.6717
▁Ġret	-11.6722
clusive	-11.6722
▁Ġcontrol	-11.6722
loss	-11.6726
▁ĠIll	-11.6728
▁ĠSup	-11.6728
▁Ġblu	-11.673
▁ĠBB	-11.6733
▁Ġphysi	-11.6734
ravel	-11.6734
xtap	-11.6734
▁por	-11.6734
▁ĠLevi	-11.6736
▁Ġintegr	-11.6738
hattan	-11.6738
ellow	-11.674
▁Ġpip	-11.6741
break	-11.6742
▁ouse	-11.6742
▁fa	-11.6746
▁ĠAff	-11.6746
buster	-11.6747
▁Ġurg	-11.6748
▁Ba	-11.6749
▁Ġindicate	-11.6749
▁ĠRespons	-11.675
▁Ġwhat	-11.675
▁Fe	-11.6753
ior	-11.6753
▁Ġhouse	-11.6754
▁direct	-11.6754
▁ĠTes	-11.6755
▁Lab	-11.6756
▁Ġfla	-11.6757
▁Ġcirc	-11.6757
ander	-11.6759
▁ĠFR	-11.6759
||	-11.676
oreAnd	-11.676
▁Ġtaste	-11.6761
ghett	-11.6762
▁ĠCarol	-11.6765
▁ĠEvan	-11.6767
▁genc	-11.6768
gan	-11.6769
▁Ġcomprehens	-11.677
())	-11.677
KE	-11.677
PDATE	-11.6771
})	-11.6772
▁ĠHono	-11.6773
▁anta	-11.6777
%	-11.6777
▁ĠRel	-11.6777
âĺħ	-11.6777
▁meta	-11.6777
▁Ġinvestigate	-11.6778
eight	-11.678
▁ĠSTAT	-11.6782
▁ĠUnle	-11.6783
IFI	-11.6783
check	-11.6786
yton	-11.6786
▁ĠBO	-11.6788
▁Phil	-11.6795
▁ĠSur	-11.6796
amura	-11.6796
▁verb	-11.6798
▁Ġimper	-11.6798
▁Ġoppose	-11.6799
▁ĠHop	-11.68
▁Ġcalculate	-11.6801
onal	-11.6804
],	-11.6806
ATION	-11.6807
▁ĠMap	-11.6808
duction	-11.6812
mble	-11.6812
▁Ġrefer	-11.6813
▁ee	-11.6814
▁Ġimmers	-11.6814
▁Ġpurchas	-11.6815
▁Ġtape	-11.6815
vy	-11.6816
UG	-11.682
FT	-11.682
▁manage	-11.6822
▁Ġapp	-11.6823
cyclop	-11.6824
▁lov	-11.6825
▁ĠKend	-11.683
▁ĠBil	-11.6833
▁Ġput	-11.6834
▁Ġmetabol	-11.6835
▁Ġconf	-11.6836
bell	-11.6837
amera	-11.6839
Ð	-11.6839
×	-11.6839
▁dat	-11.6845
▁Ġpsych	-11.6846
communication	-11.6849
▁Ġfit	-11.6849
CLASS	-11.6849
▁Fa	-11.6851
▁ĠFace	-11.6852
▁pire	-11.686
▁role	-11.6861
izab	-11.6861
▁ĠAud	-11.6863
▁Ġproduct	-11.6866
ffect	-11.6866
▁ĠSD	-11.6871
▁Ġreg	-11.6871
▁Ġprivat	-11.6872
requisite	-11.6873
olk	-11.6874
▁Ġwrap	-11.6884
▁Ġtransfer	-11.6885
▁Charl	-11.6885
▁Ġassume	-11.6885
connect	-11.6885
▁Ġflee	-11.6885
etition	-11.6885
▁Ġexplore	-11.6891
▁ĠAnaly	-11.6894
▁part	-11.6895
▁omic	-11.6895
▁ĠCit	-11.6902
▁ĠIdea	-11.6902
▁Ġmission	-11.6905
▁ji	-11.6906
▁aqu	-11.6908
▁Ġscholar	-11.6909
▁Ġstyle	-11.6909
▁Anim	-11.691
▁Ġargue	-11.691
▁Ġremove	-11.691
▁Ġhyp	-11.6911
▁Ġintroduce	-11.6911
nship	-11.6914
▁Ġcoordinate	-11.6916
▁Ġchampion	-11.6917
▁Ġbroke	-11.6918
artisan	-11.6918
▁ĠProgram	-11.6919
▁Ġatom	-11.692
▁intern	-11.692
▁af	-11.6921
▁rie	-11.6922
eful	-11.6923
aval	-11.6926
▁ĠGarr	-11.6926
▁ĠCop	-11.6927
▁ĠNap	-11.6928
▁Ġsup	-11.6931
usp	-11.6931
▁Ġproduc	-11.6931
▁ran	-11.6931
▁Product	-11.6933
orph	-11.6933
▁Ġtwent	-11.6934
▁Ġfeder	-11.6935
▁aret	-11.6935
▁Ġconven	-11.6945
▁Ġka	-11.6946
???	-11.695
ULT	-11.695
▁ĠSTA	-11.6952
ient	-11.6953
intend	-11.6954
▁ĠCustom	-11.6955
ats	-11.6955
▁ĠCirc	-11.6955
▁Ġslice	-11.6955
▁ĠEven	-11.6955
urban	-11.6959
▁icult	-11.6962
▁Ġtroop	-11.6964
▁ĠRace	-11.6964
▁Ġpave	-11.6965
▁Ġannounc	-11.6967
▁Ġdestruct	-11.6967
▁ĠSale	-11.6969
inches	-11.6969
▁Play	-11.6969
▁Ġultra	-11.6969
umn	-11.6972
▁ĠTerm	-11.6972
bias	-11.6975
▁FF	-11.6979
▁Ġrevol	-11.6979
▁ĠSaf	-11.6979
▁Ġinstruct	-11.6981
▁ienc	-11.6982
▁back	-11.6985
▁ĠSumm	-11.6986
▁ĠHunt	-11.6986
▁Ġcharacter	-11.6987
▁yn	-11.6988
▁Ġcomp	-11.6989
▁ĠGor	-11.6989
No	-11.699
▁vol	-11.6991
▁Ġeven	-11.6992
▁Ġsur	-11.6993
MC	-11.6994
▁Ġelectro	-11.6994
venant	-11.6996
▁ror	-11.6997
gie	-11.6997
▁Ġdoc	-11.6997
▁ope	-11.6998
▁ĠVictor	-11.6998
▁Ġastronom	-11.6999
stage	-11.6999
▁Ġempt	-11.6999
▁Ġshould	-11.7001
aith	-11.7004
▁Ġcorp	-11.7005
▁ĠWhat	-11.7006
▁Ġprepare	-11.701
cott	-11.7011
▁ĠOtt	-11.7014
▁mini	-11.702
▁val	-11.7022
▁ĠYork	-11.7024
mart	-11.7025
▁!)	-11.7025
▁Ġoblig	-11.7025
gu	-11.7028
▁ĠCoh	-11.7028
▁Ġtune	-11.703
▁ĠES	-11.703
▁Ġcancel	-11.703
▁select	-11.7031
▁Ġforce	-11.7035
▁Ġstripe	-11.7036
▁ĠBit	-11.7037
▁Ġsacr	-11.7037
▁bor	-11.7038
▁Ġprison	-11.7038
MIT	-11.7039
▁Ġinspire	-11.704
mist	-11.704
▁ula	-11.7045
▁Del	-11.7045
▁ĠFee	-11.7045
▁ĠLei	-11.7046
▁Per	-11.7047
▁Ġpaw	-11.7049
ORD	-11.7052
▁met	-11.7052
▁ĠEuro	-11.7054
▁Ġintegrat	-11.7055
▁Dep	-11.7056
▁Ġfriend	-11.7056
▁ĠBrew	-11.7056
▁ateg	-11.7056
▁ĠGet	-11.7057
▁find	-11.7057
▁Ġengine	-11.7058
▁Ġgran	-11.706
ti	-11.7061
++	-11.7062
▁Ġsole	-11.7062
▁ĠUt	-11.7067
▁ĠBurg	-11.7067
▁Ġsigh	-11.7068
▁Eng	-11.7068
▁Rom	-11.7073
▁Ġpractice	-11.7074
▁Ġpropose	-11.7074
ork	-11.7074
▁process	-11.7075
▁Ġwealth	-11.7076
▁Edit	-11.7078
heim	-11.7079
▁Ġhel	-11.708
nutrition	-11.7082
emis	-11.7082
▁ulate	-11.7083
▁ĠRen	-11.7083
▁Ġis	-11.7086
▁Ġcoc	-11.7087
Script	-11.7088
juven	-11.7088
▁Ġactivat	-11.7089
▁Ġcond	-11.7089
fortune	-11.709
▁Ġwaive	-11.7091
▁ĠList	-11.7092
▁Ġanalyse	-11.7094
ident	-11.7095
peace	-11.7097
technolog	-11.7098
▁ĠHend	-11.7098
regulation	-11.7098
▁establish	-11.7099
row	-11.7101
inder	-11.7101
▁ffe	-11.7104
contract	-11.7105
pisode	-11.7105
▁ĠPhilip	-11.7105
▁erve	-11.7106
▁Ġidea	-11.7107
recogn	-11.7107
▁.'	-11.7107
ateur	-11.7108
▁ĠGree	-11.7111
▁ablish	-11.7112
▁Ġke	-11.7112
▁pay	-11.7115
▁Exper	-11.7115
fleet	-11.7117
Cloud	-11.7117
intestin	-11.7118
interpret	-11.7118
▁Ġmile	-11.7118
paragraph	-11.7122
Group	-11.7123
▁ĠPet	-11.7124
▁ĠMul	-11.7124
▁hibit	-11.7124
▁tes	-11.7125
FIG	-11.7126
owa	-11.7126
float	-11.7127
▁ocr	-11.7128
eak	-11.7129
sea	-11.7129
▁ense	-11.7131
anthrop	-11.7131
proof	-11.7134
incarn	-11.7135
constitutional	-11.7136
account	-11.7136
bishop	-11.7136
Reload	-11.7137
Level	-11.7138
wealth	-11.714
▁Ġswap	-11.714
▁Ġcens	-11.714
▁ĠKell	-11.714
conscious	-11.714
rank	-11.7141
▁Ġarchitect	-11.7141
club	-11.7141
official	-11.7141
▁Ġtac	-11.7141
▁protect	-11.7142
wild	-11.7142
introdu	-11.7143
▁Ġhold	-11.7143
▁ĠThie	-11.7144
▁Bat	-11.7145
▁Wa	-11.7146
▁ĠInteg	-11.7146
interrupt	-11.7146
▁ĠTale	-11.7146
historic	-11.7148
daughter	-11.7148
▁ĠAdvis	-11.7149
xperience	-11.715
▁Ġskelet	-11.7151
forward	-11.7152
▁ĠMatt	-11.7153
▁Mos	-11.7153
Range	-11.7153
▁Cr	-11.7153
▁ĠScient	-11.7154
folk	-11.7154
▁Ġmamm	-11.7155
▁Ġost	-11.7155
▁ues	-11.7156
orthodox	-11.7156
▁ruct	-11.7157
eon	-11.7157
pleasant	-11.7157
▁ĠLos	-11.7159
▁Ġamaz	-11.7159
▁Ġaccord	-11.716
▁ĠAmerica	-11.716
Thumbnail	-11.716
▁ĠAnd	-11.7161
separ	-11.7162
infect	-11.7163
▁Ġmete	-11.7163
shield	-11.7163
▁Ġamen	-11.7164
collection	-11.7164
▁Ġintercept	-11.7165
▁Ġdro	-11.7165
▁forc	-11.7165
▁Ġconj	-11.7165
▁anti	-11.7165
economic	-11.7165
▁Ġpercept	-11.7165
▁ĠVik	-11.7165
▁Ġsolv	-11.7167
▁Ġconfess	-11.7168
▁Ġguide	-11.7169
▁Ġconvict	-11.717
▁uke	-11.717
▁ĠCL	-11.7172
Shell	-11.7173
▁here	-11.7174
▁Sen	-11.7176
SU	-11.7176
▁Ġdrop	-11.7176
▁Ġprogram	-11.7179
pp	-11.7179
graduate	-11.718
park	-11.7181
shake	-11.7181
▁Ġpronoun	-11.7181
▁Ġoverwhelm	-11.7182
▁ĠMich	-11.7182
▁Ġfrustrat	-11.7182
▁ĠRut	-11.7183
ookie	-11.7184
▁obb	-11.7184
determin	-11.7185
vette	-11.7185
personal	-11.7185
▁Ġdistort	-11.7185
▁Ġroom	-11.7185
▁asm	-11.7185
▁Fu	-11.7186
▁Ġtabl	-11.7186
▁Ġdefine	-11.7187
▁Ġflip	-11.7188
▁develop	-11.7188
▁Ġslam	-11.7189
▁Av	-11.719
▁ĠBudd	-11.719
▁ĠMana	-11.7191
▁Ġlobb	-11.7193
▁Ġleas	-11.7196
▁Ġgrip	-11.7197
▁Ġobli	-11.7197
▁ĠSter	-11.7198
▁Ġmirac	-11.7198
..	-11.7199
question	-11.72
▁Ġkil	-11.72
illusion	-11.7201
▁ĠCB	-11.7201
▁Ġsanct	-11.7202
▁cook	-11.7203
▁Ġsucc	-11.7204
violent	-11.7205
▁requ	-11.7206
Force	-11.7206
▁ĠHaw	-11.7206
▁ĠHyd	-11.7206
▁Ġbrut	-11.7207
▁Ġperf	-11.7208
▁phe	-11.7208
helm	-11.7208
▁respect	-11.7208
▁Ġyou	-11.7208
ubric	-11.721
hammer	-11.7211
lar	-11.7211
▁ĠLead	-11.7211
ggie	-11.7212
▁ĠHon	-11.7214
▁Ġsurve	-11.7215
father	-11.7215
odcast	-11.7215
▁idel	-11.7215
▁effect	-11.7215
▁Ġbless	-11.7216
▁Ġcont	-11.7217
burst	-11.7218
▁Ġbehave	-11.7219
▁keep	-11.722
▁ario	-11.7221
▁ribe	-11.7221
ampaign	-11.7223
▁depend	-11.7223
▁handle	-11.7224
▁ĠLake	-11.7224
lux	-11.7225
uncle	-11.7225
▁ĠGA	-11.7227
▁ĠChic	-11.7227
▁Ġratio	-11.7228
▁ĠQuart	-11.7228
▁Ġchop	-11.7228
▁ĠElect	-11.7229
▁ĠSQ	-11.723
▁Ġexempt	-11.723
▁laugh	-11.7232
castle	-11.7232
▁ĠVER	-11.7232
effective	-11.7232
▁Ġthreat	-11.7233
▁Ġmistake	-11.7234
▁contin	-11.7234
▁Ġcouncil	-11.7235
▁ĠProduct	-11.7236
holder	-11.7237
▁Ġdestin	-11.7238
▁hell	-11.7238
haul	-11.7239
▁Ġmol	-11.7239
Craft	-11.7239
▁Ġacquaint	-11.724
▁wid	-11.724
▁ĠSchwar	-11.7241
▁Ġgriev	-11.7241
▁brid	-11.7242
▁ĠSoci	-11.7243
ubscribe	-11.7243
rocket	-11.7243
▁Ġabort	-11.7243
▁Ġminim	-11.7243
atellite	-11.7243
▁duc	-11.7244
▁ĠDw	-11.7244
▁Ġworri	-11.7244
▁Ġsurf	-11.7244
▁Ġaccomplish	-11.7245
▁girl	-11.7245
▁option	-11.7245
inosaur	-11.7245
▁Ġanonym	-11.7245
▁Ġchamp	-11.7245
ttorney	-11.7246
▁ĠSlov	-11.7246
▁ĠImprove	-11.7246
▁Ġorb	-11.7247
▁Ġliqu	-11.7247
▁Ġthumb	-11.7248
▁Ġrebel	-11.7248
▁Ġeasi	-11.7248
▁++++++++	-11.7248
▁,,,,	-11.7248
▁ĠCharlotte	-11.7248
▁quickShip	-11.7248
▁ĠRandomRedditor	-11.7248
▁Ġbankrupt	-11.7248
▁Ġcryptocurrenc	-11.7248
▁Ġegreg	-11.7248
▁ĠguiActiveUn	-11.7248
▁Ġmenstru	-11.7248
▁Prosecut	-11.7248
▁cigarette	-11.7248
▁mbuds	-11.7248
▁project	-11.7248
▁rawdownload	-11.7248
▁~~~~~~~~	-11.7248
▁ĠDefendant	-11.7248
▁ĠEnterprise	-11.7248
▁ĠHurricane	-11.7248
▁ĠKazakh	-11.7248
▁ĠOpportun	-11.7248
▁ĠScandinav	-11.7248
▁Ġabrupt	-11.7248
▁Ġabsolute	-11.7248
▁Ġabsurd	-11.7248
▁Ġantibiotic	-11.7248
▁Ġenterprise	-11.7248
▁Ġexpenditure	-11.7248
▁Ġfirefighter	-11.7248
▁Ġgenuine	-11.7248
▁Ġhomophobi	-11.7248
▁Ġinadvert	-11.7248
▁Ġintermitt	-11.7248
▁Ġmillisec	-11.7248
▁Ġnonprofit	-11.7248
▁Ġnutrient	-11.7248
▁Ġopponent	-11.7248
▁Ġportfolio	-11.7248
▁Ġpredecessor	-11.7248
▁Ġprotagonist	-11.7248
▁Ġredirect	-11.7248
[...]
