<pad>	0
<unk>	0
<s>	0
</s>	0
[PAD]	0
▁t	-0
▁a	-1
he	-2
in	-3
re	-4
▁the	-5
on	-6
er	-7
▁o	-8
at	-9
▁s	-10
en	-11
▁c	-12
es	-13
▁w	-14
is	-15
nd	-16
it	-17
or	-18
▁p	-19
al	-20
▁b	-21
an	-22
ed	-23
▁f	-24
▁of	-25
ing	-26
▁in	-27
ou	-28
ar	-29
▁m	-30
▁and	-31
▁to	-32
ic	-33
▁d	-34
ion	-35
le	-36
ro	-37
as	-38
▁h	-39
ent	-40
▁th	-41
ct	-42
▁e	-43
il	-44
▁re	-45
▁T	-46
om	-47
ve	-48
▁l	-49
st	-50
▁n	-51
ly	-52
▁be	-53
▁is	-54
se	-55
ol	-56
▁g	-57
▁A	-58
ation	-59
im	-60
id	-61
et	-62
ut	-63
ce	-64
▁S	-65
ot	-66
ur	-67
▁I	-68
ra	-69
ow	-70
ch	-71
▁for	-72
ig	-73
▁u	-74
▁that	-75
▁C	-76
▁on	-77
▁st	-78
ver	-79
▁The	-80
▁y	-81
ir	-82
ul	-83
ay	-84
am	-85
ith	-86
▁as	-87
el	-88
▁pro	-89
ad	-90
▁are	-91
her	-92
▁con	-93
▁with	-94
▁an	-95
▁you	-96
▁M	-97
if	-98
▁wh	-99
▁or	-100
▁it	-101
▁al	-102
▁P	-103
od	-104
ter	-105
▁(	-106
▁1	-107
ment	-108
▁B	-109
ge	-110
th	-111
▁W	-112
op	-113
ate	-114
ist	-115
ers	-116
▁de	-117
ess	-118
ies	-119
▁he	-120
▁H	-121
ab	-122
ill	-123
▁ex	-124
▁su	-125
ect	-126
▁we	-127
▁com	-128
ore	-129
us	-130
ity	-131
▁ha	-132
est	-133
ive	-134
res	-135
ac	-136
▁D	-137
um	-138
▁v	-139
rom	-140
ld	-141
ke	-142
os	-143
ant	-144
▁E	-145
▁F	-146
▁by	-147
qu	-148
em	-149
iv	-150
ain	-151
▁R	-152
nt	-153
pp	-154
▁at	-155
▁can	-156
igh	-157
ud	-158
▁-	-159
▁was	-160
▁ch	-161
▁from	-162
oc	-163
▁r	-164
ort	-165
▁ne	-166
and	-167
▁2	-168
ial	-169
▁N	-170
▁se	-171
▁G	-172
ure	-173
▁L	-174
un	-175
▁not	-176
▁le	-177
ical	-178
art	-179
▁have	-180
ri	-181
og	-182
▁sh	-183
▁en	-184
▁sp	-185
▁this	-186
▁O	-187
▁In	-188
pt	-189
▁ab	-190
ight	-191
▁wor	-192
rou	-193
all	-194
ich	-195
red	-196
ions	-197
ther	-198
ould	-199
ost	-200
ome	-201
our	-202
gh	-203
du	-204
▁im	-205
00	-206
ated	-207
▁us	-208
ine	-209
per	-210
▁pl	-211
▁their	-212
out	-213
ag	-214
ard	-215
act	-216
ff	-217
ell	-218
ide	-219
▁int	-220
▁Th	-221
pl	-222
▁U	-223
▁your	-224
▁J	-225
ans	-226
ast	-227
age	-228
ear	-229
ak	-230
ust	-231
▁whe	-232
▁which	-233
▁they	-234
▁k	-235
iz	-236
ous	-237
ec	-238
ood	-239
▁ad	-240
▁all	-241
ult	-242
▁will	-243
▁cont	-244
▁inc	-245
ib	-246
cc	-247
end	-248
▁dis	-249
ru	-250
▁comp	-251
▁more	-252
▁“	-253
▁res	-254
ong	-255
ap	-256
vel	-257
ip	-258
ations	-259
▁has	-260
ia	-261
ew	-262
ere	-263
so	-264
orm	-265
▁do	-266
ater	-267
ary	-268
able	-269
are	-270
ence	-271
ild	-272
▁man	-273
▁cl	-274
▁other	-275
ual	-276
ks	-277
▁but	-278
ry	-279
▁were	-280
▁imp	-281
▁te	-282
ind	-283
ep	-284
ents	-285
ance	-286
▁per	-287
▁also	-288
▁me	-289
ach	-290
▁one	-291
reat	-292
ign	-293
ake	-294
ose	-295
ress	-296
ass	-297
ase	-298
av	-299
▁St	-300
▁so	-301
au	-302
▁It	-303
▁j	-304
ition	-305
ction	-306
▁19	-307
▁out	-308
ice	-309
▁un	-310
▁app	-311
▁This	-312
ime	-313
one	-314
▁ar	-315
very	-316
ber	-317
▁part	-318
▁about	-319
▁stud	-320
ace	-321
▁ev	-322
ord	-323
ens	-324
▁K	-325
▁"	-326
ount	-327
ory	-328
ok	-329
ire	-330
▁pe	-331
▁inf	-332
▁who	-333
ish	-334
ack	-335
ame	-336
▁sy	-337
▁comm	-338
▁them	-339
).	-340
ors	-341
ue	-342
ces	-343
▁sc	-344
ike	-345
ang	-346
ub	-347
▁his	-348
ite	-349
▁pre	-350
now	-351
ound	-352
olog	-353
low	-354
ree	-355
▁bec	-356
▁Ch	-357
▁up	-358
▁may	-359
ric	-360
iff	-361
ile	-362
▁qu	-363
▁than	-364
ie	-365
ople	-366
▁some	-367
▁rec	-368
ays	-369
▁Y	-370
▁when	-371
▁year	-372
ail	-373
▁V	-374
ates	-375
nder	-376
▁there	-377
▁been	-378
ings	-379
▁20	-380
▁3	-381
▁its	-382
▁into	-383
mer	-384
▁go	-385
▁tra	-386
ian	-387
▁work	-388
ren	-389
▁time	-390
ough	-391
▁ag	-392
▁over	-393
▁these	-394
▁diff	-395
rit	-396
erv	-397
▁people	-398
ph	-399
▁how	-400
vers	-401
ally	-402
rough	-403
lud	-404
▁ro	-405
ons	-406
▁cons	-407
te	-408
ause	-409
▁use	-410
▁col	-411
ific	-412
▁tr	-413
alth	-414
▁our	-415
ms	-416
ond	-417
▁ra	-418
ll	-419
▁bet	-420
ove	-421
tern	-422
▁act	-423
▁like	-424
ities	-425
we	-426
▁had	-427
▁most	-428
▁know	-429
ys	-430
▁under	-431
int	-432
▁acc	-433
▁bl	-434
ments	-435
lic	-436
▁sa	-437
irst	-438
ning	-439
ious	-440
row	-441
lect	-442
▁des	-443
velop	-444
ject	-445
▁need	-446
les	-447
ook	-448
▁such	-449
stem	-450
▁would	-451
ffect	-452
▁new	-453
▁rel	-454
▁hel	-455
▁tw	-456
..	-457
▁if	-458
▁Wh	-459
▁rep	-460
▁includ	-461
▁child	-462
ient	-463
▁any	-464
cess	-465
▁help	-466
▁gen	-467
ational	-468
ob	-469
ative	-470
ple	-471
ular	-472
▁produ	-473
▁what	-474
▁used	-475
ating	-476
ced	-477
yp	-478
▁pr	-479
▁ph	-480
hed	-481
▁prov	-482
▁only	-483
▁ind	-484
ov	-485
▁Un	-486
ool	-487
▁develop	-488
▁many	-489
▁fe	-490
▁through	-491
▁off	-492
▁no	-493
▁am	-494
▁spec	-495
▁first	-496
▁As	-497
▁em	-498
▁ac	-499
ath	-500
ise	-501
round	-502
),	-503
fter	-504
▁reg	-505
iet	-506
ark	-507
oss	-508
uring	-509
▁exp	-510
ics	-511
uc	-512
ful	-513
▁differe	-514
▁system	-515
▁po	-516
hen	-517
▁He	-518
ts	-519
oth	-520
rib	-521
▁two	-522
▁–	-523
ility	-524
eth	-525
erm	-526
ink	-527
iss	-528
ne	-529
als	-530
rop	-531
ied	-532
▁dec	-533
▁ob	-534
old	-535
▁add	-536
ible	-537
▁ass	-538
ased	-539
▁4	-540
▁att	-541
ange	-542
▁sur	-543
ten	-544
▁should	-545
ures	-546
▁201	-547
ower	-548
ife	-549
▁well	-550
▁health	-551
fore	-552
▁water	-553
▁supp	-554
ert	-555
ract	-556
▁rem	-557
▁fl	-558
arch	-559
ween	-560
ble	-561
▁inv	-562
ram	-563
ng	-564
▁sub	-565
aw	-566
▁co	-567
own	-568
▁5	-569
▁years	-570
▁between	-571
▁sm	-572
sel	-573
gan	-574
▁high	-575
ade	-576
its	-577
ution	-578
▁could	-579
hes	-580
cy	-581
▁where	-582
ever	-583
▁pres	-584
ick	-585
▁If	-586
▁trans	-587
▁make	-588
▁get	-589
ants	-590
▁200	-591
ily	-592
▁import	-593
▁We	-594
chn	-595
wn	-596
form	-597
▁bu	-598
▁pers	-599
xt	-600
uch	-601
ology	-602
ience	-603
▁rese	-604
ural	-605
ident	-606
▁her	-607
chool	-608
▁inter	-609
ting	-610
▁ear	-611
▁mod	-612
▁How	-613
▁inst	-614
▁form	-615
ited	-616
▁num	-617
▁pol	-618
▁exam	-619
▁Al	-620
▁disc	-621
ata	-622
▁lear	-623
▁different	-624
meric	-625
ines	-626
▁For	-627
ins	-628
ivers	-629
ness	-630
ef	-631
▁effect	-632
▁An	-633
▁exper	-634
▁because	-635
land	-636
▁sim	-637
▁found	-638
ists	-639
ont	-640
▁long	-641
▁car	-642
ict	-643
ually	-644
▁after	-645
▁med	-646
▁even	-647
▁world	-648
gy	-649
▁incre	-650
▁just	-651
▁lar	-652
▁way	-653
▁then	-654
oy	-655
▁very	-656
cept	-657
▁typ	-658
ft	-659
aking	-660
ature	-661
▁ed	-662
▁det	-663
▁cent	-664
▁sign	-665
▁count	-666
ism	-667
get	-668
▁inform	-669
▁resp	-670
▁hum	-671
vent	-672
▁var	-673
▁Americ	-674
urn	-675
▁see	-676
▁ke	-677
▁18	-678
other	-679
ically	-680
ives	-681
▁gener	-682
▁those	-683
▁pat	-684
▁ref	-685
ck	-686
▁fol	-687
▁Re	-688
▁Pro	-689
▁prog	-690
▁process	-691
iew	-692
arm	-693
▁every	-694
▁ext	-695
▁They	-696
▁result	-697
cer	-698
▁fact	-699
▁soc	-700
▁children	-701
ases	-702
▁Com	-703
ues	-704
ps	-705
▁pub	-706
▁There	-707
.”	-708
iron	-709
▁call	-710
▁being	-711
▁ca	-712
▁loc	-713
▁each	-714
▁said	-715
▁requ	-716
▁techn	-717
▁important	-718
ds	-719
▁sec	-720
ros	-721
▁gra	-722
led	-723
▁commun	-724
ruct	-725
ody	-726
ages	-727
▁partic	-728
▁life	-729
▁dist	-730
ork	-731
▁6	-732
▁set	-733
tle	-734
▁mon	-735
▁cre	-736
▁art	-737
▁during	-738
▁much	-739
▁dep	-740
▁food	-741
▁ent	-742
▁fam	-743
▁students	-744
ved	-745
io	-746
ather	-747
▁she	-748
ices	-749
▁sk	-750
ized	-751
▁lead	-752
▁read	-753
▁def	-754
ward	-755
▁my	-756
vern	-757
▁follow	-758
▁level	-759
▁own	-760
▁information	-761
imes	-762
▁data	-763
cent	-764
ize	-765
▁You	-766
gg	-767
▁aut	-768
▁grow	-769
▁does	-770
▁right	-771
ection	-772
▁same	-773
▁study	-774
▁made	-775
▁person	-776
▁find	-777
▁But	-778
▁proble	-779
▁av	-780
any	-781
▁good	-782
hip	-783
▁cur	-784
▁Ar	-785
▁str	-786
▁ins	-787
▁min	-788
▁back	-789
▁end	-790
▁both	-791
▁using	-792
▁di	-793
▁school	-794
viron	-795
▁che	-796
ality	-797
ted	-798
.,	-799
0.	-800
onom	-801
stand	-802
▁show	-803
ale	-804
▁expl	-805
▁comple	-806
▁pop	-807
▁Sp	-808
▁before	-809
ivid	-810
▁test	-811
▁Ind	-812
▁grou	-813
und	-814
▁gl	-815
▁treat	-816
▁main	-817
▁hist	-818
▁cor	-819
ential	-820
▁small	-821
read	-822
▁often	-823
||	-824
iel	-825
▁sol	-826
▁prot	-827
▁val	-828
▁Sc	-829
inal	-830
ock	-831
▁bo	-832
▁What	-833
iversity	-834
▁New	-835
ined	-836
▁again	-837
▁while	-838
ince	-839
▁br	-840
▁less	-841
rol	-842
omen	-843
ergy	-844
ien	-845
imate	-846
▁take	-847
der	-848
▁dise	-849
▁poss	-850
ty	-851
ars	-852
ix	-853
nce	-854
▁day	-855
▁ris	-856
▁serv	-857
ute	-858
akes	-859
▁And	-860
▁state	-861
vironment	-862
ax	-863
▁ec	-864
▁lit	-865
▁occ	-866
▁|	-867
ished	-868
▁provid	-869
dition	-870
▁When	-871
▁number	-872
▁fun	-873
▁vis	-874
▁power	-875
▁now	-876
▁research	-877
▁(1	-878
▁organ	-879
▁7	-880
▁These	-881
ex	-882
iqu	-883
▁activ	-884
▁body	-885
▁design	-886
ier	-887
▁redu	-888
▁mem	-889
ral	-890
iety	-891
ulation	-892
20	-893
▁cell	-894
▁hand	-895
▁support	-896
▁around	-897
oh	-898
▁human	-899
irect	-900
ves	-901
▁char	-902
▁him	-903
iving	-904
up	-905
▁class	-906
▁bel	-907
000	-908
ury	-909
▁down	-910
com	-911
▁common	-912
air	-913
▁must	-914
ered	-915
ital	-916
▁start	-917
ah	-918
▁three	-919
▁look	-920
ters	-921
▁8	-922
ger	-923
▁conf	-924
hers	-925
▁cle	-926
ven	-927
▁To	-928
ium	-929
-1	-930
ving	-931
▁care	-932
▁est	-933
▁Is	-934
uss	-935
▁elect	-936
▁great	-937
day	-938
▁plan	-939
rent	-940
▁point	-941
▁govern	-942
aj	-943
▁ser	-944
ains	-945
ave	-946
▁example	-947
acter	-948
▁land	-949
▁did	-950
,”	-951
ross	-952
▁large	-953
rain	-954
ional	-955
▁allow	-956
▁contin	-957
▁report	-958
▁10	-959
▁including	-960
ouse	-961
self	-962
▁‘	-963
▁understand	-964
itions	-965
cl	-966
gen	-967
ron	-968
▁op	-969
▁adv	-970
▁Se	-971
the	-972
ared	-973
ull	-974
▁educ	-975
orn	-976
anc	-977
▁equ	-978
▁const	-979
▁build	-980
▁9	-981
ially	-982
ividual	-983
ash	-984
▁pract	-985
▁met	-986
▁dr	-987
▁cour	-988
▁though	-989
way	-990
esp	-991
▁ret	-992
aterial	-993
▁At	-994
iven	-995
▁beh	-996
▁writ	-997
▁De	-998
▁known	-999
▁still	-1000
ner	-1001
▁Ad	-1002
▁eas	-1003
els	-1004
▁som	-1005
▁called	-1006
▁However	-1007
oms	-1008
▁public	-1009
ired	-1010
outh	-1011
iver	-1012
ids	-1013
▁gu	-1014
me	-1015
▁place	-1016
iod	-1017
The	-1018
itive	-1019
ries	-1020
reen	-1021
▁appro	-1022
▁think	-1023
ected	-1024
oci	-1025
▁quest	-1026
erest	-1027
ering	-1028
▁might	-1029
▁ide	-1030
▁environment	-1031
osed	-1032
ization	-1033
...	-1034
ources	-1035
▁few	-1036
▁individual	-1037
▁caus	-1038
▁mat	-1039
▁chang	-1040
inc	-1041
▁product	-1042
eng	-1043
▁tem	-1044
▁energy	-1045
de	-1046
▁want	-1047
ination	-1048
▁stand	-1049
▁impro	-1050
▁change	-1051
ption	-1052
ank	-1053
▁within	-1054
▁iss	-1055
▁without	-1056
▁present	-1057
▁sym	-1058
ffic	-1059
bers	-1060
▁pur	-1061
▁Con	-1062
▁Eng	-1063
▁development	-1064
lish	-1065
ration	-1066
▁dem	-1067
ense	-1068
▁phys	-1069
▁pot	-1070
ording	-1071
▁Ex	-1072
▁play	-1073
raph	-1074
ertain	-1075
▁material	-1076
oun	-1077
angu	-1078
▁learn	-1079
ethod	-1080
▁prof	-1081
▁imm	-1082
▁ben	-1083
ior	-1084
▁air	-1085
▁ident	-1086
ason	-1087
ets	-1088
▁light	-1089
▁project	-1090
agn	-1091
▁cap	-1092
▁don	-1093
ived	-1094
▁Sh	-1095
line	-1096
."	-1097
▁Ph	-1098
▁spe	-1099
▁disease	-1100
iness	-1101
▁ve	-1102
▁bre	-1103
▁199	-1104
ability	-1105
▁American	-1106
arent	-1107
▁pos	-1108
ental	-1109
▁University	-1110
▁Res	-1111
less	-1112
alk	-1113
▁eng	-1114
▁sit	-1115
sp	-1116
▁direct	-1117
,000	-1118
▁social	-1119
▁pass	-1120
▁area	-1121
▁sl	-1122
man	-1123
▁include	-1124
eral	-1125
bs	-1126
▁best	-1127
▁another	-1128
▁&	-1129
▁meas	-1130
▁home	-1131
▁mus	-1132
▁blood	-1133
▁belie	-1134
▁women	-1135
▁risk	-1136
ify	-1137
▁pain	-1138
illion	-1139
gin	-1140
▁cult	-1141
ton	-1142
ological	-1143
ians	-1144
ified	-1145
▁Be	-1146
▁mark	-1147
ield	-1148
▁law	-1149
▁interest	-1150
▁anal	-1151
erc	-1152
▁et	-1153
orth	-1154
atural	-1155
▁ant	-1156
▁control	-1157
▁Cl	-1158
▁On	-1159
▁opp	-1160
ajor	-1161
▁bas	-1162
ris	-1163
ently	-1164
ccess	-1165
ained	-1166
▁become	-1167
▁rest	-1168
atic	-1169
ining	-1170
▁proper	-1171
ats	-1172
ug	-1173
▁sever	-1174
▁low	-1175
▁Le	-1176
▁better	-1177
▁desc	-1178
▁So	-1179
▁Q	-1180
▁[	-1181
▁method	-1182
rodu	-1183
▁program	-1184
▁keep	-1185
ource	-1186
ills	-1187
ways	-1188
▁move	-1189
▁provide	-1190
▁early	-1191
▁econom	-1192
▁anim	-1193
▁old	-1194
ware	-1195
ider	-1196
▁Pl	-1197
az	-1198
ients	-1199
▁government	-1200
▁leg	-1201
▁par	-1202
rap	-1203
▁here	-1204
▁tre	-1205
ik	-1206
▁against	-1207
▁cause	-1208
▁mil	-1209
ision	-1210
ern	-1211
arc	-1212
hor	-1213
▁perform	-1214
▁real	-1215
▁too	-1216
▁oper	-1217
▁fore	-1218
lished	-1219
▁means	-1220
▁last	-1221
here	-1222
▁avail	-1223
▁Can	-1224
▁order	-1225
▁saf	-1226
tt	-1227
▁—	-1228
ention	-1229
rist	-1230
▁war	-1231
▁second	-1232
▁occur	-1233
▁learning	-1234
▁ele	-1235
▁Col	-1236
str	-1237
▁infl	-1238
▁indu	-1239
▁dev	-1240
▁family	-1241
▁history	-1242
icle	-1243
ories	-1244
▁group	-1245
▁ter	-1246
▁top	-1247
▁particular	-1248
ission	-1249
▁possible	-1250
ards	-1251
▁major	-1252
▁addition	-1253
▁benef	-1254
▁langu	-1255
view	-1256
▁invol	-1257
oid	-1258
ples	-1259
▁current	-1260
▁United	-1261
▁several	-1262
amp	-1263
▁.	-1264
▁15	-1265
▁signific	-1266
▁period	-1267
▁fin	-1268
▁mean	-1269
▁hig	-1270
▁unt	-1271
▁species	-1272
▁say	-1273
▁able	-1274
use	-1275
▁plant	-1276
▁prom	-1277
▁bus	-1278
▁God	-1279
▁near	-1280
▁feel	-1281
ote	-1282
par	-1283
▁happ	-1284
ograph	-1285
▁affect	-1286
irc	-1287
▁One	-1288
▁Comm	-1289
▁orig	-1290
▁Z	-1291
ogn	-1292
▁cal	-1293
▁cost	-1294
▁non	-1295
ina	-1296
▁things	-1297
▁men	-1298
▁percent	-1299
▁open	-1300
▁treatment	-1301
▁lim	-1302
idence	-1303
▁el	-1304
▁All	-1305
▁areas	-1306
▁En	-1307
▁Te	-1308
▁others	-1309
▁since	-1310
▁prevent	-1311
ator	-1312
▁among	-1313
▁scient	-1314
▁mar	-1315
urop	-1316
ane	-1317
ilar	-1318
sy	-1319
osp	-1320
ret	-1321
▁access	-1322
▁following	-1323
▁country	-1324
▁available	-1325
ends	-1326
cing	-1327
▁based	-1328
ling	-1329
ocus	-1330
ended	-1331
▁head	-1332
ots	-1333
though	-1334
▁fre	-1335
▁del	-1336
▁Some	-1337
▁times	-1338
▁cond	-1339
elf	-1340
▁With	-1341
▁fac	-1342
▁says	-1343
ances	-1344
▁name	-1345
ames	-1346
ole	-1347
urther	-1348
port	-1349
▁States	-1350
ploy	-1351
2.	-1352
▁come	-1353
ek	-1354
▁certain	-1355
▁four	-1356
▁case	-1357
▁conn	-1358
▁17	-1359
▁Or	-1360
▁age	-1361
▁month	-1362
to	-1363
sc	-1364
▁lo	-1365
ably	-1366
▁creat	-1367
ww	-1368
une	-1369
▁post	-1370
▁struct	-1371
▁natural	-1372
▁lab	-1373
▁free	-1374
▁run	-1375
▁problem	-1376
▁type	-1377
▁list	-1378
▁impact	-1379
ression	-1380
▁press	-1381
ised	-1382
▁significant	-1383
▁rece	-1384
▁levels	-1385
▁object	-1386
▁local	-1387
aper	-1388
1.	-1389
▁problems	-1390
icult	-1391
eg	-1392
ones	-1393
▁success	-1394
,"	-1395
▁put	-1396
▁gr	-1397
▁bi	-1398
▁ess	-1399
▁intern	-1400
oint	-1401
▁hard	-1402
▁view	-1403
▁National	-1404
urope	-1405
olution	-1406
▁By	-1407
▁bro	-1408
▁vol	-1409
ring	-1410
▁Cent	-1411
▁amount	-1412
▁making	-1413
be	-1414
▁associ	-1415
▁little	-1416
ggest	-1417
ortun	-1418
▁due	-1419
▁mult	-1420
▁bir	-1421
ope	-1422
▁Af	-1423
▁cells	-1424
▁flow	-1425
▁let	-1426
br	-1427
▁focus	-1428
work	-1429
▁cho	-1430
resent	-1431
ledge	-1432
▁young	-1433
▁Christ	-1434
atory	-1435
▁Bl	-1436
ething	-1437
uture	-1438
▁far	-1439
▁vir	-1440
por	-1441
ately	-1442
ication	-1443
▁sw	-1444
▁book	-1445
▁until	-1446
▁short	-1447
▁suggest	-1448
▁behav	-1449
▁Europe	-1450
▁potential	-1451
▁turn	-1452
▁invest	-1453
oks	-1454
▁given	-1455
ither	-1456
▁12	-1457
▁comput	-1458
▁function	-1459
omm	-1460
▁determ	-1461
▁later	-1462
agement	-1463
stit	-1464
▁systems	-1465
ides	-1466
▁education	-1467
▁Fr	-1468
ged	-1469
ured	-1470
▁US	-1471
over	-1472
▁likely	-1473
▁heart	-1474
▁Wor	-1475
▁hy	-1476
▁days	-1477
cle	-1478
▁community	-1479
▁fil	-1480
aken	-1481
▁rad	-1482
▁language	-1483
▁seem	-1484
▁technology	-1485
▁increase	-1486
▁polit	-1487
▁comb	-1488
▁circ	-1489
aps	-1490
face	-1491
▁Med	-1492
ead	-1493
hem	-1494
ending	-1495
▁always	-1496
▁specific	-1497
not	-1498
▁along	-1499
▁create	-1500
▁something	-1501
10	-1502
▁obs	-1503
▁course	-1504
▁16	-1505
▁teac	-1506
pect	-1507
▁results	-1508
▁consum	-1509
▁usually	-1510
▁effective	-1511
▁difficult	-1512
▁experience	-1513
ecially	-1514
▁enc	-1515
▁appear	-1516
vious	-1517
▁temper	-1518
▁dra	-1519
ried	-1520
▁needs	-1521
▁rele	-1522
▁death	-1523
oph	-1524
▁sing	-1525
▁conditions	-1526
ptoms	-1527
ape	-1528
▁various	-1529
aster	-1530
▁clear	-1531
▁That	-1532
▁give	-1533
▁Ear	-1534
▁past	-1535
ember	-1536
pr	-1537
▁similar	-1538
▁parent	-1539
▁today	-1540
▁words	-1541
ators	-1542
▁'	-1543
asing	-1544
▁why	-1545
▁$	-1546
▁While	-1547
▁profess	-1548
etic	-1549
▁brain	-1550
▁dam	-1551
▁ey	-1552
ours	-1553
▁space	-1554
ned	-1555
▁character	-1556
especially	-1557
▁applic	-1558
▁future	-1559
▁Sy	-1560
▁author	-1561
aining	-1562
▁ill	-1563
af	-1564
▁cancer	-1565
3.	-1566
ohn	-1567
▁discuss	-1568
▁exist	-1569
obal	-1570
▁necess	-1571
▁Im	-1572
▁record	-1573
▁line	-1574
▁crit	-1575
▁higher	-1576
▁population	-1577
iation	-1578
ribut	-1579
isc	-1580
▁million	-1581
▁Afric	-1582
ored	-1583
▁across	-1584
▁special	-1585
▁improve	-1586
ilities	-1587
▁require	-1588
ique	-1589
▁next	-1590
mit	-1591
▁changes	-1592
▁century	-1593
▁toget	-1594
▁together	-1595
▁business	-1596
of	-1597
▁tool	-1598
▁try	-1599
▁strong	-1600
▁describ	-1601
▁above	-1602
▁works	-1603
app	-1604
ateg	-1605
orts	-1606
ruction	-1607
▁cr	-1608
put	-1609
idd	-1610
ler	-1611
▁respons	-1612
min	-1613
▁er	-1614
▁countries	-1615
▁least	-1616
rug	-1617
1,	-1618
▁begin	-1619
▁side	-1620
▁plants	-1621
▁working	-1622
▁ask	-1623
▁mov	-1624
▁gre	-1625
oney	-1626
▁prop	-1627
ode	-1628
▁(2	-1629
▁Ab	-1630
atch	-1631
▁however	-1632
▁Brit	-1633
ox	-1634
selves	-1635
aves	-1636
▁patients	-1637
▁ways	-1638
▁mot	-1639
most	-1640
▁never	-1641
▁estab	-1642
▁cy	-1643
amm	-1644
▁Dr	-1645
▁especially	-1646
▁Gen	-1647
ray	-1648
▁complete	-1649
▁effects	-1650
▁enough	-1651
▁kind	-1652
aces	-1653
▁away	-1654
acy	-1655
▁left	-1656
4.	-1657
▁sens	-1658
ysis	-1659
▁team	-1660
omes	-1661
▁researc	-1662
__	-1663
▁colle	-1664
▁chem	-1665
▁1.	-1666
▁consider	-1667
▁After	-1668
▁net	-1669
oot	-1670
▁key	-1671
▁ens	-1672
▁tru	-1673
nal	-1674
ires	-1675
sw	-1676
▁term	-1677
▁cases	-1678
▁John	-1679
▁Go	-1680
▁types	-1681
▁prim	-1682
lement	-1683
▁relations	-1684
thing	-1685
▁subject	-1686
▁studies	-1687
▁having	-1688
aching	-1689
chie	-1690
▁general	-1691
ilt	-1692
▁symptoms	-1693
▁opt	-1694
▁role	-1695
aring	-1696
▁knowledge	-1697
iting	-1698
duct	-1699
▁step	-1700
▁full	-1701
▁protect	-1702
▁influ	-1703
5.	-1704
▁physical	-1705
ales	-1706
side	-1707
▁going	-1708
▁Am	-1709
let	-1710
▁account	-1711
ush	-1712
▁mind	-1713
▁chall	-1714
▁Ne	-1715
▁Germ	-1716
alf	-1717
▁whether	-1718
ipp	-1719
▁lower	-1720
50	-1721
acc	-1722
ument	-1723
//	-1724
▁War	-1725
ges	-1726
▁Stud	-1727
▁self	-1728
▁norm	-1729
▁Health	-1730
oman	-1731
aim	-1732
▁production	-1733
itor	-1734
▁further	-1735
apt	-1736
▁makes	-1737
▁concer	-1738
▁live	-1739
atures	-1740
istic	-1741
▁represent	-1742
▁World	-1743
▁became	-1744
▁house	-1745
▁pred	-1746
ification	-1747
ables	-1748
▁z	-1749
▁polic	-1750
eds	-1751
▁198	-1752
ley	-1753
▁nut	-1754
▁dig	-1755
ued	-1756
ready	-1757
▁ground	-1758
▁English	-1759
ency	-1760
▁sure	-1761
▁Tr	-1762
▁reason	-1763
▁range	-1764
ann	-1765
▁Do	-1766
▁Car	-1767
▁sum	-1768
▁big	-1769
icro	-1770
▁city	-1771
ites	-1772
▁growth	-1773
▁text	-1774
▁science	-1775
▁activities	-1776
▁employ	-1777
▁toward	-1778
▁She	-1779
▁lot	-1780
ibility	-1781
▁fund	-1782
▁model	-1783
://	-1784
aut	-1785
ung	-1786
▁value	-1787
▁indic	-1788
▁quality	-1789
edi	-1790
▁activity	-1791
ott	-1792
▁Resear	-1793
ae	-1794
ery	-1795
▁Intern	-1796
sych	-1797
cul	-1798
▁question	-1799
NA	-1800
▁seen	-1801
iol	-1802
▁Mar	-1803
▁eff	-1804
▁particip	-1805
bon	-1806
verage	-1807
▁resources	-1808
for	-1809
▁loss	-1810
▁products	-1811
▁(19	-1812
▁groups	-1813
ream	-1814
▁already	-1815
▁really	-1816
▁done	-1817
oura	-1818
ird	-1819
▁achie	-1820
▁Ge	-1821
▁below	-1822
▁reduce	-1823
▁wr	-1824
uation	-1825
▁30	-1826
▁diet	-1827
▁close	-1828
▁Pr	-1829
▁wind	-1830
▁fall	-1831
by	-1832
osis	-1833
augh	-1834
rel	-1835
2,	-1836
▁stat	-1837
▁story	-1838
▁skills	-1839
urch	-1840
iple	-1841
▁oil	-1842
▁recogn	-1843
6.	-1844
▁offic	-1845
lo	-1846
▁issues	-1847
erence	-1848
▁rather	-1849
▁article	-1850
▁field	-1851
ee	-1852
▁Cal	-1853
▁word	-1854
▁indust	-1855
▁paper	-1856
▁developed	-1857
fact	-1858
▁climate	-1859
etimes	-1860
▁soil	-1861
▁neg	-1862
▁tradition	-1863
▁deg	-1864
▁either	-1865
leep	-1866
unt	-1867
ands	-1868
▁Acc	-1869
8.	-1870
▁medical	-1871
urity	-1872
▁event	-1873
▁bat	-1874
▁according	-1875
▁ur	-1876
▁single	-1877
overed	-1878
▁abs	-1879
idered	-1880
rams	-1881
▁building	-1882
▁surface	-1883
ival	-1884
9.	-1885
▁prob	-1886
▁source	-1887
mber	-1888
▁mass	-1889
▁init	-1890
▁May	-1891
esc	-1892
▁address	-1893
3,	-1894
▁recomm	-1895
▁site	-1896
amin	-1897
▁rate	-1898
▁South	-1899
7.	-1900
▁phot	-1901
ivity	-1902
▁national	-1903
ask	-1904
ety	-1905
▁concept	-1906
wh	-1907
▁once	-1908
▁flu	-1909
▁observ	-1910
rict	-1911
▁North	-1912
▁collect	-1913
▁Cont	-1914
fficient	-1915
▁taken	-1916
▁Rep	-1917
▁sun	-1918
val	-1919
ison	-1920
▁=	-1921
ER	-1922
▁14	-1923
▁frequ	-1924
▁drug	-1925
▁white	-1926
▁cut	-1927
▁considered	-1928
▁fail	-1929
▁red	-1930
▁five	-1931
▁pressure	-1932
iam	-1933
▁whole	-1934
rect	-1935
▁Man	-1936
▁skin	-1937
▁fr	-1938
▁Ass	-1939
▁America	-1940
▁members	-1941
fer	-1942
▁dom	-1943
▁researchers	-1944
▁meet	-1945
▁market	-1946
ips	-1947
▁evidence	-1948
▁2.	-1949
ublic	-1950
▁size	-1951
▁associated	-1952
▁questions	-1953
▁opportun	-1954
▁Many	-1955
▁tot	-1956
▁themselves	-1957
▁wide	-1958
▁stress	-1959
▁understanding	-1960
eter	-1961
▁doct	-1962
▁fri	-1963
▁nature	-1964
▁ann	-1965
▁upon	-1966
ivil	-1967
ights	-1968
plic	-1969
▁increased	-1970
reme	-1971
▁detail	-1972
▁created	-1973
▁pay	-1974
roll	-1975
▁introdu	-1976
▁healthy	-1977
ule	-1978
▁living	-1979
▁sound	-1980
▁maint	-1981
▁ver	-1982
▁No	-1983
▁practice	-1984
30	-1985
▁sent	-1986
▁relig	-1987
org	-1988
▁animals	-1989
▁Soc	-1990
▁tell	-1991
▁hold	-1992
▁cannot	-1993
▁came	-1994
utions	-1995
▁sal	-1996
ournal	-1997
▁lay	-1998
epend	-1999
▁required	-2000
▁relationship	-2001
5,	-2002
ibr	-2003
ensive	-2004
▁return	-2005
▁political	-2006
▁simple	-2007
ym	-2008
▁histor	-2009
▁ability	-2010
▁engine	-2011
▁week	-2012
▁Act	-2013
aging	-2014
sequ	-2015
illed	-2016
▁related	-2017
▁complex	-2018
▁quick	-2019
▁states	-2020
▁materials	-2021
▁dest	-2022
▁actually	-2023
▁experien	-2024
▁needed	-2025
▁factors	-2026
ening	-2027
▁essential	-2028
▁htt	-2029
▁Pe	-2030
▁adult	-2031
▁entire	-2032
itud	-2033
aced	-2034
yl	-2035
▁global	-2036
reg	-2037
▁11	-2038
▁comes	-2039
▁condition	-2040
▁Dep	-2041
▁famil	-2042
▁student	-2043
▁services	-2044
▁avoid	-2045
▁His	-2046
▁Aust	-2047
▁fish	-2048
like	-2049
▁Hist	-2050
▁management	-2051
▁dog	-2052
▁provides	-2053
▁economic	-2054
▁thought	-2055
▁black	-2056
enn	-2057
▁purp	-2058
▁fat	-2059
▁197	-2060
yn	-2061
▁Fl	-2062
ging	-2063
sh	-2064
ober	-2065
▁port	-2066
▁Gu	-2067
acks	-2068
▁prote	-2069
ai	-2070
▁exerc	-2071
▁published	-2072
oon	-2073
aged	-2074
▁money	-2075
▁idea	-2076
▁doc	-2077
▁parts	-2078
▁Em	-2079
AS	-2080
hing	-2081
ney	-2082
▁assess	-2083
chan	-2084
▁answ	-2085
▁almost	-2086
▁necessary	-2087
▁X	-2088
▁cat	-2089
▁vers	-2090
▁approach	-2091
▁modern	-2092
▁coll	-2093
oses	-2094
ump	-2095
eb	-2096
artment	-2097
▁More	-2098
▁York	-2099
▁itself	-2100
▁weight	-2101
▁Co	-2102
erve	-2103
▁path	-2104
rad	-2105
▁arg	-2106
▁Here	-2107
vere	-2108
hib	-2109
▁Earth	-2110
▁mor	-2111
lying	-2112
▁months	-2113
ened	-2114
mon	-2115
):	-2116
▁gas	-2117
▁produce	-2118
▁individuals	-2119
izing	-2120
go	-2121
-2	-2122
eding	-2123
▁measure	-2124
▁Most	-2125
4,	-2126
▁rights	-2127
▁soft	-2128
▁medic	-2129
11	-2130
▁analysis	-2131
based	-2132
▁green	-2133
▁parents	-2134
ences	-2135
ores	-2136
uel	-2137
▁suff	-2138
▁color	-2139
▁priv	-2140
▁State	-2141
gest	-2142
usion	-2143
▁personal	-2144
▁arch	-2145
itary	-2146
▁react	-2147
urs	-2148
bo	-2149
▁tar	-2150
▁link	-2151
▁therap	-2152
▁super	-2153
▁emer	-2154
▁pattern	-2155
▁bar	-2156
▁job	-2157
ply	-2158
▁100	-2159
olic	-2160
▁half	-2161
▁Su	-2162
▁popular	-2163
abor	-2164
▁conduct	-2165
▁Although	-2166
▁chemical	-2167
▁sam	-2168
▁throughout	-2169
▁arr	-2170
▁Research	-2171
▁reading	-2172
nces	-2173
▁took	-2174
▁ever	-2175
onse	-2176
▁liter	-2177
▁region	-2178
▁clean	-2179
emic	-2180
ections	-2181
▁computer	-2182
▁farm	-2183
▁repl	-2184
rown	-2185
▁content	-2186
▁stop	-2187
▁began	-2188
▁increasing	-2189
▁separ	-2190
▁online	-2191
irm	-2192
▁sense	-2193
▁taking	-2194
▁training	-2195
6,	-2196
utes	-2197
anced	-2198
▁fire	-2199
ma	-2200
▁shows	-2201
▁win	-2202
▁regard	-2203
oll	-2204
▁ge	-2205
iction	-2206
hold	-2207
▁sleep	-2208
▁claim	-2209
abit	-2210
▁action	-2211
▁ut	-2212
erous	-2213
".	-2214
▁interact	-2215
▁yet	-2216
igure	-2217
▁longer	-2218
ID	-2219
8,	-2220
▁princ	-2221
9,	-2222
▁benefits	-2223
pro	-2224
▁Your	-2225
pid	-2226
▁society	-2227
▁cop	-2228
▁company	-2229
iddle	-2230
ising	-2231
▁industry	-2232
het	-2233
▁rul	-2234
▁temperature	-2235
▁Canad	-2236
▁inj	-2237
empt	-2238
ese	-2239
▁writing	-2240
▁anc	-2241
▁Jew	-2242
icles	-2243
▁bur	-2244
ively	-2245
▁recent	-2246
▁previous	-2247
▁According	-2248
7,	-2249
▁British	-2250
ume	-2251
▁diagn	-2252
son	-2253
▁service	-2254
▁behavior	-2255
▁environmental	-2256
reng	-2257
▁talk	-2258
▁Pre	-2259
▁caused	-2260
▁196	-2261
ches	-2262
▁terms	-2263
▁total	-2264
▁hours	-2265
astic	-2266
yle	-2267
ript	-2268
▁Per	-2269
itation	-2270
my	-2271
uck	-2272
▁deb	-2273
▁structure	-2274
ulations	-2275
▁built	-2276
▁Me	-2277
▁disord	-2278
▁la	-2279
▁safe	-2280
▁heat	-2281
▁meaning	-2282
▁travel	-2283
▁break	-2284
iment	-2285
▁causes	-2286
▁contact	-2287
▁surv	-2288
▁six	-2289
▁positive	-2290
▁position	-2291
apan	-2292
▁Sec	-2293
▁check	-2294
▁50	-2295
ES	-2296
▁Other	-2297
▁School	-2298
mb	-2299
▁Par	-2300
▁Int	-2301
▁matter	-2302
aily	-2303
▁easy	-2304
▁contain	-2305
lt	-2306
▁lives	-2307
▁heav	-2308
fully	-2309
▁App	-2310
estern	-2311
ze	-2312
AT	-2313
▁mach	-2314
ns	-2315
▁Instit	-2316
▁sex	-2317
▁conc	-2318
ows	-2319
ropri	-2320
istance	-2321
▁designed	-2322
▁sat	-2323
▁From	-2324
▁schools	-2325
▁ce	-2326
▁fru	-2327
lex	-2328
▁spread	-2329
▁provided	-2330
▁Qu	-2331
ricult	-2332
▁CO	-2333
▁shown	-2334
minist	-2335
▁etc	-2336
▁regular	-2337
▁thing	-2338
▁helps	-2339
▁rev	-2340
▁includes	-2341
▁vide	-2342
▁vari	-2343
ronic	-2344
.)	-2345
▁prec	-2346
▁bring	-2347
▁II	-2348
aff	-2349
201	-2350
▁variety	-2351
▁methods	-2352
▁wild	-2353
▁true	-2354
▁13	-2355
istics	-2356
▁Us	-2357
▁accept	-2358
aving	-2359
inary	-2360
asc	-2361
▁Comp	-2362
▁music	-2363
vey	-2364
▁India	-2365
▁bacter	-2366
hood	-2367
▁lif	-2368
▁deep	-2369
ene	-2370
▁eat	-2371
▁ensure	-2372
ufact	-2373
ederal	-2374
gar	-2375
▁3.	-2376
▁target	-2377
▁average	-2378
▁ste	-2379
▁fem	-2380
▁love	-2381
▁programs	-2382
▁believe	-2383
▁damage	-2384
▁Pres	-2385
▁viol	-2386
▁mechan	-2387
▁carbon	-2388
atives	-2389
▁Japan	-2390
rior	-2391
▁Will	-2392
AR	-2393
verse	-2394
▁Of	-2395
ners	-2396
▁subst	-2397
imately	-2398
abet	-2399
▁slow	-2400
ched	-2401
▁poll	-2402
rast	-2403
aries	-2404
rought	-2405
ster	-2406
▁identify	-2407
▁standard	-2408
▁194	-2409
▁compan	-2410
▁relative	-2411
▁Cons	-2412
ister	-2413
lands	-2414
▁simply	-2415
▁issue	-2416
aling	-2417
▁threat	-2418
▁greater	-2419
▁Rec	-2420
▁led	-2421
▁streng	-2422
▁Not	-2423
▁review	-2424
▁encoura	-2425
▁Ed	-2426
▁earth	-2427
▁response	-2428
▁origin	-2429
▁emot	-2430
▁face	-2431
▁sources	-2432
▁respect	-2433
ades	-2434
▁doing	-2435
▁culture	-2436
▁remov	-2437
▁foods	-2438
▁challeng	-2439
▁exc	-2440
▁Part	-2441
▁uses	-2442
▁Science	-2443
▁compon	-2444
eration	-2445
▁movement	-2446
▁sometimes	-2447
▁reported	-2448
▁0	-2449
▁outside	-2450
arily	-2451
▁compet	-2452
duc	-2453
▁original	-2454
▁Min	-2455
▁scientists	-2456
▁events	-2457
dom	-2458
▁King	-2459
▁psych	-2460
▁sust	-2461
▁involved	-2462
▁bal	-2463
▁demon	-2464
amed	-2465
aches	-2466
know	-2467
elling	-2468
light	-2469
▁micro	-2470
ials	-2471
osition	-2472
▁tax	-2473
▁integ	-2474
▁normal	-2475
new	-2476
ength	-2477
▁attention	-2478
oor	-2479
▁cust	-2480
▁particularly	-2481
rand	-2482
▁forms	-2483
ban	-2484
▁implement	-2485
▁written	-2486
▁webs	-2487
▁lack	-2488
▁poor	-2489
▁Ag	-2490
ender	-2491
▁developing	-2492
▁camp	-2493
▁--	-2494
▁image	-2495
▁emb	-2496
▁ple	-2497
▁electric	-2498
▁refer	-2499
uge	-2500
▁,	-2501
▁•	-2502
▁harm	-2503
▁Austral	-2504
issions	-2505
ctions	-2506
▁safety	-2507
oles	-2508
ises	-2509
▁First	-2510
▁pict	-2511
rench	-2512
▁produced	-2513
▁serious	-2514
▁Gl	-2515
▁extreme	-2516
hel	-2517
▁share	-2518
▁Our	-2519
▁China	-2520
▁forest	-2521
room	-2522
▁Now	-2523
▁Ke	-2524
▁generally	-2525
osure	-2526
▁virus	-2527
▁growing	-2528
▁Har	-2529
▁basic	-2530
▁displ	-2531
▁network	-2532
▁Bec	-2533
▁patient	-2534
▁log	-2535
▁appl	-2536
▁teachers	-2537
ucle	-2538
umb	-2539
▁page	-2540
idge	-2541
rated	-2542
▁aware	-2543
ervation	-2544
▁attempt	-2545
▁select	-2546
ming	-2547
▁visit	-2548
ops	-2549
▁doesn	-2550
▁correct	-2551
▁During	-2552
▁consist	-2553
▁aff	-2554
ached	-2555
osing	-2556
▁feet	-2557
▁wood	-2558
▁manufact	-2559
▁late	-2560
:1	-2561
▁My	-2562
▁draw	-2563
ief	-2564
▁lat	-2565
ems	-2566
▁getting	-2567
isions	-2568
▁continue	-2569
▁ir	-2570
▁Count	-2571
▁numbers	-2572
▁ox	-2573
▁force	-2574
▁squ	-2575
ads	-2576
▁coun	-2577
▁25	-2578
▁kids	-2579
▁mental	-2580
bor	-2581
▁performance	-2582
▁attack	-2583
▁included	-2584
fect	-2585
▁animal	-2586
▁El	-2587
cies	-2588
▁Child	-2589
▁magn	-2590
irit	-2591
▁Ac	-2592
▁Sm	-2593
▁mess	-2594
▁Jan	-2595
cil	-2596
▁independ	-2597
▁takes	-2598
set	-2599
▁someone	-2600
▁easily	-2601
▁media	-2602
▁defin	-2603
▁veget	-2604
▁allows	-2605
eed	-2606
▁financ	-2607
imum	-2608
▁prep	-2609
▁Bo	-2610
▁hyd	-2611
▁Educ	-2612
▁vacc	-2613
▁ap	-2614
--	-2615
▁express	-2616
▁probably	-2617
▁ideas	-2618
▁daily	-2619
rim	-2620
▁commit	-2621
▁looking	-2622
▁night	-2623
ribution	-2624
uth	-2625
ties	-2626
ana	-2627
▁...	-2628
▁print	-2629
▁series	-2630
▁tools	-2631
vention	-2632
ground	-2633
▁Ju	-2634
▁policy	-2635
raft	-2636
▁traditional	-2637
▁dou	-2638
▁therefore	-2639
▁offer	-2640
▁i	-2641
▁Aug	-2642
▁communities	-2643
▁Art	-2644
ided	-2645
iency	-2646
▁international	-2647
▁concent	-2648
▁colon	-2649
▁unique	-2650
asons	-2651
IS	-2652
▁appropri	-2653
▁bab	-2654
▁mother	-2655
ha	-2656
▁warm	-2657
▁Tw	-2658
▁achieve	-2659
ography	-2660
▁difference	-2661
▁quite	-2662
▁thus	-2663
▁diseases	-2664
▁fa	-2665
IN	-2666
▁primary	-2667
▁cover	-2668
iot	-2669
▁determine	-2670
hy	-2671
rie	-2672
oly	-2673
▁cit	-2674
ension	-2675
▁tree	-2676
▁investig	-2677
▁/	-2678
▁started	-2679
▁wall	-2680
▁instead	-2681
▁ago	-2682
▁ful	-2683
itude	-2684
▁Center	-2685
▁progress	-2686
ino	-2687
▁dang	-2688
▁sea	-2689
Th	-2690
▁Tra	-2691
▁earl	-2692
▁multiple	-2693
▁cross	-2694
▁vit	-2695
▁leaders	-2696
▁Reg	-2697
▁eth	-2698
▁Even	-2699
erg	-2700
overy	-2701
▁quickly	-2702
▁sil	-2703
haps	-2704
▁instit	-2705
▁tur	-2706
rs	-2707
▁European	-2708
▁eval	-2709
cell	-2710
▁companies	-2711
▁inside	-2712
▁Since	-2713
▁decre	-2714
▁humans	-2715
ancy	-2716
erson	-2717
▁tiss	-2718
▁town	-2719
▁capt	-2720
▁estim	-2721
▁fav	-2722
▁feed	-2723
▁tend	-2724
▁compared	-2725
▁rout	-2726
▁books	-2727
ying	-2728
rate	-2729
▁added	-2730
▁Calif	-2731
▁div	-2732
rew	-2733
▁Indian	-2734
▁0.	-2735
ror	-2736
▁reflect	-2737
inks	-2738
▁scientific	-2739
▁theory	-2740
▁points	-2741
▁nation	-2742
▁infection	-2743
▁thous	-2744
where	-2745
▁security	-2746
ington	-2747
▁Lear	-2748
▁altern	-2749
anks	-2750
▁sold	-2751
▁larger	-2752
▁reve	-2753
▁dry	-2754
▁immedi	-2755
uary	-2756
ellow	-2757
ille	-2758
na	-2759
▁sou	-2760
▁trees	-2761
ius	-2762
▁directly	-2763
▁highly	-2764
▁third	-2765
▁established	-2766
joy	-2767
▁gard	-2768
▁eye	-2769
▁held	-2770
▁civil	-2771
iques	-2772
▁solar	-2773
www	-2774
▁Jes	-2775
0,	-2776
ls	-2777
▁additional	-2778
▁answer	-2779
term	-2780
▁speak	-2781
ounds	-2782
abetes	-2783
▁aspect	-2784
▁critical	-2785
▁demonstr	-2786
▁exercise	-2787
▁drink	-2788
▁French	-2789
nov	-2790
▁negative	-2791
▁clin	-2792
▁foot	-2793
▁severe	-2794
elt	-2795
ift	-2796
▁military	-2797
▁Char	-2798
▁Californ	-2799
▁proced	-2800
▁Institute	-2801
▁front	-2802
▁Apr	-2803
▁Her	-2804
▁document	-2805
▁stay	-2806
▁prior	-2807
▁aud	-2808
▁host	-2809
▁March	-2810
▁active	-2811
▁towards	-2812
▁acid	-2813
▁bit	-2814
▁Read	-2815
▁behind	-2816
▁leading	-2817
19	-2818
▁Department	-2819
▁analy	-2820
▁extra	-2821
gency	-2822
▁soon	-2823
▁accur	-2824
▁families	-2825
ulate	-2826
▁birth	-2827
▁Ant	-2828
▁labor	-2829
12	-2830
▁transport	-2831
▁hor	-2832
▁Africa	-2833
▁West	-2834
▁Why	-2835
▁har	-2836
itis	-2837
▁walk	-2838
▁supply	-2839
cial	-2840
▁although	-2841
eks	-2842
▁broad	-2843
AN	-2844
useum	-2845
iers	-2846
▁custom	-2847
undred	-2848
vant	-2849
▁Mus	-2850
▁Oct	-2851
▁tri	-2852
▁doctor	-2853
▁hot	-2854
▁California	-2855
▁International	-2856
uries	-2857
▁aim	-2858
▁bad	-2859
den	-2860
▁central	-2861
▁expect	-2862
▁strateg	-2863
▁teaching	-2864
▁useful	-2865
att	-2866
cean	-2867
▁African	-2868
▁History	-2869
▁features	-2870
▁values	-2871
▁40	-2872
▁obt	-2873
▁stra	-2874
oes	-2875
▁quant	-2876
▁Mon	-2877
▁software	-2878
yond	-2879
▁contribut	-2880
▁situation	-2881
isms	-2882
▁video	-2883
▁Russ	-2884
▁(200	-2885
▁protein	-2886
▁German	-2887
▁Br	-2888
▁http	-2889
▁card	-2890
▁Inc	-2891
thern	-2892
▁fram	-2893
▁Because	-2894
▁4.	-2895
▁limited	-2896
omet	-2897
▁purpose	-2898
aly	-2899
oring	-2900
arr	-2901
▁shall	-2902
fl	-2903
▁went	-2904
ils	-2905
▁Sch	-2906
▁habit	-2907
▁ones	-2908
▁Cor	-2909
▁seems	-2910
fort	-2911
rition	-2912
▁sustain	-2913
We	-2914
▁requires	-2915
▁elements	-2916
▁Sw	-2917
OR	-2918
▁pack	-2919
ching	-2920
▁Sim	-2921
▁beginning	-2922
formation	-2923
▁hands	-2924
▁section	-2925
▁June	-2926
▁Sept	-2927
▁enjoy	-2928
pe	-2929
oming	-2930
▁1,	-2931
▁waste	-2932
mar	-2933
▁financial	-2934
▁decl	-2935
▁protection	-2936
hens	-2937
▁search	-2938
iber	-2939
-3	-2940
▁whose	-2941
▁rates	-2942
▁mom	-2943
ON	-2944
ologies	-2945
▁application	-2946
▁contains	-2947
▁Then	-2948
▁24	-2949
▁workers	-2950
▁August	-2951
▁Dav	-2952
▁mount	-2953
▁minutes	-2954
▁Also	-2955
hern	-2956
▁fight	-2957
▁base	-2958
▁devices	-2959
▁lost	-2960
▁influence	-2961
rogen	-2962
▁capital	-2963
▁April	-2964
izations	-2965
▁Gree	-2966
uman	-2967
lection	-2968
olar	-2969
”.	-2970
▁Bar	-2971
ext	-2972
gn	-2973
▁news	-2974
▁interp	-2975
▁thinking	-2976
ields	-2977
▁write	-2978
▁leaves	-2979
coh	-2980
▁Let	-2981
▁disp	-2982
inct	-2983
▁ancient	-2984
▁unc	-2985
ilos	-2986
▁costs	-2987
▁ang	-2988
▁private	-2989
▁*	-2990
▁Jesus	-2991
▁block	-2992
▁exact	-2993
▁fast	-2994
▁else	-2995
▁dark	-2996
▁stri	-2997
▁importance	-2998
hest	-2999
▁demand	-3000
▁processes	-3001
▁Serv	-3002
▁game	-3003
▁adults	-3004
▁cred	-3005
yr	-3006
▁symb	-3007
▁Over	-3008
▁length	-3009
▁sn	-3010
▁Fin	-3011
▁capac	-3012
▁typically	-3013
wise	-3014
▁solution	-3015
▁jo	-3016
vest	-3017
uk	-3018
-19	-3019
▁stru	-3020
▁veh	-3021
▁communication	-3022
istry	-3023
▁decision	-3024
▁except	-3025
ipment	-3026
estic	-3027
▁Ret	-3028
▁images	-3029
iter	-3030
imin	-3031
pper	-3032
▁agricult	-3033
equ	-3034
▁techniques	-3035
▁website	-3036
IC	-3037
▁July	-3038
▁weeks	-3039
cks	-3040
▁speed	-3041
▁jud	-3042
ription	-3043
▁got	-3044
▁received	-3045
▁hundred	-3046
▁projects	-3047
▁Wash	-3048
▁brought	-3049
▁goal	-3050
▁administ	-3051
▁Mc	-3052
▁adop	-3053
▁fit	-3054
▁described	-3055
▁River	-3056
▁carry	-3057
▁appropriate	-3058
▁bacteria	-3059
▁People	-3060
▁located	-3061
▁Ec	-3062
▁wa	-3063
▁season	-3064
▁reach	-3065
▁lines	-3066
imal	-3067
rote	-3068
▁largest	-3069
▁Day	-3070
▁nearly	-3071
mission	-3072
▁places	-3073
idents	-3074
▁beaut	-3075
orthern	-3076
ulated	-3077
▁ult	-3078
▁nucle	-3079
▁ord	-3080
sect	-3081
▁becomes	-3082
▁adj	-3083
odies	-3084
▁creating	-3085
▁mention	-3086
▁adapt	-3087
▁x	-3088
▁testing	-3089
▁install	-3090
IV	-3091
▁tests	-3092
▁table	-3093
▁memory	-3094
▁applications	-3095
▁ep	-3096
▁William	-3097
▁laws	-3098
▁Use	-3099
▁Techn	-3100
▁agree	-3101
rag	-3102
▁Are	-3103
▁respond	-3104
▁remain	-3105
▁mill	-3106
▁Another	-3107
izes	-3108
▁egg	-3109
▁efforts	-3110
▁mix	-3111
▁north	-3112
▁establish	-3113
▁remains	-3114
▁Americans	-3115
▁cool	-3116
used	-3117
ibrary	-3118
oud	-3119
▁rare	-3120
▁Dis	-3121
uous	-3122
▁cru	-3123
lim	-3124
▁therapy	-3125
come	-3126
▁surround	-3127
▁Prog	-3128
▁President	-3129
▁Press	-3130
iles	-3131
▁Associ	-3132
▁advant	-3133
▁Inst	-3134
▁breat	-3135
▁cultural	-3136
▁sites	-3137
▁rapid	-3138
▁eating	-3139
▁teeth	-3140
▁summer	-3141
▁monitor	-3142
▁deal	-3143
▁property	-3144
▁transl	-3145
▁religious	-3146
▁Govern	-3147
▁crop	-3148
▁Canada	-3149
▁Red	-3150
▁Christian	-3151
▁Trans	-3152
▁born	-3153
resh	-3154
▁eyes	-3155
▁told	-3156
▁friends	-3157
▁practices	-3158
itect	-3159
▁mole	-3160
In	-3161
▁accom	-3162
▁stage	-3163
▁gives	-3164
iece	-3165
▁behavi	-3166
▁High	-3167
bit	-3168
▁Just	-3169
inese	-3170
▁cold	-3171
▁pan	-3172
▁autom	-3173
▁teacher	-3174
atur	-3175
▁sugar	-3176
year	-3177
▁providing	-3178
AC	-3179
▁vict	-3180
itable	-3181
▁Education	-3182
▁digital	-3183
EN	-3184
oke	-3185
▁enh	-3186
aid	-3187
▁Develop	-3188
ellig	-3189
med	-3190
▁Cong	-3191
▁basis	-3192
rael	-3193
▁Each	-3194
iar	-3195
▁seek	-3196
▁reasons	-3197
▁father	-3198
▁dead	-3199
▁web	-3200
▁south	-3201
cles	-3202
tery	-3203
▁responsible	-3204
ipl	-3205
back	-3206
▁room	-3207
▁England	-3208
arian	-3209
life	-3210
▁citiz	-3211
▁fuel	-3212
▁code	-3213
ceed	-3214
ding	-3215
▁professional	-3216
▁died	-3217
▁cele	-3218
▁calcul	-3219
▁construction	-3220
▁anything	-3221
▁everything	-3222
ogen	-3223
▁device	-3224
cohol	-3225
▁Park	-3226
▁overall	-3227
ED	-3228
▁center	-3229
▁Great	-3230
▁final	-3231
ype	-3232
▁Sur	-3233
▁hope	-3234
▁miles	-3235
▁Mod	-3236
▁saw	-3237
▁Once	-3238
▁screen	-3239
▁:	-3240
▁himself	-3241
▁gradu	-3242
aul	-3243
16	-3244
▁cou	-3245
It	-3246
▁connect	-3247
▁yourself	-3248
uments	-3249
▁Journal	-3250
ony	-3251
▁choose	-3252
▁affected	-3253
water	-3254
▁benefit	-3255
ham	-3256
▁equipment	-3257
ribute	-3258
▁der	-3259
ondon	-3260
▁exposure	-3261
▁bott	-3262
eal	-3263
illing	-3264
▁models	-3265
ira	-3266
▁command	-3267
▁coast	-3268
▁ice	-3269
▁communic	-3270
▁Church	-3271
▁depend	-3272
▁receive	-3273
▁guid	-3274
▁consequ	-3275
▁Water	-3276
▁expected	-3277
▁Commun	-3278
▁opportunity	-3279
▁Pat	-3280
see	-3281
▁anti	-3282
▁spirit	-3283
▁imag	-3284
head	-3285
▁cam	-3286
strial	-3287
▁Bi	-3288
▁son	-3289
▁cra	-3290
▁recently	-3291
80	-3292
▁beyond	-3293
▁older	-3294
▁hous	-3295
wor	-3296
ford	-3297
▁sequ	-3298
▁trade	-3299
▁September	-3300
▁recommend	-3301
aught	-3302
▁examples	-3303
▁nothing	-3304
▁legal	-3305
mosp	-3306
▁Pol	-3307
cember	-3308
▁pen	-3309
▁Feb	-3310
▁und	-3311
▁weather	-3312
▁visual	-3313
▁rain	-3314
▁21	-3315
▁objects	-3316
▁insp	-3317
▁Washington	-3318
ama	-3319
▁followed	-3320
▁City	-3321
▁pet	-3322
▁controll	-3323
▁mid	-3324
ula	-3325
iable	-3326
▁strength	-3327
▁Chinese	-3328
▁Vir	-3329
▁Prof	-3330
▁January	-3331
▁conflic	-3332
▁fear	-3333
▁hyp	-3334
sec	-3335
▁maintain	-3336
▁middle	-3337
▁asked	-3338
ran	-3339
▁ten	-3340
▁diabetes	-3341
▁bul	-3342
40	-3343
bur	-3344
▁everyone	-3345
exic	-3346
▁smaller	-3347
▁sett	-3348
ests	-3349
▁October	-3350
▁alone	-3351
▁location	-3352
▁Under	-3353
▁occurs	-3354
time	-3355
▁forces	-3356
▁System	-3357
▁economy	-3358
▁organization	-3359
▁rock	-3360
▁woman	-3361
▁king	-3362
iples	-3363
▁trying	-3364
▁IS	-3365
▁won	-3366
▁Black	-3367
uff	-3368
▁Israel	-3369
▁degree	-3370
▁federal	-3371
▁shape	-3372
▁currently	-3373
▁users	-3374
▁Tod	-3375
▁rob	-3376
▁swe	-3377
▁measures	-3378
ospital	-3379
ought	-3380
▁successful	-3381
▁pregn	-3382
▁completely	-3383
ovember	-3384
▁via	-3385
rees	-3386
▁goes	-3387
▁commonly	-3388
▁date	-3389
airs	-3390
▁rules	-3391
▁differences	-3392
▁rise	-3393
▁scale	-3394
____	-3395
enge	-3396
▁birds	-3397
▁predict	-3398
▁instru	-3399
▁standards	-3400
▁purch	-3401
vert	-3402
load	-3403
IT	-3404
▁constant	-3405
PA	-3406
▁user	-3407
▁steps	-3408
▁beg	-3409
isl	-3410
▁isn	-3411
apter	-3412
anish	-3413
oe	-3414
▁wrote	-3415
▁Cur	-3416
ensity	-3417
▁constit	-3418
▁Don	-3419
▁effort	-3420
▁winter	-3421
▁earlier	-3422
▁virt	-3423
▁tit	-3424
amic	-3425
▁leave	-3426
▁drugs	-3427
▁interesting	-3428
▁collection	-3429
15	-3430
-0	-3431
book	-3432
▁County	-3433
con	-3434
mitted	-3435
▁reduced	-3436
▁Val	-3437
wide	-3438
▁perfect	-3439
▁file	-3440
▁signs	-3441
▁joint	-3442
▁hon	-3443
ech	-3444
▁fruit	-3445
▁ball	-3446
▁202	-3447
▁max	-3448
▁Mexic	-3449
▁London	-3450
rick	-3451
▁exec	-3452
▁approx	-3453
▁planet	-3454
▁poly	-3455
▁electr	-3456
▁mob	-3457
▁powerful	-3458
▁Law	-3459
ica	-3460
ari	-3461
▁December	-3462
▁identified	-3463
men	-3464
▁rich	-3465
omb	-3466
▁placed	-3467
▁mis	-3468
▁East	-3469
▁categ	-3470
▁Cour	-3471
▁named	-3472
▁context	-3473
▁track	-3474
▁allowed	-3475
▁Arch	-3476
▁nutri	-3477
▁enter	-3478
▁historical	-3479
60	-3480
▁discovered	-3481
▁immune	-3482
▁genetic	-3483
▁member	-3484
aur	-3485
▁billion	-3486
▁tox	-3487
▁neigh	-3488
▁patterns	-3489
▁commerc	-3490
▁General	-3491
▁former	-3492
▁applied	-3493
▁sect	-3494
ocr	-3495
▁road	-3496
▁193	-3497
ocol	-3498
);	-3499
iest	-3500
bre	-3501
▁Aut	-3502
ara	-3503
▁wond	-3504
rig	-3505
▁acqu	-3506
itch	-3507
▁emissions	-3508
▁display	-3509
lin	-3510
gery	-3511
▁remember	-3512
....	-3513
▁occup	-3514
oration	-3515
▁Their	-3516
▁coming	-3517
25	-3518
▁continued	-3519
edom	-3520
▁Thus	-3521
ocks	-3522
ords	-3523
▁DNA	-3524
ibly	-3525
▁limit	-3526
ingu	-3527
▁miss	-3528
uit	-3529
▁destro	-3530
▁teach	-3531
▁properties	-3532
ev	-3533
enty	-3534
▁challenges	-3535
▁symbol	-3536
irection	-3537
▁presence	-3538
▁sch	-3539
▁San	-3540
▁illness	-3541
▁anx	-3542
▁efficient	-3543
▁November	-3544
▁den	-3545
▁situ	-3546
▁choice	-3547
▁Prot	-3548
▁rule	-3549
▁machine	-3550
▁gold	-3551
▁mouth	-3552
▁cook	-3553
reet	-3554
▁eight	-3555
aled	-3556
▁compar	-3557
▁Che	-3558
▁bra	-3559
edia	-3560
▁mig	-3561
▁acad	-3562
▁Coun	-3563
aint	-3564
▁note	-3565
co	-3566
▁majority	-3567
▁+	-3568
▁formed	-3569
▁asse	-3570
▁195	-3571
▁promot	-3572
▁showed	-3573
▁version	-3574
▁effic	-3575
▁status	-3576
ste	-3577
▁pow	-3578
▁stim	-3579
▁incor	-3580
bl	-3581
▁mal	-3582
▁60	-3583
▁opportunities	-3584
▁Conf	-3585
▁church	-3586
▁strugg	-3587
osy	-3588
cious	-3589
▁court	-3590
▁rat	-3591
care	-3592
▁capacity	-3593
▁cry	-3594
▁assist	-3595
more	-3596
▁dat	-3597
▁Roman	-3598
▁components	-3599
▁actions	-3600
▁fair	-3601
ruary	-3602
▁increases	-3603
ament	-3604
encies	-3605
▁Children	-3606
▁tissue	-3607
▁factor	-3608
related	-3609
▁Environment	-3610
phas	-3611
▁belief	-3612
▁emp	-3613
▁Rel	-3614
▁baby	-3615
ees	-3616
▁Spec	-3617
iring	-3618
▁atmosp	-3619
▁offers	-3620
▁cities	-3621
▁gave	-3622
aste	-3623
▁fully	-3624
▁House	-3625
▁female	-3626
▁TH	-3627
aters	-3628
▁Ro	-3629
hemat	-3630
que	-3631
▁tou	-3632
▁relatively	-3633
known	-3634
13	-3635
▁Every	-3636
unch	-3637
▁worth	-3638
▁task	-3639
▁See	-3640
abilities	-3641
▁changed	-3642
rab	-3643
▁hair	-3644
▁moment	-3645
▁Today	-3646
▁educational	-3647
▁perhaps	-3648
▁gir	-3649
▁5.	-3650
off	-3651
▁Public	-3652
▁moving	-3653
▁fresh	-3654
▁root	-3655
▁illust	-3656
▁didn	-3657
▁stories	-3658
can	-3659
▁convers	-3660
▁price	-3661
iful	-3662
odes	-3663
▁strategies	-3664
iate	-3665
craft	-3666
▁functions	-3667
▁staff	-3668
udd	-3669
▁innov	-3670
▁architect	-3671
▁distance	-3672
▁philos	-3673
▁ast	-3674
▁Australia	-3675
18	-3676
▁alcohol	-3677
▁Society	-3678
rehens	-3679
▁Union	-3680
▁names	-3681
▁peace	-3682
inated	-3683
amb	-3684
▁assign	-3685
▁ing	-3686
▁garden	-3687
▁piece	-3688
▁antib	-3689
▁consumption	-3690
▁unit	-3691
▁forward	-3692
▁instance	-3693
▁vill	-3694
rupt	-3695
AL	-3696
▁existing	-3697
force	-3698
▁options	-3699
▁significantly	-3700
▁balance	-3701
▁evolution	-3702
▁susp	-3703
▁appears	-3704
▁UK	-3705
▁giving	-3706
▁Green	-3707
▁#	-3708
house	-3709
▁evalu	-3710
▁Medic	-3711
▁construct	-3712
ternal	-3713
▁Inter	-3714
▁transfer	-3715
▁mut	-3716
▁Germany	-3717
▁worked	-3718
iences	-3719
▁Students	-3720
▁Lat	-3721
emy	-3722
rief	-3723
▁Des	-3724
▁tele	-3725
orge	-3726
▁expand	-3727
▁absor	-3728
alt	-3729
▁Av	-3730
▁Jewish	-3731
▁observed	-3732
▁collabor	-3733
14	-3734
▁explore	-3735
▁Phil	-3736
▁repe	-3737
resp	-3738
lor	-3739
▁detect	-3740
▁running	-3741
▁wid	-3742
▁experiences	-3743
▁element	-3744
▁milk	-3745
orage	-3746
gypt	-3747
▁findings	-3748
ero	-3749
▁income	-3750
▁regions	-3751
aign	-3752
▁vo	-3753
▁equal	-3754
▁gain	-3755
icip	-3756
rieved	-3757
▁picture	-3758
▁reports	-3759
iny	-3760
▁friend	-3761
era	-3762
▁resistance	-3763
▁planning	-3764
▁thousands	-3765
▁foreign	-3766
▁river	-3767
▁Rem	-3768
▁plastic	-3769
▁February	-3770
▁box	-3771
▁vision	-3772
▁weak	-3773
▁qual	-3774
ession	-3775
”,	-3776
ux	-3777
▁contract	-3778
▁util	-3779
▁blue	-3780
rome	-3781
▁muscle	-3782
EC	-3783
▁insect	-3784
▁fert	-3785
▁Therefore	-3786
▁breast	-3787
▁clinical	-3788
▁disorder	-3789
▁guide	-3790
▁direction	-3791
▁huge	-3792
ygen	-3793
▁Ang	-3794
▁map	-3795
▁goals	-3796
rec	-3797
▁pp	-3798
▁star	-3799
▁instruct	-3800
ifically	-3801
▁believed	-3802
▁experim	-3803
igen	-3804
▁technologies	-3805
▁Work	-3806
▁wrong	-3807
▁Dec	-3808
▁style	-3809
▁Association	-3810
▁organizations	-3811
▁famous	-3812
▁mission	-3813
",	-3814
bed	-3815
▁requirements	-3816
hors	-3817
▁iron	-3818
▁defined	-3819
▁native	-3820
▁France	-3821
▁chance	-3822
omas	-3823
▁suggests	-3824
▁Bra	-3825
▁Food	-3826
▁assum	-3827
▁treated	-3828
▁feature	-3829
▁watch	-3830
asks	-3831
▁items	-3832
▁office	-3833
▁classroom	-3834
▁Mat	-3835
▁bound	-3836
▁UN	-3837
▁survey	-3838
▁apply	-3839
▁easier	-3840
▁Congress	-3841
▁Lord	-3842
yd	-3843
▁details	-3844
▁explain	-3845
▁extremely	-3846
▁Social	-3847
▁Pal	-3848
▁James	-3849
ogle	-3850
▁spect	-3851
▁passed	-3852
17	-3853
▁glass	-3854
▁attract	-3855
do	-3856
▁Using	-3857
▁citizens	-3858
▁fix	-3859
oma	-3860
▁plans	-3861
▁excess	-3862
ss	-3863
asion	-3864
▁celebr	-3865
▁separate	-3866
-4	-3867
▁Rev	-3868
▁favor	-3869
DA	-3870
▁eventually	-3871
iox	-3872
▁Mor	-3873
iance	-3874
▁heavy	-3875
▁suppl	-3876
▁David	-3877
▁mo	-3878
▁structures	-3879
pped	-3880
uild	-3881
▁Di	-3882
▁carried	-3883
▁vary	-3884
iding	-3885
▁spring	-3886
▁exhib	-3887
▁immediately	-3888
▁Mary	-3889
▁Internet	-3890
▁urban	-3891
▁save	-3892
▁happen	-3893
▁neu	-3894
▁bank	-3895
▁Mich	-3896
▁highest	-3897
▁Sub	-3898
▁male	-3899
▁Egypt	-3900
▁Colle	-3901
▁generation	-3902
ulum	-3903
part	-3904
▁commercial	-3905
▁sac	-3906
▁Human	-3907
▁Western	-3908
▁divid	-3909
ographic	-3910
pris	-3911
▁intellig	-3912
▁seven	-3913
▁liqu	-3914
▁industrial	-3915
ky	-3916
▁decades	-3917
▁22	-3918
▁figure	-3919
isation	-3920
▁remove	-3921
▁pick	-3922
▁learned	-3923
▁Plan	-3924
▁reality	-3925
▁presented	-3926
▁Web	-3927
▁phen	-3928
eces	-3929
▁bed	-3930
▁Program	-3931
▁Vol	-3932
▁rot	-3933
▁Ob	-3934
▁Further	-3935
▁journal	-3936
uls	-3937
▁medicine	-3938
▁depression	-3939
▁emphas	-3940
▁bone	-3941
ares	-3942
che	-3943
▁Bel	-3944
▁perspect	-3945
▁truth	-3946
nes	-3947
▁resource	-3948
▁serve	-3949
plications	-3950
▁plat	-3951
wards	-3952
▁conducted	-3953
▁decisions	-3954
uing	-3955
▁board	-3956
▁challenge	-3957
▁topic	-3958
▁Net	-3959
▁becoming	-3960
▁Found	-3961
▁bodies	-3962
ken	-3963
▁novel	-3964
3)	-3965
▁agg	-3966
▁dyn	-3967
ald	-3968
▁alternative	-3969
ube	-3970
▁stream	-3971
▁faith	-3972
▁metal	-3973
▁temperatures	-3974
▁nutrition	-3975
ologist	-3976
▁recommended	-3977
▁sexual	-3978
II	-3979
zz	-3980
▁aspects	-3981
pan	-3982
▁release	-3983
70	-3984
▁initi	-3985
change	-3986
▁frequently	-3987
▁slight	-3988
▁approximately	-3989
▁hom	-3990
▁reducing	-3991
▁performed	-3992
▁mer	-3993
▁cycle	-3994
▁electricity	-3995
St	-3996
▁ves	-3997
▁solutions	-3998
EM	-3999
▁actual	-4000
▁distribution	-4001
▁introduced	-4002
▁risks	-4003
▁chronic	-4004
iant	-4005
OS	-4006
▁Council	-4007
cast	-4008
▁disorders	-4009
▁trust	-4010
▁populations	-4011
▁Phys	-4012
▁fields	-4013
ructure	-4014
bal	-4015
erate	-4016
▁causing	-4017
This	-4018
▁kid	-4019
▁Two	-4020
▁Japanese	-4021
▁connected	-4022
gal	-4023
▁homes	-4024
▁Sam	-4025
icial	-4026
▁household	-4027
▁Tur	-4028
90	-4029
▁cand	-4030
▁contrast	-4031
▁dogs	-4032
ET	-4033
▁organic	-4034
▁numerous	-4035
enth	-4036
antic	-4037
▁fig	-4038
▁Test	-4039
AM	-4040
▁Retrieved	-4041
▁violence	-4042
▁Air	-4043
▁moved	-4044
▁operations	-4045
▁Development	-4046
▁letter	-4047
▁combination	-4048
▁records	-4049
▁legisl	-4050
▁Organ	-4051
▁changing	-4052
char	-4053
▁graph	-4054
▁experiment	-4055
▁inflamm	-4056
▁gene	-4057
▁Gra	-4058
▁mag	-4059
▁ign	-4060
Wh	-4061
▁participants	-4062
▁widely	-4063
▁involves	-4064
▁prefer	-4065
▁film	-4066
▁speech	-4067
ophy	-4068
imens	-4069
▁store	-4070
▁characteristics	-4071
▁thr	-4072
▁drive	-4073
▁destroy	-4074
▁nuclear	-4075
▁(201	-4076
▁flood	-4077
▁opin	-4078
▁compl	-4079
▁notes	-4080
tee	-4081
iveness	-4082
▁oxygen	-4083
othes	-4084
▁setting	-4085
ulf	-4086
▁assessment	-4087
uses	-4088
▁surgery	-4089
▁failure	-4090
▁buildings	-4091
ognitive	-4092
apers	-4093
▁Like	-4094
▁Som	-4095
▁released	-4096
▁buy	-4097
met	-4098
▁anxiety	-4099
▁gets	-4100
▁About	-4101
▁party	-4102
▁policies	-4103
▁Both	-4104
▁estimated	-4105
▁shap	-4106
▁Republic	-4107
▁desp	-4108
ously	-4109
▁layer	-4110
▁connection	-4111
unction	-4112
▁literature	-4113
▁Paul	-4114
▁starting	-4115
erences	-4116
▁vitamin	-4117
tical	-4118
▁relationships	-4119
PS	-4120
▁College	-4121
▁reference	-4122
clus	-4123
ida	-4124
▁partners	-4125
▁independent	-4126
▁univers	-4127
▁sample	-4128
▁esc	-4129
▁bottom	-4130
urance	-4131
▁trig	-4132
5%	-4133
ingly	-4134
▁resulting	-4135
▁186	-4136
works	-4137
▁ready	-4138
▁president	-4139
▁email	-4140
▁23	-4141
▁Government	-4142
hetic	-4143
Ch	-4144
roph	-4145
▁doub	-4146
ager	-4147
2)	-4148
▁Greek	-4149
ressive	-4150
▁Hel	-4151
▁storage	-4152
▁injury	-4153
▁anyone	-4154
porary	-4155
ologists	-4156
raw	-4157
▁trend	-4158
▁discussion	-4159
anging	-4160
▁dri	-4161
▁Spanish	-4162
ilit	-4163
▁clearly	-4164
▁lived	-4165
▁prepar	-4166
▁technique	-4167
▁initial	-4168
▁isol	-4169
▁Off	-4170
▁drop	-4171
▁tooth	-4172
▁Mark	-4173
▁Rober	-4174
rog	-4175
▁George	-4176
▁ded	-4177
▁Its	-4178
▁creation	-4179
▁hear	-4180
order	-4181
elines	-4182
▁tour	-4183
▁wanted	-4184
olved	-4185
▁burn	-4186
▁infections	-4187
▁games	-4188
raction	-4189
tered	-4190
▁NAS	-4191
▁option	-4192
▁seeds	-4193
▁ST	-4194
cular	-4195
▁internal	-4196
▁Fore	-4197
▁appe	-4198
▁replace	-4199
▁happens	-4200
ias	-4201
ped	-4202
▁190	-4203
▁killed	-4204
lick	-4205
▁Project	-4206
▁authors	-4207
cont	-4208
▁covered	-4209
▁output	-4210
▁mic	-4211
▁vessel	-4212
olid	-4213
▁distinct	-4214
▁properly	-4215
▁Dem	-4216
ollow	-4217
rant	-4218
ieties	-4219
▁reprodu	-4220
▁emotional	-4221
▁La	-4222
▁vul	-4223
▁feeling	-4224
▁advanced	-4225
▁adjust	-4226
▁load	-4227
▁encourage	-4228
rosc	-4229
▁Def	-4230
▁80	-4231
▁incorpor	-4232
▁college	-4233
▁Tex	-4234
rows	-4235
ping	-4236
▁minor	-4237
▁background	-4238
▁tim	-4239
▁ocean	-4240
▁freedom	-4241
▁seed	-4242
▁scen	-4243
▁192	-4244
▁referred	-4245
▁campaign	-4246
▁trou	-4247
atically	-4248
▁profession	-4249
▁thick	-4250
▁degrees	-4251
▁promote	-4252
▁Addition	-4253
▁upd	-4254
▁Sun	-4255
▁dangerous	-4256
▁Ev	-4257
osystem	-4258
▁turned	-4259
▁finding	-4260
essor	-4261
▁comprehens	-4262
riculum	-4263
▁mentioned	-4264
▁Mal	-4265
rest	-4266
ocal	-4267
▁sav	-4268
▁removed	-4269
▁Ben	-4270
▁noted	-4271
SA	-4272
▁Court	-4273
▁expression	-4274
ieces	-4275
▁territ	-4276
▁effectively	-4277
▁exactly	-4278
▁horm	-4279
▁depending	-4280
onds	-4281
▁mostly	-4282
▁excell	-4283
▁Museum	-4284
rm	-4285
ndrome	-4286
▁conv	-4287
▁statement	-4288
▁cris	-4289
▁trib	-4290
▁message	-4291
▁sand	-4292
▁circum	-4293
▁upper	-4294
▁radiation	-4295
▁classes	-4296
ij	-4297
▁involve	-4298
▁experts	-4299
▁experienced	-4300
▁transform	-4301
▁tum	-4302
ault	-4303
▁counter	-4304
▁landsc	-4305
▁confirm	-4306
ortunately	-4307
▁Bas	-4308
▁HIV	-4309
▁Second	-4310
amental	-4311
ception	-4312
▁fine	-4313
▁White	-4314
erved	-4315
▁Rich	-4316
ii	-4317
▁2010	-4318
▁comfort	-4319
▁jour	-4320
▁Data	-4321
▁Step	-4322
▁nor	-4323
▁battle	-4324
-5	-4325
▁core	-4326
▁Hen	-4327
key	-4328
▁expert	-4329
▁2,	-4330
▁academic	-4331
▁principles	-4332
▁physic	-4333
▁Port	-4334
200	-4335
uration	-4336
▁victim	-4337
▁arm	-4338
ishing	-4339
▁Mr	-4340
▁manage	-4341
▁input	-4342
▁beautiful	-4343
▁die	-4344
▁regarding	-4345
▁alg	-4346
▁grass	-4347
▁https	-4348
▁Post	-4349
▁elimin	-4350
roup	-4351
▁advantage	-4352
▁Cath	-4353
▁leads	-4354
▁efficiency	-4355
ressed	-4356
▁pric	-4357
▁annual	-4358
anch	-4359
▁processing	-4360
▁meat	-4361
▁exposed	-4362
▁helped	-4363
ios	-4364
▁radio	-4365
▁consult	-4366
▁solid	-4367
▁race	-4368
▁synt	-4369
▁pal	-4370
▁relevant	-4371
▁Mount	-4372
▁helping	-4373
▁heard	-4374
▁Scient	-4375
ST	-4376
urt	-4377
▁Bro	-4378
▁Make	-4379
▁sem	-4380
▁mist	-4381
▁please	-4382
▁eggs	-4383
▁linked	-4384
▁pollution	-4385
▁sustainable	-4386
▁platform	-4387
▁Treat	-4388
▁lung	-4389
▁belong	-4390
▁units	-4391
▁previously	-4392
▁interested	-4393
▁motor	-4394
▁unf	-4395
▁Met	-4396
▁determined	-4397
orial	-4398
▁Cle	-4399
▁meeting	-4400
rum	-4401
▁click	-4402
▁6.	-4403
▁conflict	-4404
▁concerns	-4405
och	-4406
riage	-4407
▁genes	-4408
▁volume	-4409
ategy	-4410
▁amounts	-4411
▁religion	-4412
▁reb	-4413
▁crucial	-4414
▁spot	-4415
▁manufacture	-4416
▁served	-4417
ander	-4418
▁farmers	-4419
▁Get	-4420
▁sort	-4421
▁saying	-4422
▁improved	-4423
oyal	-4424
▁2011	-4425
▁strategy	-4426
▁interpret	-4427
ya	-4428
▁dram	-4429
▁NASA	-4430
▁whom	-4431
▁wealth	-4432
mark	-4433
onic	-4434
▁grant	-4435
▁inh	-4436
▁influen	-4437
▁AD	-4438
▁Service	-4439
▁conservation	-4440
umn	-4441
▁Island	-4442
▁Class	-4443
▁defic	-4444
uable	-4445
zing	-4446
▁describe	-4447
▁gender	-4448
inter	-4449
standing	-4450
▁Op	-4451
▁volunt	-4452
▁decided	-4453
▁prepared	-4454
RE	-4455
ta	-4456
▁vot	-4457
▁Fre	-4458
▁mel	-4459
▁kept	-4460
ago	-4461
▁diss	-4462
▁god	-4463
▁articles	-4464
stitution	-4465
▁math	-4466
ributed	-4467
▁pages	-4468
ifying	-4469
▁bud	-4470
lease	-4471
place	-4472
za	-4473
▁presc	-4474
▁engineering	-4475
▁mathemat	-4476
▁Asia	-4477
▁obvious	-4478
▁calc	-4479
▁hearing	-4480
▁2012	-4481
▁island	-4482
▁spent	-4483
▁Ber	-4484
▁Mexico	-4485
▁datab	-4486
oking	-4487
▁contribute	-4488
▁Learning	-4489
▁diagnosis	-4490
▁Thomas	-4491
▁credit	-4492
▁vegetables	-4493
clusion	-4494
▁pip	-4495
▁concepts	-4496
▁Je	-4497
▁impl	-4498
▁reaction	-4499
▁owners	-4500
▁operation	-4501
▁completed	-4502
▁phase	-4503
▁Through	-4504
▁Old	-4505
▁Sk	-4506
▁hour	-4507
▁Elect	-4508
uted	-4509
cers	-4510
nic	-4511
▁Ser	-4512
▁languages	-4513
▁ship	-4514
▁pret	-4515
▁chemicals	-4516
iverse	-4517
▁allowing	-4518
.;	-4519
▁Jews	-4520
▁institutions	-4521
▁discover	-4522
ams	-4523
▁pun	-4524
▁Isl	-4525
▁official	-4526
▁coal	-4527
▁awareness	-4528
▁meant	-4529
rete	-4530
▁round	-4531
inate	-4532
▁cere	-4533
comes	-4534
▁concern	-4535
▁atmosphere	-4536
▁Supp	-4537
▁motiv	-4538
mat	-4539
▁aid	-4540
▁kill	-4541
▁essay	-4542
ball	-4543
▁tasks	-4544
▁Sal	-4545
aughter	-4546
ded	-4547
▁Ref	-4548
▁Dist	-4549
acing	-4550
▁invent	-4551
▁Mac	-4552
▁Up	-4553
78	-4554
▁Texas	-4555
isher	-4556
▁hospital	-4557
itz	-4558
▁notice	-4559
▁vulner	-4560
▁clos	-4561
▁Mars	-4562
▁90	-4563
board	-4564
well	-4565
wood	-4566
▁square	-4567
onomic	-4568
▁Medical	-4569
▁procedure	-4570
▁Any	-4571
▁song	-4572
▁hop	-4573
▁conver	-4574
▁signal	-4575
▁26	-4576
▁reached	-4577
▁Miss	-4578
▁yellow	-4579
▁Central	-4580
▁cast	-4581
▁conclud	-4582
▁continues	-4583
▁shared	-4584
▁pieces	-4585
▁practical	-4586
▁southern	-4587
▁situations	-4588
22	-4589
▁manner	-4590
alled	-4591
▁28	-4592
ules	-4593
▁northern	-4594
bi	-4595
pat	-4596
▁vaccine	-4597
▁samples	-4598
▁reduction	-4599
▁drinking	-4600
▁Mart	-4601
CC	-4602
▁Life	-4603
▁Acad	-4604
▁mainly	-4605
▁Energy	-4606
rence	-4607
▁10.	-4608
▁renew	-4609
▁(199	-4610
4)	-4611
▁secret	-4612
▁extensive	-4613
▁definition	-4614
iling	-4615
▁purposes	-4616
rates	-4617
▁flex	-4618
vision	-4619
ria	-4620
berg	-4621
▁Sen	-4622
▁youth	-4623
▁Disc	-4624
-8	-4625
▁looks	-4626
▁corresp	-4627
▁appoint	-4628
▁grade	-4629
▁Out	-4630
▁charge	-4631
▁2013	-4632
▁ideal	-4633
▁frequency	-4634
▁wet	-4635
▁mort	-4636
▁Lou	-4637
▁nav	-4638
▁lesson	-4639
tes	-4640
▁formation	-4641
▁intended	-4642
▁70	-4643
▁professor	-4644
eline	-4645
▁west	-4646
▁electrical	-4647
▁Jer	-4648
ormal	-4649
▁vital	-4650
su	-4651
▁Virgin	-4652
▁Direct	-4653
▁recorded	-4654
astern	-4655
ags	-4656
▁consequences	-4657
▁pul	-4658
▁Hol	-4659
▁treatments	-4660
rep	-4661
▁proposed	-4662
▁toxic	-4663
▁begins	-4664
▁finally	-4665
▁Civil	-4666
▁brother	-4667
▁Well	-4668
▁Before	-4669
▁lib	-4670
▁fib	-4671
▁Dise	-4672
rapy	-4673
▁nutrients	-4674
▁revolution	-4675
▁focused	-4676
▁ban	-4677
itors	-4678
aker	-4679
AD	-4680
▁primarily	-4681
▁Instead	-4682
▁wonder	-4683
▁Technology	-4684
▁Where	-4685
ishes	-4686
acific	-4687
akers	-4688
▁supported	-4689
▁career	-4690
▁sufficient	-4691
▁park	-4692
▁sector	-4693
▁advance	-4694
espite	-4695
▁combined	-4696
▁keeping	-4697
▁dro	-4698
ounced	-4699
▁ecosystem	-4700
▁digest	-4701
osite	-4702
▁doll	-4703
▁master	-4704
▁AI	-4705
▁News	-4706
▁storm	-4707
▁lic	-4708
▁subjects	-4709
▁indicate	-4710
rations	-4711
▁emergency	-4712
▁Women	-4713
▁offered	-4714
otic	-4715
▁lov	-4716
▁Ir	-4717
▁height	-4718
▁muscles	-4719
▁authority	-4720
▁straight	-4721
▁facts	-4722
▁morning	-4723
▁foss	-4724
OT	-4725
▁liquid	-4726
▁taught	-4727
▁coord	-4728
▁Britain	-4729
▁station	-4730
▁jobs	-4731
EL	-4732
atric	-4733
▁hit	-4734
▁Such	-4735
▁impacts	-4736
▁27	-4737
des	-4738
ears	-4739
▁recy	-4740
▁Arab	-4741
lig	-4742
eters	-4743
-6	-4744
▁identity	-4745
▁specifically	-4746
▁Information	-4747
▁forced	-4748
▁phenomen	-4749
▁Muslim	-4750
roke	-4751
▁fort	-4752
▁Space	-4753
alle	-4754
▁technical	-4755
▁operating	-4756
▁blog	-4757
▁spend	-4758
ulating	-4759
aturally	-4760
acters	-4761
▁certainly	-4762
▁remained	-4763
ixt	-4764
rastructure	-4765
▁Cam	-4766
▁Medicine	-4767
▁Bet	-4768
ancing	-4769
oper	-4770
▁Know	-4771
▁Exam	-4772
▁largely	-4773
▁excellent	-4774
ses	-4775
▁Atl	-4776
▁showing	-4777
▁bright	-4778
▁monitoring	-4779
▁2009	-4780
eria	-4781
▁shar	-4782
▁kinds	-4783
▁Fe	-4784
▁flowers	-4785
▁clim	-4786
▁bird	-4787
istan	-4788
▁collected	-4789
▁resist	-4790
▁attacks	-4791
▁brief	-4792
RI	-4793
rier	-4794
▁189	-4795
▁oral	-4796
ework	-4797
icated	-4798
▁advice	-4799
▁centuries	-4800
▁gar	-4801
▁letters	-4802
gra	-4803
▁moist	-4804
ossible	-4805
ipped	-4806
▁existence	-4807
▁Wind	-4808
▁hyper	-4809
▁salt	-4810
going	-4811
▁faster	-4812
▁haz	-4813
▁comment	-4814
▁responsibility	-4815
▁felt	-4816
AP	-4817
▁AN	-4818
▁waters	-4819
nel	-4820
vis	-4821
▁roll	-4822
▁perman	-4823
ado	-4824
▁raised	-4825
▁surrounding	-4826
▁occurred	-4827
tion	-4828
othing	-4829
▁Bay	-4830
rich	-4831
itness	-4832
▁vast	-4833
▁extent	-4834
gl	-4835
▁Those	-4836
▁familiar	-4837
▁Common	-4838
inger	-4839
olute	-4840
▁Book	-4841
iated	-4842
▁accurate	-4843
osen	-4844
unk	-4845
▁east	-4846
▁affects	-4847
▁Expl	-4848
▁nerv	-4849
▁Bur	-4850
▁army	-4851
▁THE	-4852
arrow	-4853
▁cert	-4854
▁Fam	-4855
▁quar	-4856
▁Franc	-4857
▁kn	-4858
umin	-4859
ague	-4860
▁refers	-4861
leg	-4862
▁2008	-4863
▁Latin	-4864
▁goods	-4865
▁syn	-4866
▁Mass	-4867
▁vehicle	-4868
▁helpful	-4869
▁despite	-4870
igenous	-4871
oo	-4872
▁grand	-4873
west	-4874
▁Despite	-4875
▁voice	-4876
▁Robert	-4877
mp	-4878
▁metab	-4879
▁Studies	-4880
▁Mil	-4881
anges	-4882
▁periods	-4883
▁domestic	-4884
▁Jud	-4885
▁diam	-4886
▁component	-4887
▁cognitive	-4888
▁Stand	-4889
].	-4890
5)	-4891
▁Bible	-4892
▁settle	-4893
▁onto	-4894
▁stone	-4895
▁Que	-4896
▁perspective	-4897
▁sche	-4898
verty	-4899
▁wife	-4900
▁aren	-4901
▁double	-4902
▁external	-4903
▁played	-4904
▁Budd	-4905
▁poverty	-4906
▁maximum	-4907
▁Sou	-4908
▁7.	-4909
▁Commission	-4910
▁Land	-4911
▁facilities	-4912
▁tested	-4913
▁tips	-4914
▁Psych	-4915
▁sounds	-4916
inent	-4917
enses	-4918
▁motion	-4919
▁fruits	-4920
▁nations	-4921
athy	-4922
▁Google	-4923
▁Histor	-4924
▁agricultural	-4925
1)	-4926
▁potentially	-4927
ht	-4928
▁characters	-4929
▁nit	-4930
▁(18	-4931
gment	-4932
▁detailed	-4933
▁explains	-4934
▁Flor	-4935
▁playing	-4936
▁ju	-4937
ificial	-4938
▁Jose	-4939
▁smart	-4940
▁otherwise	-4941
down	-4942
▁Nor	-4943
▁measured	-4944
osc	-4945
▁Sl	-4946
ras	-4947
▁Yet	-4948
▁thin	-4949
5).	-4950
7).	-4951
▁Sum	-4952
oughly	-4953
▁vent	-4954
▁liver	-4955
▁immun	-4956
▁leader	-4957
rian	-4958
▁Army	-4959
▁increasingly	-4960
ails	-4961
iced	-4962
▁bill	-4963
▁particles	-4964
▁thoughts	-4965
▁satis	-4966
▁>	-4967
▁interests	-4968
▁harvest	-4969
24	-4970
▁suggested	-4971
osa	-4972
▁Smith	-4973
▁links	-4974
RO	-4975
▁proteins	-4976
▁pil	-4977
▁depends	-4978
▁slightly	-4979
▁instruction	-4980
▁typical	-4981
▁Cop	-4982
▁phone	-4983
field	-4984
▁valid	-4985
▁curriculum	-4986
▁investment	-4987
▁crops	-4988
▁<	-4989
▁valuable	-4990
▁Tem	-4991
olars	-4992
▁topics	-4993
roc	-4994
▁Ste	-4995
▁send	-4996
▁controlled	-4997
▁businesses	-4998
▁sin	-4999
aks	-5000
▁kil	-5001
▁CD	-5002
▁fluid	-5003
▁Lake	-5004
▁Environmental	-5005
23	-5006
▁biological	-5007
▁explained	-5008
roid	-5009
▁paint	-5010
▁outcomes	-5011
6).	-5012
▁roots	-5013
▁lose	-5014
▁rural	-5015
▁snow	-5016
▁fundamental	-5017
▁enhance	-5018
▁interview	-5019
omy	-5020
▁governments	-5021
▁crisis	-5022
▁divided	-5023
▁greatest	-5024
▁Saf	-5025
ael	-5026
▁girls	-5027
band	-5028
▁immig	-5029
ensus	-5030
▁stem	-5031
▁feelings	-5032
▁explan	-5033
inding	-5034
▁trial	-5035
omin	-5036
▁bow	-5037
▁substant	-5038
ville	-5039
▁Foundation	-5040
▁Inf	-5041
▁wel	-5042
name	-5043
▁tro	-5044
▁floor	-5045
▁persons	-5046
▁Keep	-5047
▁abuse	-5048
point	-5049
stood	-5050
▁grown	-5051
▁approaches	-5052
celer	-5053
▁BC	-5054
▁fif	-5055
▁subsequ	-5056
▁Good	-5057
▁Pacific	-5058
BC	-5059
tenance	-5060
▁apparent	-5061
▁Mem	-5062
▁request	-5063
hi	-5064
▁Mont	-5065
inn	-5066
▁consists	-5067
▁follows	-5068
▁depth	-5069
▁cardi	-5070
▁Charles	-5071
resents	-5072
▁walls	-5073
▁neut	-5074
▁employees	-5075
▁Henry	-5076
▁instrument	-5077
▁continuous	-5078
▁convent	-5079
▁Kore	-5080
▁lik	-5081
▁deliver	-5082
▁mere	-5083
utive	-5084
▁medications	-5085
▁chann	-5086
▁flat	-5087
▁police	-5088
▁surpris	-5089
▁Sea	-5090
▁habitat	-5091
▁looked	-5092
▁officials	-5093
▁files	-5094
▁studied	-5095
▁train	-5096
▁km	-5097
▁happened	-5098
▁pray	-5099
▁Bre	-5100
▁healthcare	-5101
▁rail	-5102
▁internet	-5103
▁prices	-5104
▁suffering	-5105
▁returned	-5106
▁elev	-5107
▁concentration	-5108
▁Id	-5109
itage	-5110
▁proport	-5111
▁Professor	-5112
▁Micro	-5113
▁dial	-5114
▁Del	-5115
rolog	-5116
▁pregnancy	-5117
▁disapp	-5118
▁spl	-5119
li	-5120
ye	-5121
icks	-5122
asure	-5123
▁inflammation	-5124
▁Engine	-5125
▁hundreds	-5126
▁containing	-5127
▁stars	-5128
▁protected	-5129
lar	-5130
teries	-5131
ship	-5132
▁spiritual	-5133
▁secure	-5134
▁decrease	-5135
4).	-5136
abil	-5137
▁residents	-5138
chers	-5139
▁regularly	-5140
col	-5141
▁neighbor	-5142
▁adding	-5143
▁Middle	-5144
▁Russian	-5145
▁Carol	-5146
▁colors	-5147
▁closely	-5148
▁visible	-5149
▁obtained	-5150
▁(3	-5151
▁syndrome	-5152
▁driving	-5153
van	-5154
cript	-5155
▁represents	-5156
▁Figure	-5157
▁recognized	-5158
▁infrastructure	-5159
which	-5160
ascular	-5161
bing	-5162
ION	-5163
atever	-5164
?”	-5165
▁concerned	-5166
▁Have	-5167
▁accompl	-5168
▁Add	-5169
▁appearance	-5170
▁firm	-5171
win	-5172
▁Vis	-5173
▁procedures	-5174
▁rapidly	-5175
▁sen	-5176
▁Control	-5177
▁latest	-5178
▁minimum	-5179
oviet	-5180
▁extract	-5181
▁Russia	-5182
▁leaving	-5183
▁portion	-5184
▁Prov	-5185
▁fle	-5186
what	-5187
▁tried	-5188
being	-5189
zy	-5190
▁infected	-5191
▁paid	-5192
▁sed	-5193
▁wear	-5194
▁western	-5195
▁pu	-5196
▁Att	-5197
▁claims	-5198
▁rand	-5199
▁dut	-5200
▁Wild	-5201
▁stret	-5202
▁conscious	-5203
▁Finally	-5204
right	-5205
active	-5206
▁Only	-5207
▁Pub	-5208
▁Ham	-5209
▁188	-5210
▁discussed	-5211
▁appeared	-5212
ooth	-5213
▁selected	-5214
▁stock	-5215
▁justice	-5216
▁therm	-5217
▁lessons	-5218
▁movements	-5219
▁prison	-5220
’.	-5221
▁Catholic	-5222
▁stated	-5223
▁recognize	-5224
fall	-5225
▁horse	-5226
onomy	-5227
▁du	-5228
▁ingred	-5229
▁diversity	-5230
▁dental	-5231
▁PC	-5232
▁director	-5233
▁mobile	-5234
▁expensive	-5235
▁intelligence	-5236
▁rein	-5237
▁pump	-5238
▁Whe	-5239
▁medium	-5240
▁Exper	-5241
▁IN	-5242
ffee	-5243
▁san	-5244
▁assemb	-5245
▁alt	-5246
yright	-5247
▁sick	-5248
▁wire	-5249
▁naturally	-5250
▁correspond	-5251
▁recovery	-5252
▁random	-5253
ario	-5254
▁advoc	-5255
▁2000	-5256
ola	-5257
▁ages	-5258
▁Who	-5259
▁frag	-5260
▁deaths	-5261
▁boost	-5262
▁Wil	-5263
MS	-5264
burg	-5265
▁Design	-5266
TS	-5267
75	-5268
▁Ox	-5269
▁pig	-5270
▁Nature	-5271
▁circumst	-5272
▁Power	-5273
free	-5274
▁Nav	-5275
▁Alex	-5276
▁inches	-5277
▁weap	-5278
▁funding	-5279
▁sensitive	-5280
▁band	-5281
▁reform	-5282
▁push	-5283
▁shel	-5284
lers	-5285
▁purs	-5286
▁satell	-5287
▁Care	-5288
▁Phot	-5289
▁Long	-5290
▁Please	-5291
▁distingu	-5292
ellect	-5293
▁pref	-5294
▁fertil	-5295
tr	-5296
▁couple	-5297
▁sets	-5298
▁intake	-5299
▁param	-5300
umber	-5301
▁adequ	-5302
▁sides	-5303
ulin	-5304
▁Management	-5305
▁agriculture	-5306
26	-5307
▁minim	-5308
indu	-5309
▁Note	-5310
▁laun	-5311
▁title	-5312
▁Review	-5313
▁improving	-5314
alse	-5315
▁lifest	-5316
ING	-5317
▁chief	-5318
cling	-5319
▁raise	-5320
▁substance	-5321
orith	-5322
▁principle	-5323
▁gun	-5324
▁Emp	-5325
▁views	-5326
▁od	-5327
▁moral	-5328
ga	-5329
▁Federal	-5330
▁format	-5331
▁millions	-5332
▁argument	-5333
▁prevention	-5334
DF	-5335
iled	-5336
▁knew	-5337
▁suitable	-5338
▁incl	-5339
▁Library	-5340
▁Follow	-5341
▁contem	-5342
▁Soviet	-5343
▁allerg	-5344
▁Take	-5345
oral	-5346
▁facilit	-5347
▁Rad	-5348
▁hunt	-5349
▁diverse	-5350
▁Bat	-5351
100	-5352
▁vehicles	-5353
▁Mo	-5354
▁mit	-5355
mas	-5356
▁generate	-5357
▁discovery	-5358
▁talking	-5359
US	-5360
▁stages	-5361
state	-5362
▁Louis	-5363
▁comprehensive	-5364
▁Virginia	-5365
▁Last	-5366
▁191	-5367
▁apart	-5368
CO	-5369
▁Rights	-5370
flow	-5371
▁Global	-5372
▁Though	-5373
▁documents	-5374
ibilities	-5375
▁soldiers	-5376
▁precise	-5377
▁traffic	-5378
▁Ter	-5379
▁Diff	-5380
▁behaviour	-5381
▁exchange	-5382
500	-5383
▁29	-5384
▁entirely	-5385
▁Det	-5386
ota	-5387
▁consid	-5388
▁Company	-5389
▁ble	-5390
▁suffer	-5391
▁rub	-5392
olester	-5393
dden	-5394
stream	-5395
uke	-5396
agers	-5397
inet	-5398
▁nurs	-5399
7)	-5400
▁capable	-5401
▁trad	-5402
▁touch	-5403
▁routine	-5404
▁recip	-5405
ava	-5406
pping	-5407
asp	-5408
▁poet	-5409
▁impossible	-5410
▁Fact	-5411
vironments	-5412
▁networks	-5413
▁parties	-5414
plicated	-5415
ypes	-5416
▁creative	-5417
▁manufacturing	-5418
abric	-5419
anes	-5420
olf	-5421
▁Pers	-5422
▁Group	-5423
28	-5424
▁label	-5425
▁calls	-5426
alysis	-5427
▁leadership	-5428
racy	-5429
▁wave	-5430
▁engage	-5431
long	-5432
▁secondary	-5433
olve	-5434
▁massive	-5435
2).	-5436
idden	-5437
▁Div	-5438
▁interf	-5439
▁Ken	-5440
▁landscape	-5441
▁producing	-5442
▁tun	-5443
abits	-5444
anguage	-5445
▁unlike	-5446
▁pure	-5447
ctic	-5448
▁era	-5449
▁worldwide	-5450
king	-5451
road	-5452
othe	-5453
osal	-5454
▁library	-5455
with	-5456
6)	-5457
▁chain	-5458
▁Ca	-5459
ato	-5460
33	-5461
▁closed	-5462
▁professionals	-5463
CS	-5464
▁beneficial	-5465
▁Writ	-5466
▁computers	-5467
▁speaking	-5468
▁brown	-5469
ocratic	-5470
▁survival	-5471
▁plays	-5472
omach	-5473
rants	-5474
▁gall	-5475
erals	-5476
▁harmful	-5477
▁myth	-5478
▁prepare	-5479
▁introduction	-5480
▁discrim	-5481
▁revealed	-5482
▁medication	-5483
▁restrict	-5484
uilding	-5485
▁fill	-5486
▁inject	-5487
▁absolute	-5488
obe	-5489
▁transition	-5490
▁flight	-5491
▁cloud	-5492
▁database	-5493
▁prem	-5494
ny	-5495
VID	-5496
olesterol	-5497
▁understood	-5498
▁battery	-5499
▁sudden	-5500
▁describes	-5501
▁injuries	-5502
21	-5503
liam	-5504
▁readers	-5505
▁selection	-5506
▁journey	-5507
▁index	-5508
▁Ap	-5509
▁Ann	-5510
▁cultiv	-5511
▁chapter	-5512
▁supplement	-5513
▁decline	-5514
▁district	-5515
▁corpor	-5516
esity	-5517
▁2020	-5518
▁cars	-5519
▁stick	-5520
▁pretty	-5521
▁mamm	-5522
▁bones	-5523
▁normally	-5524
▁possess	-5525
▁budget	-5526
ropical	-5527
apping	-5528
▁Additionally	-5529
▁Early	-5530
▁Ext	-5531
▁figures	-5532
▁apprec	-5533
bert	-5534
▁35	-5535
▁formal	-5536
▁originally	-5537
▁phr	-5538
▁Office	-5539
pass	-5540
ca	-5541
▁toler	-5542
▁accepted	-5543
▁achieved	-5544
▁forests	-5545
BN	-5546
▁Florida	-5547
▁Labor	-5548
▁maintenance	-5549
▁experiments	-5550
▁stored	-5551
isp	-5552
orter	-5553
▁warming	-5554
▁guidelines	-5555
▁amb	-5556
▁leaf	-5557
ifies	-5558
▁narrow	-5559
▁tal	-5560
▁gather	-5561
aser	-5562
▁regional	-5563
45	-5564
▁3,	-5565
▁Learn	-5566
▁abund	-5567
▁starts	-5568
alian	-5569
▁aw	-5570
iology	-5571
▁tail	-5572
▁dream	-5573
aph	-5574
▁moon	-5575
▁narr	-5576
▁wildlife	-5577
pet	-5578
▁adopted	-5579
▁opinion	-5580
▁Canadian	-5581
▁worse	-5582
▁opened	-5583
▁Natural	-5584
▁Stat	-5585
▁sweet	-5586
▁Home	-5587
▁recon	-5588
▁Joseph	-5589
▁antibiot	-5590
ona	-5591
▁pictures	-5592
▁marriage	-5593
▁possibility	-5594
agues	-5595
▁acts	-5596
▁Exp	-5597
▁Cre	-5598
▁Constitution	-5599
ston	-5600
▁village	-5601
▁survive	-5602
aria	-5603
▁Gold	-5604
hips	-5605
rors	-5606
▁Dan	-5607
▁window	-5608
▁solve	-5609
▁sports	-5610
▁choices	-5611
▁Ill	-5612
lements	-5613
▁candid	-5614
▁(20	-5615
▁aircraft	-5616
▁Form	-5617
▁listed	-5618
ka	-5619
▁houses	-5620
▁mountain	-5621
▁Columb	-5622
▁happy	-5623
▁catch	-5624
▁Commit	-5625
▁optim	-5626
cules	-5627
▁2014	-5628
▁remote	-5629
▁creates	-5630
29	-5631
▁possibly	-5632
▁unless	-5633
inations	-5634
▁surf	-5635
▁plate	-5636
▁agencies	-5637
liament	-5638
▁Peter	-5639
▁environments	-5640
ects	-5641
prise	-5642
▁generated	-5643
▁consistent	-5644
▁courses	-5645
▁assistance	-5646
exp	-5647
▁acceler	-5648
▁suc	-5649
▁algorith	-5650
ester	-5651
ums	-5652
▁steel	-5653
▁tow	-5654
anged	-5655
▁aqu	-5656
▁repeated	-5657
▁USA	-5658
▁accounts	-5659
la	-5660
▁dust	-5661
eper	-5662
▁transmission	-5663
▁Sometimes	-5664
rem	-5665
▁afford	-5666
kin	-5667
▁Lab	-5668
▁doctors	-5669
osph	-5670
▁equival	-5671
▁Time	-5672
hemical	-5673
▁foundation	-5674
▁185	-5675
inder	-5676
▁marine	-5677
war	-5678
▁Ma	-5679
normal	-5680
▁Frank	-5681
mun	-5682
▁Cult	-5683
▁ancest	-5684
▁arms	-5685
▁latter	-5686
▁skill	-5687
▁Mad	-5688
imer	-5689
▁enable	-5690
▁obtain	-5691
▁tiny	-5692
▁Disease	-5693
▁Check	-5694
▁domin	-5695
▁universe	-5696
▁emotions	-5697
▁sell	-5698
▁remaining	-5699
▁answers	-5700
born	-5701
▁flav	-5702
▁aer	-5703
mic	-5704
▁protocol	-5705
▁OF	-5706
▁twice	-5707
ki	-5708
▁struggle	-5709
▁nan	-5710
▁Tor	-5711
ansion	-5712
▁agreement	-5713
▁edge	-5714
▁fell	-5715
ashion	-5716
▁Report	-5717
▁electronic	-5718
▁wants	-5719
▁waves	-5720
▁intervention	-5721
asive	-5722
▁filled	-5723
▁Cat	-5724
ala	-5725
TM	-5726
▁responses	-5727
organ	-5728
iform	-5729
▁framework	-5730
▁seeing	-5731
▁administration	-5732
▁Among	-5733
▁museum	-5734
.|	-5735
▁Clin	-5736
▁lands	-5737
▁slowly	-5738
ada	-5739
spec	-5740
oted	-5741
▁tells	-5742
▁produces	-5743
▁Vict	-5744
▁indeed	-5745
▁opening	-5746
▁sequence	-5747
35	-5748
▁locations	-5749
.’	-5750
▁Kh	-5751
▁composition	-5752
▁error	-5753
gent	-5754
▁perce	-5755
▁Pract	-5756
▁Climate	-5757
arant	-5758
3).	-5759
▁chart	-5760
▁audience	-5761
icide	-5762
▁Nations	-5763
▁kit	-5764
▁truly	-5765
icians	-5766
oster	-5767
nam	-5768
▁mur	-5769
▁extended	-5770
▁187	-5771
▁expressed	-5772
▁depos	-5773
▁traum	-5774
▁sod	-5775
tage	-5776
orrow	-5777
ua	-5778
▁unknown	-5779
▁regulations	-5780
▁discipl	-5781
▁door	-5782
▁circumstances	-5783
▁insects	-5784
last	-5785
▁End	-5786
▁intellect	-5787
▁successfully	-5788
▁derived	-5789
▁Paris	-5790
▁imper	-5791
cel	-5792
▁decade	-5793
▁af	-5794
▁8.	-5795
▁ax	-5796
▁pull	-5797
IL	-5798
▁Australian	-5799
▁scholars	-5800
hma	-5801
▁broken	-5802
▁failed	-5803
▁stomach	-5804
▁fossil	-5805
▁500	-5806
▁Sol	-5807
▁reject	-5808
▁witness	-5809
▁decide	-5810
EP	-5811
▁fasc	-5812
▁thor	-5813
▁indicates	-5814
▁Dig	-5815
▁signals	-5816
▁studying	-5817
▁volunte	-5818
mary	-5819
▁bear	-5820
HO	-5821
▁Eth	-5822
anda	-5823
▁Top	-5824
▁Southern	-5825
▁cultures	-5826
erent	-5827
throp	-5828
▁uns	-5829
▁lots	-5830
▁multi	-5831
ait	-5832
▁bio	-5833
▁mechanism	-5834
▁coffee	-5835
▁corn	-5836
▁Cancer	-5837
▁lifestyle	-5838
▁simpl	-5839
38	-5840
’,	-5841
hist	-5842
▁childhood	-5843
▁outl	-5844
▁consumers	-5845
▁laboratory	-5846
▁Haw	-5847
▁Chic	-5848
▁brand	-5849
▁raw	-5850
▁Study	-5851
▁marked	-5852
▁carefully	-5853
UR	-5854
If	-5855
zen	-5856
ogue	-5857
▁greatly	-5858
▁handle	-5859
▁IP	-5860
▁Rob	-5861
▁density	-5862
▁highlight	-5863
▁difficulty	-5864
rid	-5865
▁shell	-5866
27	-5867
▁Furthermore	-5868
▁vessels	-5869
ivery	-5870
▁walking	-5871
▁ratio	-5872
ache	-5873
irus	-5874
▁preval	-5875
▁authorities	-5876
▁grav	-5877
▁communicate	-5878
99	-5879
▁hus	-5880
▁ethnic	-5881
▁opposite	-5882
▁cart	-5883
▁mixed	-5884
igation	-5885
▁doubt	-5886
▁fixed	-5887
▁Quest	-5888
CT	-5889
inity	-5890
▁interaction	-5891
▁fly	-5892
▁unp	-5893
▁AS	-5894
▁managed	-5895
▁copy	-5896
▁organized	-5897
ifications	-5898
▁colour	-5899
add	-5900
▁Hall	-5901
no	-5902
▁implementation	-5903
▁Street	-5904
▁troops	-5905
▁sky	-5906
▁Sign	-5907
lets	-5908
▁Color	-5909
▁permanent	-5910
▁cutting	-5911
▁conventional	-5912
body	-5913
▁Free	-5914
▁sharing	-5915
wing	-5916
▁replaced	-5917
▁immediate	-5918
▁Moreover	-5919
inction	-5920
▁wish	-5921
▁Click	-5922
▁Mill	-5923
using	-5924
▁fiber	-5925
▁dedicated	-5926
▁calcium	-5927
▁300	-5928
▁Creat	-5929
▁habits	-5930
▁dent	-5931
ints	-5932
▁circuit	-5933
▁fabric	-5934
ena	-5935
▁acknow	-5936
izer	-5937
▁institution	-5938
▁represented	-5939
▁acids	-5940
▁yield	-5941
▁mac	-5942
▁molecules	-5943
itudes	-5944
▁cholesterol	-5945
▁respir	-5946
▁supporting	-5947
ribed	-5948
▁Str	-5949
▁shift	-5950
struct	-5951
oned	-5952
▁critic	-5953
inking	-5954
▁Richard	-5955
▁description	-5956
▁ultimately	-5957
▁www	-5958
▁sight	-5959
ini	-5960
▁gal	-5961
▁regul	-5962
luding	-5963
▁Does	-5964
▁Camp	-5965
▁Oh	-5966
▁mild	-5967
▁persist	-5968
▁download	-5969
▁breathing	-5970
▁daughter	-5971
▁purchase	-5972
▁remark	-5973
ml	-5974
9).	-5975
▁alle	-5976
▁inner	-5977
▁desire	-5978
▁closer	-5979
itative	-5980
ocracy	-5981
▁newsp	-5982
umes	-5983
▁relax	-5984
▁COVID	-5985
▁Cap	-5986
ella	-5987
▁Ocean	-5988
gu	-5989
▁sentence	-5990
▁din	-5991
▁reserv	-5992
▁younger	-5993
▁nine	-5994
▁necessarily	-5995
gans	-5996
▁listen	-5997
kes	-5998
▁feeding	-5999
reed	-6000
▁Bank	-6001
▁supports	-6002
▁diox	-6003
▁Look	-6004
abul	-6005
▁gluc	-6006
▁nerve	-6007
▁unable	-6008
▁biggest	-6009
▁behaviors	-6010
hop	-6011
▁Find	-6012
▁limits	-6013
▁machines	-6014
zil	-6015
▁fewer	-6016
▁voc	-6017
▁Ess	-6018
stein	-6019
▁comparison	-6020
▁underlying	-6021
agon	-6022
stone	-6023
▁transportation	-6024
▁tea	-6025
antly	-6026
▁1990	-6027
▁princip	-6028
ctive	-6029
▁Native	-6030
▁Rome	-6031
▁noise	-6032
▁attend	-6033
ront	-6034
level	-6035
then	-6036
▁Fort	-6037
▁Plant	-6038
rating	-6039
▁Unf	-6040
▁Agricult	-6041
Americ	-6042
1).	-6043
word	-6044
▁Access	-6045
▁PM	-6046
tic	-6047
▁Similar	-6048
ipping	-6049
▁chosen	-6050
inating	-6051
▁debate	-6052
▁ISBN	-6053
▁Set	-6054
▁stands	-6055
rine	-6056
▁join	-6057
reland	-6058
▁veter	-6059
fe	-6060
▁Forest	-6061
▁Administ	-6062
▁overl	-6063
▁confidence	-6064
tering	-6065
inson	-6066
▁conclusion	-6067
zed	-6068
▁pup	-6069
▁smoking	-6070
▁Mag	-6071
▁pron	-6072
eck	-6073
▁Michael	-6074
▁Committee	-6075
▁married	-6076
cher	-6077
▁Wood	-6078
▁accum	-6079
▁arrived	-6080
▁magnetic	-6081
▁programming	-6082
▁thousand	-6083
usal	-6084
▁mechanisms	-6085
orous	-6086
▁Back	-6087
▁roof	-6088
48	-6089
▁ourselves	-6090
▁gone	-6091
▁Northern	-6092
▁contamin	-6093
▁inhib	-6094
▁destroyed	-6095
▁server	-6096
▁45	-6097
phone	-6098
▁false	-6099
▁architecture	-6100
hand	-6101
▁evaluation	-6102
▁regist	-6103
▁Current	-6104
▁drawing	-6105
▁feedback	-6106
▁constitution	-6107
▁2007	-6108
▁supplies	-6109
orses	-6110
riers	-6111
▁Revolution	-6112
azing	-6113
▁taste	-6114
fish	-6115
▁Vit	-6116
bra	-6117
aped	-6118
▁artificial	-6119
▁recognition	-6120
▁improvement	-6121
▁Effect	-6122
▁concrete	-6123
ocy	-6124
▁electron	-6125
▁vulnerable	-6126
ribe	-6127
itan	-6128
ading	-6129
▁customers	-6130
-7	-6131
▁Ireland	-6132
▁ends	-6133
ora	-6134
uts	-6135
▁Sever	-6136
▁maintaining	-6137
▁exists	-6138
▁virtual	-6139
▁eld	-6140
▁Brown	-6141
▁compounds	-6142
▁housing	-6143
▁reader	-6144
▁unus	-6145
▁writer	-6146
▁agency	-6147
▁Adv	-6148
▁rid	-6149
▁Sing	-6150
▁philosophy	-6151
▁insurance	-6152
▁instructions	-6153
stract	-6154
under	-6155
▁Gal	-6156
▁Gard	-6157
▁Open	-6158
▁hydrogen	-6159
▁neck	-6160
▁trained	-6161
▁colleagues	-6162
▁List	-6163
▁standing	-6164
▁greenhouse	-6165
heast	-6166
▁university	-6167
▁percentage	-6168
▁cats	-6169
▁Non	-6170
bour	-6171
▁fighting	-6172
ups	-6173
▁tank	-6174
▁2015	-6175
▁participate	-6176
What	-6177
▁accident	-6178
icious	-6179
irty	-6180
▁Conn	-6181
ritis	-6182
▁Table	-6183
▁paralle	-6184
36	-6185
sey	-6186
elled	-6187
▁occasion	-6188
▁epid	-6189
▁functional	-6190
▁knows	-6191
▁willing	-6192
▁Researchers	-6193
▁shop	-6194
▁horiz	-6195
▁Penn	-6196
rd	-6197
▁bread	-6198
▁hero	-6199
▁challenging	-6200
▁clust	-6201
▁guarant	-6202
▁1:	-6203
▁crow	-6204
▁Italy	-6205
utch	-6206
▁Prop	-6207
▁attached	-6208
▁founded	-6209
-9	-6210
▁dioxide	-6211
▁Bab	-6212
▁ment	-6213
▁comments	-6214
▁connections	-6215
▁trials	-6216
▁subs	-6217
▁turns	-6218
irds	-6219
▁Scot	-6220
▁psychological	-6221
▁rising	-6222
▁Main	-6223
bridge	-6224
▁Spain	-6225
▁reactions	-6226
▁Carolina	-6227
uh	-6228
▁refuge	-6229
▁ath	-6230
▁photograph	-6231
▁examine	-6232
▁Royal	-6233
rovers	-6234
▁variable	-6235
▁equivalent	-6236
▁Teac	-6237
▁4,	-6238
▁demonstrated	-6239
▁distur	-6240
▁Bus	-6241
▁carb	-6242
▁Comput	-6243
▁twenty	-6244
▁contained	-6245
▁Valley	-6246
▁stable	-6247
▁pool	-6248
▁whereas	-6249
▁cos	-6250
▁delay	-6251
▁beliefs	-6252
▁organisms	-6253
▁Unfortunately	-6254
▁zone	-6255
▁lies	-6256
▁bot	-6257
▁employment	-6258
top	-6259
anta	-6260
▁cm	-6261
▁territory	-6262
8).	-6263
▁Special	-6264
yles	-6265
net	-6266
ictionary	-6267
▁camera	-6268
▁fu	-6269
▁2016	-6270
▁flag	-6271
▁Pan	-6272
▁chick	-6273
▁stroke	-6274
hav	-6275
▁border	-6276
▁eastern	-6277
ifest	-6278
▁Scott	-6279
ita	-6280
▁mice	-6281
▁Wik	-6282
▁Chicago	-6283
▁meth	-6284
tra	-6285
▁frequent	-6286
isters	-6287
▁Pop	-6288
▁ahead	-6289
LE	-6290
▁Cy	-6291
▁layers	-6292
opy	-6293
▁entry	-6294
▁resolution	-6295
▁partner	-6296
▁resulted	-6297
▁doi	-6298
▁department	-6299
▁relation	-6300
▁generations	-6301
▁whatever	-6302
As	-6303
▁prev	-6304
▁tall	-6305
▁administr	-6306
aud	-6307
▁fever	-6308
▁prompt	-6309
▁instruments	-6310
▁teen	-6311
onia	-6312
▁industries	-6313
oding	-6314
▁Start	-6315
▁demonstrate	-6316
▁hypothes	-6317
DP	-6318
▁Three	-6319
▁vote	-6320
ctor	-6321
▁capture	-6322
▁Sciences	-6323
IP	-6324
▁interactions	-6325
▁Py	-6326
▁observations	-6327
▁Equ	-6328
▁fract	-6329
▁crime	-6330
▁independence	-6331
ults	-6332
▁competition	-6333
▁III	-6334
▁2017	-6335
▁zero	-6336
▁ru	-6337
▁Times	-6338
▁obesity	-6339
▁row	-6340
▁flo	-6341
▁grew	-6342
▁36	-6343
eless	-6344
▁substances	-6345
▁recept	-6346
omic	-6347
teen	-6348
hesis	-6349
▁delivery	-6350
▁thy	-6351
▁mos	-6352
exam	-6353
▁Hy	-6354
▁politics	-6355
▁debt	-6356
▁diagnosed	-6357
itivity	-6358
▁Cho	-6359
▁pair	-6360
▁Jo	-6361
▁presentation	-6362
▁breath	-6363
called	-6364
▁drain	-6365
cycl	-6366
▁Academy	-6367
▁supposed	-6368
ione	-6369
▁chrom	-6370
▁swim	-6371
▁Empire	-6372
▁legs	-6373
▁prove	-6374
▁nearby	-6375
▁Board	-6376
▁issued	-6377
abled	-6378
icon	-6379
▁Georg	-6380
▁objective	-6381
avery	-6382
▁powers	-6383
▁Age	-6384
▁membr	-6385
▁funds	-6386
▁estimates	-6387
▁mand	-6388
▁stimul	-6389
esis	-6390
▁shut	-6391
▁Sil	-6392
▁joined	-6393
There	-6394
▁shot	-6395
▁Big	-6396
erior	-6397
een	-6398
isk	-6399
▁reliable	-6400
aked	-6401
ih	-6402
▁explo	-6403
9)	-6404
▁players	-6405
CD	-6406
▁hem	-6407
▁pra	-6408
itt	-6409
▁Brazil	-6410
weight	-6411
▁lect	-6412
▁settings	-6413
▁Pet	-6414
▁smoke	-6415
▁painting	-6416
▁mode	-6417
▁spending	-6418
▁accessible	-6419
▁poison	-6420
▁ships	-6421
▁scan	-6422
▁EU	-6423
espread	-6424
▁maps	-6425
idity	-6426
▁spaces	-6427
▁putting	-6428
▁operate	-6429
▁reven	-6430
LA	-6431
▁define	-6432
hered	-6433
▁astr	-6434
▁reduces	-6435
▁outbre	-6436
▁smooth	-6437
▁·	-6438
▁butter	-6439
▁hur	-6440
▁Resp	-6441
ediatric	-6442
▁offering	-6443
plant	-6444
▁significance	-6445
▁surve	-6446
IG	-6447
▁sole	-6448
xts	-6449
asters	-6450
▁biod	-6451
▁Dar	-6452
▁script	-6453
▁match	-6454
BS	-6455
▁Family	-6456
▁Eastern	-6457
▁wasn	-6458
▁launched	-6459
struction	-6460
▁Mer	-6461
anches	-6462
▁employed	-6463
▁Cr	-6464
▁Never	-6465
▁bridge	-6466
▁minerals	-6467
▁gap	-6468
▁fold	-6469
▁adequate	-6470
▁Young	-6471
dule	-6472
▁moisture	-6473
▁meal	-6474
▁hole	-6475
▁matters	-6476
▁1/	-6477
▁participation	-6478
▁neur	-6479
▁Holy	-6480
▁usage	-6481
▁ongoing	-6482
▁expansion	-6483
▁arrange	-6484
▁Nut	-6485
▁association	-6486
ymph	-6487
hyth	-6488
▁markets	-6489
▁cup	-6490
ourage	-6491
▁Language	-6492
▁nest	-6493
ether	-6494
▁involving	-6495
▁controls	-6496
earing	-6497
▁oblig	-6498
▁route	-6499
▁everyday	-6500
ishment	-6501
gical	-6502
▁align	-6503
▁holds	-6504
▁mm	-6505
▁Victor	-6506
▁Guide	-6507
▁danger	-6508
etime	-6509
how	-6510
▁9.	-6511
▁consumer	-6512
▁installed	-6513
▁sections	-6514
▁tissues	-6515
but	-6516
▁categories	-6517
▁fashion	-6518
ugh	-6519
▁positions	-6520
▁Works	-6521
▁passage	-6522
▁Year	-6523
▁scene	-6524
oven	-6525
▁Sat	-6526
▁voltage	-6527
Is	-6528
▁Mult	-6529
▁vs	-6530
▁papers	-6531
▁rig	-6532
▁forget	-6533
8)	-6534
▁tight	-6535
▁spok	-6536
ureau	-6537
▁bond	-6538
▁exercises	-6539
gov	-6540
▁committed	-6541
itely	-6542
▁electro	-6543
▁undert	-6544
IA	-6545
▁award	-6546
umps	-6547
ey	-6548
▁legislation	-6549
▁damaged	-6550
▁Several	-6551
▁Low	-6552
▁dys	-6553
▁relief	-6554
▁tub	-6555
▁Orig	-6556
▁Author	-6557
such	-6558
▁guidance	-6559
▁defe	-6560
itter	-6561
▁mood	-6562
▁covers	-6563
▁Est	-6564
▁brings	-6565
44	-6566
▁shif	-6567
10.	-6568
ployment	-6569
omp	-6570
osion	-6571
▁banks	-6572
▁string	-6573
ighter	-6574
▁insulin	-6575
while	-6576
▁cryst	-6577
▁conven	-6578
fit	-6579
▁trip	-6580
▁Mean	-6581
▁centre	-6582
▁sacr	-6583
▁explanation	-6584
▁cav	-6585
▁column	-6586
▁Resources	-6587
▁repair	-6588
▁county	-6589
▁sheet	-6590
▁frame	-6591
ushed	-6592
▁preventing	-6593
making	-6594
▁widespread	-6595
irt	-6596
▁physics	-6597
▁mechanical	-6598
scale	-6599
▁Down	-6600
▁depart	-6601
▁fer	-6602
▁Martin	-6603
ittle	-6604
▁indicated	-6605
roduction	-6606
▁historic	-6607
▁blocks	-6608
▁rice	-6609
▁forth	-6610
▁receiving	-6611
▁holid	-6612
▁Next	-6613
occ	-6614
▁mining	-6615
▁Word	-6616
▁rivers	-6617
▁Four	-6618
▁Irish	-6619
ented	-6620
alls	-6621
rooms	-6622
▁kidney	-6623
▁recommendations	-6624
quit	-6625
▁constantly	-6626
▁150	-6627
▁manip	-6628
▁fulf	-6629
▁Change	-6630
▁seeking	-6631
▁Italian	-6632
You	-6633
▁worry	-6634
▁ske	-6635
▁agreed	-6636
▁drawn	-6637
▁ille	-6638
iah	-6639
nee	-6640
▁Chapter	-6641
▁Community	-6642
▁Lar	-6643
▁renewable	-6644
▁loved	-6645
▁organs	-6646
▁Leg	-6647
eenth	-6648
▁runs	-6649
▁Try	-6650
▁rely	-6651
▁meters	-6652
▁estimate	-6653
▁blow	-6654
iability	-6655
azine	-6656
oples	-6657
▁Party	-6658
ocation	-6659
▁pharm	-6660
▁succeed	-6661
▁measurement	-6662
▁babies	-6663
▁glucose	-6664
▁Face	-6665
CA	-6666
▁ended	-6667
▁cards	-6668
▁street	-6669
▁surfaces	-6670
▁approved	-6671
▁respectively	-6672
▁vac	-6673
iration	-6674
▁blind	-6675
▁artists	-6676
▁measurements	-6677
car	-6678
▁photo	-6679
▁Yes	-6680
▁asking	-6681
hent	-6682
▁Services	-6683
idential	-6684
▁texts	-6685
▁collaboration	-6686
thritis	-6687
▁Mel	-6688
▁designs	-6689
▁1980	-6690
▁furn	-6691
▁centers	-6692
▁victims	-6693
▁earn	-6694
▁intense	-6695
▁constructed	-6696
▁Ver	-6697
▁burning	-6698
amins	-6699
▁MS	-6700
icit	-6701
▁preparation	-6702
▁missing	-6703
▁advantages	-6704
▁intellectual	-6705
IR	-6706
▁volcan	-6707
▁trouble	-6708
▁beauty	-6709
▁aband	-6710
▁Indians	-6711
▁gram	-6712
▁declared	-6713
▁viruses	-6714
▁engaged	-6715
▁turning	-6716
▁neither	-6717
abulary	-6718
▁conversation	-6719
▁bath	-6720
▁Method	-6721
▁criteria	-6722
herent	-6723
ulty	-6724
▁rank	-6725
▁AP	-6726
▁plenty	-6727
▁Indust	-6728
▁outcome	-6729
▁none	-6730
▁controvers	-6731
▁tons	-6732
▁nervous	-6733
▁considering	-6734
▁strongly	-6735
▁announced	-6736
▁accuracy	-6737
▁integrated	-6738
▁holding	-6739
▁roles	-6740
▁males	-6741
▁females	-6742
▁calories	-6743
▁facility	-6744
-10	-6745
▁somewhat	-6746
▁examination	-6747
▁Atlantic	-6748
▁destruction	-6749
▁Whether	-6750
▁2006	-6751
▁Kingdom	-6752
▁wait	-6753
▁compare	-6754
▁evaluate	-6755
▁mortality	-6756
ibl	-6757
gers	-6758
▁transp	-6759
kins	-6760
that	-6761
▁honor	-6762
▁election	-6763
▁detection	-6764
▁Men	-6765
rial	-6766
▁Less	-6767
▁variables	-6768
▁boys	-6769
▁Po	-6770
airy	-6771
▁ingredients	-6772
rite	-6773
rency	-6774
▁husband	-6775
▁stre	-6776
▁dollars	-6777
she	-6778
46	-6779
▁division	-6780
pes	-6781
health	-6782
gs	-6783
▁ring	-6784
▁paras	-6785
▁publication	-6786
▁Fund	-6787
▁Hill	-6788
▁Without	-6789
▁thanks	-6790
▁1970	-6791
operation	-6792
acco	-6793
orph	-6794
▁pregnant	-6795
▁intest	-6796
▁orient	-6797
▁facing	-6798
▁favorite	-6799
▁Key	-6800
▁nob	-6801
▁fro	-6802
▁Article	-6803
▁Security	-6804
▁hun	-6805
▁composed	-6806
▁withd	-6807
▁Viet	-6808
▁advert	-6809
olving	-6810
▁wound	-6811
▁boy	-6812
igan	-6813
▁ped	-6814
▁category	-6815
▁strict	-6816
greg	-6817
UN	-6818
▁tube	-6819
▁forg	-6820
cons	-6821
▁Polic	-6822
▁earthqu	-6823
rot	-6824
▁Princ	-6825
otton	-6826
▁distributed	-6827
esides	-6828
▁Asian	-6829
▁negot	-6830
▁horses	-6831
▁Oxford	-6832
▁entered	-6833
oom	-6834
▁Christmas	-6835
-18	-6836
37	-6837
▁tract	-6838
▁Ep	-6839
etics	-6840
▁crim	-6841
▁sharp	-6842
▁complicated	-6843
▁incred	-6844
▁domain	-6845
▁effectiveness	-6846
▁realize	-6847
otes	-6848
▁removal	-6849
▁archae	-6850
▁careful	-6851
▁Rom	-6852
▁acute	-6853
forcement	-6854
▁Kar	-6855
▁Sup	-6856
▁Sym	-6857
▁Bill	-6858
▁©	-6859
▁Lib	-6860
▁shapes	-6861
ady	-6862
▁fourth	-6863
▁coastal	-6864
▁desired	-6865
▁score	-6866
▁metabol	-6867
▁breeding	-6868
▁Zeal	-6869
▁dose	-6870
apse	-6871
▁artist	-6872
▁farming	-6873
▁informed	-6874
▁angle	-6875
RA	-6876
▁Pot	-6877
▁shock	-6878
orders	-6879
▁proportion	-6880
ventions	-6881
▁irrit	-6882
▁maintained	-6883
▁TV	-6884
▁implications	-6885
ani	-6886
isdom	-6887
▁messages	-6888
▁teams	-6889
▁clothing	-6890
▁uncertain	-6891
▁influenced	-6892
opes	-6893
▁pounds	-6894
▁analys	-6895
rey	-6896
▁implemented	-6897
elesc	-6898
ortion	-6899
sis	-6900
▁cleaning	-6901
▁Type	-6902
▁enemy	-6903
▁respiratory	-6904
▁aims	-6905
ivered	-6906
▁arrest	-6907
▁sought	-6908
IDS	-6909
▁mixt	-6910
aming	-6911
▁nose	-6912
▁comfortable	-6913
▁Dou	-6914
▁inn	-6915
sts	-6916
▁parallel	-6917
icate	-6918
roat	-6919
OL	-6920
▁heating	-6921
▁gut	-6922
▁Which	-6923
▁compris	-6924
OC	-6925
▁Agency	-6926
▁theore	-6927
▁transact	-6928
▁Gr	-6929
▁Naz	-6930
▁proven	-6931
▁theories	-6932
▁beings	-6933
▁arts	-6934
▁seemed	-6935
reek	-6936
▁plus	-6937
rene	-6938
aired	-6939
arsh	-6940
▁excessive	-6941
39	-6942
aded	-6943
▁prohib	-6944
osh	-6945
▁Pak	-6946
▁Rock	-6947
▁switch	-6948
▁Grand	-6949
▁attempts	-6950
hyd	-6951
▁proof	-6952
▁Zealand	-6953
▁abnormal	-6954
▁gradually	-6955
▁dischar	-6956
oln	-6957
▁dealing	-6958
▁agents	-6959
▁filter	-6960
▁varieties	-6961
Al	-6962
▁Den	-6963
▁satellite	-6964
▁phenomenon	-6965
▁item	-6966
▁focuses	-6967
rary	-6968
heric	-6969
▁overw	-6970
▁Safety	-6971
▁subsequent	-6972
▁stronger	-6973
itals	-6974
IM	-6975
▁bringing	-6976
▁rocks	-6977
▁Secret	-6978
▁owner	-6979
▁dependent	-6980
eren	-6981
rowing	-6982
ohyd	-6983
▁2005	-6984
ommod	-6985
▁discrimination	-6986
▁Network	-6987
▁District	-6988
▁mold	-6989
cyclop	-6990
▁panel	-6991
▁Perhaps	-6992
▁Light	-6993
▁ov	-6994
▁escape	-6995
ovascular	-6996
▁confirmed	-6997
asty	-6998
riend	-6999
▁Source	-7000
sen	-7001
▁silver	-7002
▁molecular	-7003
▁Tim	-7004
▁empt	-7005
▁opposed	-7006
▁AND	-7007
▁moves	-7008
▁combat	-7009
▁Windows	-7010
▁merely	-7011
yal	-7012
▁Islam	-7013
▁theme	-7014
▁officers	-7015
▁contemporary	-7016
raining	-7017
aska	-7018
▁deeper	-7019
UT	-7020
HD	-7021
▁photos	-7022
▁carrying	-7023
▁absence	-7024
▁serving	-7025
▁rarely	-7026
iological	-7027
▁peak	-7028
▁cooking	-7029
▁formula	-7030
▁session	-7031
agram	-7032
eut	-7033
▁id	-7034
▁Tre	-7035
▁learners	-7036
▁fairly	-7037
▁circle	-7038
▁encouraged	-7039
▁31	-7040
He	-7041
▁Treatment	-7042
SS	-7043
▁seconds	-7044
▁visitors	-7045
eness	-7046
▁screening	-7047
▁chlor	-7048
▁Reading	-7049
▁Remember	-7050
▁commission	-7051
▁signed	-7052
ruption	-7053
▁5,	-7054
rous	-7055
▁reward	-7056
oir	-7057
▁captured	-7058
▁healing	-7059
▁weapons	-7060
%)	-7061
▁knowing	-7062
heimer	-7063
▁turb	-7064
▁characterized	-7065
outs	-7066
▁biology	-7067
▁Jac	-7068
▁claimed	-7069
▁temple	-7070
▁considerable	-7071
▁pand	-7072
▁Scientists	-7073
ano	-7074
▁serves	-7075
▁evil	-7076
▁copper	-7077
▁AM	-7078
▁Er	-7079
▁jump	-7080
47	-7081
iral	-7082
▁disaster	-7083
▁Administration	-7084
▁presents	-7085
▁launch	-7086
eli	-7087
▁asthma	-7088
▁difficulties	-7089
▁32	-7090
▁Coll	-7091
▁Sar	-7092
▁tut	-7093
▁essentially	-7094
▁clar	-7095
istical	-7096
▁treating	-7097
▁Super	-7098
▁crew	-7099
▁Heb	-7100
▁universal	-7101
▁wine	-7102
▁outer	-7103
▁statistics	-7104
▁flower	-7105
▁provider	-7106
▁gained	-7107
▁chest	-7108
▁1960	-7109
▁encoun	-7110
▁fung	-7111
▁Sund	-7112
▁defense	-7113
▁remed	-7114
▁delivered	-7115
▁pit	-7116
▁passing	-7117
▁radical	-7118
▁consideration	-7119
▁Sir	-7120
ipedia	-7121
▁neuro	-7122
▁fishing	-7123
example	-7124
▁happening	-7125
▁Lo	-7126
▁MD	-7127
32	-7128
pling	-7129
▁inher	-7130
▁literacy	-7131
▁nitrogen	-7132
▁Having	-7133
olesc	-7134
▁mineral	-7135
▁targets	-7136
onn	-7137
▁Cast	-7138
igate	-7139
▁principal	-7140
▁Mah	-7141
▁innovation	-7142
▁interpre	-7143
▁interpretation	-7144
ostic	-7145
essions	-7146
▁infect	-7147
ogether	-7148
▁spectrum	-7149
bles	-7150
▁imagine	-7151
▁infant	-7152
▁planned	-7153
▁falls	-7154
▁insert	-7155
▁minute	-7156
▁branches	-7157
▁Modern	-7158
65	-7159
▁Neu	-7160
▁cash	-7161
▁decor	-7162
▁400	-7163
▁breed	-7164
▁newly	-7165
▁unusual	-7166
▁slavery	-7167
▁honey	-7168
▁Swed	-7169
▁Dev	-7170
▁flour	-7171
peror	-7172
theless	-7173
▁fed	-7174
▁criminal	-7175
▁2:	-7176
▁Ident	-7177
▁correl	-7178
chen	-7179
49	-7180
▁edition	-7181
▁threats	-7182
▁roads	-7183
▁proved	-7184
▁trends	-7185
haust	-7186
▁islands	-7187
oston	-7188
▁remind	-7189
▁modified	-7190
▁racial	-7191
mes	-7192
uality	-7193
illa	-7194
rox	-7195
▁(198	-7196
▁gro	-7197
▁hazard	-7198
incoln	-7199
▁examined	-7200
▁exclus	-7201
coming	-7202
▁Angel	-7203
▁pestic	-7204
emia	-7205
▁judge	-7206
mers	-7207
iana	-7208
▁Director	-7209
%.	-7210
▁Moon	-7211
▁180	-7212
▁holes	-7213
▁guard	-7214
▁sales	-7215
▁lie	-7216
oga	-7217
▁anywhere	-7218
/0	-7219
▁satisf	-7220
▁decreased	-7221
▁Iran	-7222
▁unw	-7223
▁investigation	-7224
▁microb	-7225
▁Fire	-7226
▁Centre	-7227
▁sail	-7228
▁substantial	-7229
▁mathematics	-7230
▁disrupt	-7231
▁hormone	-7232
▁trigger	-7233
▁intent	-7234
▁phosph	-7235
▁finished	-7236
ptions	-7237
▁stead	-7238
▁sport	-7239
▁eliminate	-7240
ilation	-7241
CE	-7242
▁grain	-7243
▁videos	-7244
▁roughly	-7245
AA	-7246
▁printed	-7247
Ph	-7248
▁worship	-7249
▁tropical	-7250
▁lake	-7251
▁observe	-7252
▁Ur	-7253
▁Pur	-7254
▁Hand	-7255
vard	-7256
▁demands	-7257
▁structural	-7258
ontal	-7259
▁complications	-7260
▁writers	-7261
▁Ask	-7262
▁cham	-7263
riz	-7264
▁Johnson	-7265
▁ensuring	-7266
▁printing	-7267
▁Cell	-7268
▁usual	-7269
vin	-7270
▁Jul	-7271
▁experimental	-7272
▁assume	-7273
▁equally	-7274
▁initially	-7275
▁prominent	-7276
lishing	-7277
▁Prevention	-7278
▁Organization	-7279
▁variation	-7280
▁stability	-7281
▁Avoid	-7282
va	-7283
▁microsc	-7284
▁branch	-7285
▁warning	-7286
▁Wall	-7287
▁Contin	-7288
▁Parent	-7289
tles	-7290
otal	-7291
▁brush	-7292
▁Imp	-7293
ioxid	-7294
▁rab	-7295
amics	-7296
▁lights	-7297
▁Columbia	-7298
▁faced	-7299
▁television	-7300
▁Business	-7301
▁Again	-7302
▁plane	-7303
rison	-7304
▁errors	-7305
bar	-7306
▁Wal	-7307
▁concerning	-7308
▁config	-7309
▁Online	-7310
▁marks	-7311
▁compens	-7312
▁accommod	-7313
adder	-7314
ustain	-7315
▁compound	-7316
▁grid	-7317
▁consume	-7318
▁exception	-7319
An	-7320
▁Coast	-7321
▁experiencing	-7322
▁sus	-7323
bec	-7324
▁recover	-7325
medi	-7326
▁Engineering	-7327
▁Person	-7328
▁processed	-7329
▁Bul	-7330
ette	-7331
ounce	-7332
▁spin	-7333
▁abilities	-7334
▁neighborhood	-7335
iary	-7336
________	-7337
▁py	-7338
unicip	-7339
▁listening	-7340
▁Ven	-7341
▁schedule	-7342
▁Pakistan	-7343
df	-7344
▁maybe	-7345
icing	-7346
▁identification	-7347
▁Oper	-7348
▁fest	-7349
agraph	-7350
▁Jeff	-7351
ricts	-7352
▁Assess	-7353
▁detected	-7354
▁evolved	-7355
▁diameter	-7356
elfare	-7357
▁traditions	-7358
▁manifest	-7359
onal	-7360
iat	-7361
▁scientist	-7362
-20	-7363
rane	-7364
▁hosp	-7365
▁Cross	-7366
▁strengthen	-7367
otype	-7368
▁overcome	-7369
▁physician	-7370
▁ye	-7371
▁kilomet	-7372
▁Star	-7373
▁stations	-7374
ultane	-7375
▁Init	-7376
fts	-7377
▁subt	-7378
▁Bu	-7379
▁dates	-7380
▁suffered	-7381
gien	-7382
▁adds	-7383
▁soul	-7384
▁Christians	-7385
ogenic	-7386
▁amazing	-7387
ograp	-7388
▁elected	-7389
Ar	-7390
▁dynamic	-7391
▁rose	-7392
▁bigger	-7393
▁driven	-7394
▁scar	-7395
▁providers	-7396
▁Ut	-7397
▁correctly	-7398
▁Math	-7399
▁Liter	-7400
▁defend	-7401
▁Lincoln	-7402
abeth	-7403
▁cab	-7404
atial	-7405
▁ordered	-7406
igue	-7407
effect	-7408
American	-7409
▁indigenous	-7410
▁Father	-7411
▁translation	-7412
▁engineers	-7413
▁Far	-7414
▁identifying	-7415
itarian	-7416
mm	-7417
▁perm	-7418
▁disabilities	-7419
▁Pen	-7420
▁mg	-7421
class	-7422
▁Sand	-7423
▁laid	-7424
▁sunlight	-7425
▁accompan	-7426
▁regulation	-7427
▁corner	-7428
ima	-7429
▁intensity	-7430
oric	-7431
gence	-7432
cient	-7433
▁measuring	-7434
itual	-7435
▁commitment	-7436
▁brows	-7437
oids	-7438
▁assigned	-7439
▁Desc	-7440
atively	-7441
▁senior	-7442
▁array	-7443
▁epis	-7444
▁galax	-7445
▁poem	-7446
▁coverage	-7447
rav	-7448
▁editor	-7449
▁windows	-7450
▁bacterial	-7451
sell	-7452
▁Eliz	-7453
▁suscept	-7454
▁isolated	-7455
▁Heart	-7456
▁AR	-7457
▁stores	-7458
▁)	-7459
print	-7460
▁client	-7461
▁Supreme	-7462
▁caught	-7463
▁adm	-7464
▁Tom	-7465
including	-7466
oured	-7467
▁View	-7468
lvan	-7469
▁biom	-7470
icy	-7471
34	-7472
▁Alz	-7473
▁earliest	-7474
▁inspired	-7475
▁meals	-7476
▁split	-7477
▁stuff	-7478
▁Lead	-7479
▁ceremon	-7480
▁strain	-7481
▁Did	-7482
55	-7483
▁heavily	-7484
▁Impro	-7485
icted	-7486
▁bees	-7487
ested	-7488
▁Edward	-7489
▁musical	-7490
▁statements	-7491
night	-7492
▁Rh	-7493
▁protecting	-7494
▁aged	-7495
▁Ins	-7496
ucky	-7497
▁concluded	-7498
▁IV	-7499
▁dietary	-7500
▁plot	-7501
▁observation	-7502
▁functioning	-7503
▁finds	-7504
▁Thanks	-7505
▁orbit	-7506
▁alter	-7507
▁flows	-7508
▁terror	-7509
▁stake	-7510
▁cort	-7511
▁uncom	-7512
▁planting	-7513
▁granted	-7514
▁Following	-7515
▁cyber	-7516
▁reveal	-7517
▁superior	-7518
▁innovative	-7519
rays	-7520
soft	-7521
▁objectives	-7522
OM	-7523
▁Boston	-7524
▁player	-7525
htt	-7526
▁cattle	-7527
ishop	-7528
▁Being	-7529
sm	-7530
produ	-7531
▁Incre	-7532
▁Consider	-7533
ali	-7534
▁Based	-7535
inf	-7536
▁pros	-7537
▁productivity	-7538
▁driver	-7539
ogs	-7540
opic	-7541
▁vitamins	-7542
door	-7543
usive	-7544
▁extend	-7545
▁slaves	-7546
▁vocabulary	-7547
▁bomb	-7548
EE	-7549
77	-7550
uten	-7551
cking	-7552
▁drought	-7553
▁Conservation	-7554
▁Indeed	-7555
asant	-7556
rance	-7557
▁autism	-7558
iture	-7559
▁imaging	-7560
yer	-7561
onym	-7562
▁protective	-7563
▁Due	-7564
spect	-7565
▁conqu	-7566
▁conserv	-7567
▁sitting	-7568
ieval	-7569
▁conj	-7570
isco	-7571
▁occurring	-7572
▁representation	-7573
otherapy	-7574
▁fatty	-7575
trans	-7576
▁enables	-7577
▁heads	-7578
▁grows	-7579
▁cooling	-7580
lines	-7581
▁adverse	-7582
▁Play	-7583
▁reaching	-7584
▁coc	-7585
▁emphasis	-7586
▁Polit	-7587
ude	-7588
▁Unlike	-7589
oli	-7590
▁Ohio	-7591
▁relie	-7592
▁lip	-7593
▁van	-7594
▁enorm	-7595
sylvan	-7596
▁contribution	-7597
▁channel	-7598
▁Var	-7599
▁Lee	-7600
▁peoples	-7601
enger	-7602
▁antibiotics	-7603
▁Georgia	-7604
orted	-7605
▁Queen	-7606
▁regardless	-7607
▁Ol	-7608
▁athlet	-7609
▁slave	-7610
▁authent	-7611
▁gases	-7612
semb	-7613
▁hence	-7614
asm	-7615
▁perception	-7616
▁2019	-7617
brid	-7618
▁automatically	-7619
HA	-7620
▁agent	-7621
▁Hebrew	-7622
▁Gar	-7623
▁mosquit	-7624
▁Protection	-7625
▁Vitamin	-7626
▁Minister	-7627
▁Alzheimer	-7628
▁pin	-7629
▁acres	-7630
▁taxes	-7631
▁Facebook	-7632
ba	-7633
acent	-7634
▁1950	-7635
▁conce	-7636
▁bag	-7637
▁Obs	-7638
▁(1)	-7639
▁wheat	-7640
▁alph	-7641
:10.	-7642
▁viewed	-7643
▁Mot	-7644
holders	-7645
▁inequ	-7646
▁contributed	-7647
▁exhaust	-7648
▁Head	-7649
▁Corn	-7650
▁mixture	-7651
▁nutrient	-7652
ENT	-7653
▁IT	-7654
▁mir	-7655
etary	-7656
▁worst	-7657
▁Nov	-7658
▁batteries	-7659
▁counsel	-7660
▁Scotland	-7661
▁overwhel	-7662
ura	-7663
▁uniform	-7664
▁les	-7665
▁laser	-7666
▁panels	-7667
▁educators	-7668
▁Iss	-7669
▁Ly	-7670
▁CP	-7671
▁Policy	-7672
▁managing	-7673
▁sup	-7674
▁sensors	-7675
▁rac	-7676
▁sensitivity	-7677
▁conference	-7678
▁moderate	-7679
▁mountains	-7680
quir	-7681
▁weakness	-7682
▁pla	-7683
just	-7684
▁Hospital	-7685
▁hardware	-7686
▁duty	-7687
▁assets	-7688
▁insight	-7689
▁wheel	-7690
▁Building	-7691
ansas	-7692
▁TO	-7693
▁customer	-7694
▁Korea	-7695
▁Hor	-7696
CP	-7697
▁writes	-7698
▁acquired	-7699
har	-7700
▁Solar	-7701
▁Michigan	-7702
▁hidden	-7703
▁oldest	-7704
▁addressed	-7705
▁asc	-7706
▁coron	-7707
writ	-7708
▁inhabit	-7709
alm	-7710
▁affecting	-7711
▁Road	-7712
▁Invest	-7713
from	-7714
▁argue	-7715
▁Survey	-7716
▁availability	-7717
▁union	-7718
▁Him	-7719
▁decay	-7720
▁interventions	-7721
▁ampl	-7722
▁directed	-7723
plete	-7724
ercury	-7725
▁thermal	-7726
▁supplements	-7727
▁AL	-7728
sylvania	-7729
▁calling	-7730
▁concentrations	-7731
angered	-7732
ptom	-7733
▁farms	-7734
▁Spring	-7735
▁Blue	-7736
▁workshe	-7737
▁Cambridge	-7738
▁SS	-7739
atal	-7740
▁bless	-7741
▁tables	-7742
▁smell	-7743
▁falling	-7744
▁advent	-7745
html	-7746
▁profit	-7747
▁parameters	-7748
▁covering	-7749
▁manufacturers	-7750
▁finger	-7751
▁Books	-7752
▁Small	-7753
azon	-7754
▁giant	-7755
ema	-7756
rolled	-7757
▁interactive	-7758
▁surge	-7759
▁chances	-7760
▁6,	-7761
hea	-7762
ruit	-7763
▁tick	-7764
▁quantity	-7765
31	-7766
▁rational	-7767
ographical	-7768
▁Card	-7769
▁Arctic	-7770
▁nice	-7771
athered	-7772
amine	-7773
New	-7774
▁migration	-7775
▁elder	-7776
▁herb	-7777
▁separated	-7778
HS	-7779
▁programme	-7780
▁quarter	-7781
▁thereby	-7782
▁Dutch	-7783
▁2004	-7784
itory	-7785
▁consumed	-7786
▁Analysis	-7787
▁resid	-7788
▁rhyth	-7789
▁engaging	-7790
forest	-7791
rection	-7792
▁quiet	-7793
MP	-7794
real	-7795
▁(5	-7796
?"	-7797
allow	-7798
isted	-7799
▁phrase	-7800
▁Division	-7801
▁forming	-7802
▁lymph	-7803
▁compost	-7804
▁sizes	-7805
▁girl	-7806
▁alive	-7807
▁rect	-7808
NS	-7809
▁analyze	-7810
▁Force	-7811
▁urine	-7812
▁simultane	-7813
▁Model	-7814
ett	-7815
▁reporting	-7816
ols	-7817
▁vel	-7818
▁tumor	-7819
▁comprom	-7820
▁technological	-7821
▁pH	-7822
▁preserve	-7823
▁Little	-7824
▁desert	-7825
▁vaccines	-7826
acts	-7827
▁trauma	-7828
▁characteristic	-7829
quar	-7830
alities	-7831
aws	-7832
▁settlement	-7833
aren	-7834
▁illegal	-7835
▁Mach	-7836
95	-7837
▁resil	-7838
▁ritual	-7839
Cl	-7840
▁embra	-7841
▁exciting	-7842
▁Mic	-7843
▁neutral	-7844
▁38	-7845
▁scores	-7846
ao	-7847
▁48	-7848
▁interface	-7849
▁(4	-7850
▁robot	-7851
▁heritage	-7852
▁Spirit	-7853
▁introduce	-7854
▁mathematical	-7855
▁chemistry	-7856
▁personality	-7857
▁creatures	-7858
▁versions	-7859
▁Understanding	-7860
▁Elizabeth	-7861
▁Lim	-7862
ailable	-7863
▁Battle	-7864
▁antioxid	-7865
▁shoot	-7866
▁boundaries	-7867
reated	-7868
▁vertical	-7869
dr	-7870
▁advis	-7871
▁substit	-7872
▁dress	-7873
▁losses	-7874
▁capabilities	-7875
▁regarded	-7876
▁fats	-7877
▁colonial	-7878
▁aimed	-7879
▁swit	-7880
▁pandemic	-7881
▁exploration	-7882
▁Pennsylvania	-7883
lete	-7884
▁dance	-7885
archy	-7886
▁184	-7887
▁Drug	-7888
▁killing	-7889
▁cure	-7890
▁preced	-7891
▁updated	-7892
una	-7893
▁fuels	-7894
How	-7895
▁stones	-7896
▁visited	-7897
▁promoting	-7898
▁planets	-7899
century	-7900
▁cardiovascular	-7901
▁humanity	-7902
▁DO	-7903
irms	-7904
▁calculated	-7905
▁variations	-7906
',	-7907
iop	-7908
▁cord	-7909
▁cotton	-7910
Un	-7911
▁carbohyd	-7912
hus	-7913
▁narrative	-7914
▁Digital	-7915
▁websites	-7916
▁seat	-7917
▁Lin	-7918
▁2018	-7919
▁tob	-7920
DS	-7921
uset	-7922
icular	-7923
▁mothers	-7924
apor	-7925
iments	-7926
▁Way	-7927
asts	-7928
neys	-7929
▁lungs	-7930
▁gast	-7931
▁Gener	-7932
▁improvements	-7933
angle	-7934
],	-7935
▁quantum	-7936
erty	-7937
▁harder	-7938
▁container	-7939
▁keeps	-7940
ricted	-7941
▁initiative	-7942
berry	-7943
▁attach	-7944
usalem	-7945
▁Colorado	-7946
usetts	-7947
▁achievement	-7948
fulness	-7949
▁Later	-7950
zer	-7951
▁behavioral	-7952
pled	-7953
▁Pass	-7954
achusetts	-7955
▁appointed	-7956
▁lens	-7957
▁wisdom	-7958
▁pointed	-7959
▁myst	-7960
▁expectations	-7961
▁irrig	-7962
▁button	-7963
▁permission	-7964
76	-7965
▁buried	-7966
▁stopped	-7967
▁tap	-7968
▁orders	-7969
▁attitude	-7970
▁ran	-7971
ulpt	-7972
▁propag	-7973
▁focusing	-7974
▁flexible	-7975
▁steam	-7976
▁Section	-7977
▁ordinary	-7978
▁expanded	-7979
▁grains	-7980
iva	-7981
▁dimens	-7982
▁tribes	-7983
▁computing	-7984
▁disability	-7985
-12	-7986
▁towns	-7987
▁Help	-7988
▁Economic	-7989
▁ethical	-7990
▁hunting	-7991
▁sched	-7992
▁democracy	-7993
▁Alexander	-7994
▁ease	-7995
▁believes	-7996
aret	-7997
eting	-7998
▁emerging	-7999
▁charged	-8000
▁Ira	-8001
▁officer	-8002
CR	-8003
adel	-8004
▁tong	-8005
▁emotion	-8006
ymes	-8007
▁flash	-8008
amps	-8009
▁polar	-8010
▁ecological	-8011
▁asp	-8012
▁descript	-8013
urches	-8014
▁societies	-8015
ician	-8016
▁clock	-8017
▁dism	-8018
▁Circ	-8019
▁fellow	-8020
▁deficiency	-8021
▁Hum	-8022
▁biodiversity	-8023
Sp	-8024
▁mine	-8025
▁opposition	-8026
▁tor	-8027
▁ven	-8028
▁entertain	-8029
▁cas	-8030
▁65	-8031
▁physically	-8032
▁researcher	-8033
rical	-8034
irth	-8035
▁1)	-8036
▁sustainability	-8037
▁tobacco	-8038
ugg	-8039
▁Right	-8040
▁adolesc	-8041
▁performing	-8042
adow	-8043
▁Justice	-8044
▁Physical	-8045
thon	-8046
▁argued	-8047
ivest	-8048
▁equation	-8049
▁Ok	-8050
▁consciousness	-8051
▁marketing	-8052
▁Cub	-8053
▁spray	-8054
▁temporary	-8055
▁determining	-8056
▁elsewhere	-8057
▁Palest	-8058
▁Massachusetts	-8059
▁waiting	-8060
▁flying	-8061
▁duration	-8062
mann	-8063
▁owned	-8064
rize	-8065
advant	-8066
omer	-8067
▁Parliament	-8068
▁addiction	-8069
BT	-8070
▁geomet	-8071
asy	-8072
▁metals	-8073
▁linear	-8074
def	-8075
▁fing	-8076
lights	-8077
▁;	-8078
▁exhibit	-8079
ecess	-8080
▁Islamic	-8081
▁Systems	-8082
▁ecosystems	-8083
▁Still	-8084
▁recycling	-8085
▁plain	-8086
anger	-8087
iger	-8088
rix	-8089
▁scr	-8090
▁transmit	-8091
▁Point	-8092
▁Kids	-8093
▁deeply	-8094
▁Jerusalem	-8095
ependent	-8096
▁scope	-8097
.).	-8098
▁drivers	-8099
▁threatened	-8100
endment	-8101
▁Pain	-8102
ptic	-8103
TP	-8104
▁Saint	-8105
▁removing	-8106
▁Max	-8107
▁pilot	-8108
▁lock	-8109
▁directions	-8110
▁executive	-8111
▁safely	-8112
▁universities	-8113
▁communications	-8114
▁logic	-8115
▁chap	-8116
▁gent	-8117
▁Often	-8118
▁Christianity	-8119
▁2003	-8120
▁Behav	-8121
▁wonderful	-8122
▁fra	-8123
▁75	-8124
▁psychology	-8125
▁balanced	-8126
▁arguments	-8127
▁degrad	-8128
▁spr	-8129
▁Philipp	-8130
▁Cost	-8131
▁abstract	-8132
▁Crit	-8133
▁remarkable	-8134
▁lists	-8135
▁lighting	-8136
▁Confed	-8137
▁sodium	-8138
ami	-8139
▁sensor	-8140
▁||	-8141
▁audio	-8142
CH	-8143
▁37	-8144
▁Level	-8145
▁Harvard	-8146
▁boat	-8147
▁dim	-8148
▁ton	-8149
▁CH	-8150
▁1,000	-8151
▁preferred	-8152
▁Ve	-8153
▁exped	-8154
▁lowest	-8155
▁Process	-8156
▁Fil	-8157
▁paragraph	-8158
ipe	-8159
oul	-8160
▁cann	-8161
amination	-8162
Go	-8163
▁reasonable	-8164
ipher	-8165
utation	-8166
▁Code	-8167
bean	-8168
uum	-8169
▁vegetation	-8170
idal	-8171
▁Hawai	-8172
▁Agriculture	-8173
▁eru	-8174
▁evident	-8175
66	-8176
▁Mur	-8177
▁royal	-8178
arn	-8179
unct	-8180
▁Within	-8181
▁investigate	-8182
▁proceed	-8183
▁(2)	-8184
▁tempor	-8185
▁jur	-8186
▁faces	-8187
▁spoken	-8188
▁integration	-8189
▁dramatic	-8190
lu	-8191
▁Symptoms	-8192
▁insights	-8193
▁33	-8194
▁DC	-8195
▁Sunday	-8196
▁reverse	-8197
▁sentences	-8198
ourse	-8199
▁fur	-8200
▁ranging	-8201
▁Writing	-8202
esh	-8203
▁cancers	-8204
▁clients	-8205
eries	-8206
anted	-8207
▁styles	-8208
▁tip	-8209
▁Page	-8210
▁literary	-8211
▁Farm	-8212
ivestock	-8213
▁2)	-8214
▁passion	-8215
▁embry	-8216
▁EPA	-8217
iations	-8218
words	-8219
uits	-8220
▁UV	-8221
▁10,	-8222
▁watching	-8223
cyclopedia	-8224
▁Given	-8225
▁movie	-8226
▁Stan	-8227
▁7,	-8228
▁Diet	-8229
▁incident	-8230
.'	-8231
▁fatigue	-8232
mia	-8233
▁settled	-8234
▁shed	-8235
▁Wildlife	-8236
▁expertise	-8237
▁clothes	-8238
sor	-8239
istant	-8240
EF	-8241
▁contributions	-8242
▁membrane	-8243
▁empty	-8244
▁poetry	-8245
▁guess	-8246
▁fires	-8247
▁sevent	-8248
▁feels	-8249
asma	-8250
▁evening	-8251
▁Mond	-8252
▁corresponding	-8253
▁courts	-8254
▁priority	-8255
▁perceived	-8256
▁entering	-8257
▁Put	-8258
▁libr	-8259
kind	-8260
▁hormones	-8261
▁classified	-8262
▁fought	-8263
opher	-8264
▁minds	-8265
▁assembly	-8266
▁wider	-8267
orig	-8268
▁viral	-8269
▁engines	-8270
▁colonies	-8271
▁households	-8272
▁Laboratory	-8273
zo	-8274
▁Li	-8275
▁parad	-8276
▁thread	-8277
▁infants	-8278
▁definitely	-8279
▁Bal	-8280
▁dies	-8281
mented	-8282
raine	-8283
▁labour	-8284
mentia	-8285
ashes	-8286
ati	-8287
eor	-8288
▁painful	-8289
▁Ice	-8290
▁Bang	-8291
ket	-8292
borne	-8293
▁Blood	-8294
gener	-8295
▁summary	-8296
▁Frid	-8297
▁aging	-8298
▁raising	-8299
▁streets	-8300
▁dairy	-8301
▁telling	-8302
▁Ba	-8303
▁manual	-8304
▁Chem	-8305
rh	-8306
▁losing	-8307
▁applying	-8308
▁districts	-8309
▁establishment	-8310
▁genome	-8311
▁MA	-8312
▁saved	-8313
▁oxid	-8314
OW	-8315
▁differently	-8316
▁Ram	-8317
▁interior	-8318
▁dense	-8319
edu	-8320
▁enormous	-8321
▁SP	-8322
And	-8323
▁hygien	-8324
▁requirement	-8325
▁nutritional	-8326
▁?	-8327
▁Similarly	-8328
uther	-8329
▁Portug	-8330
▁facilitate	-8331
▁conclus	-8332
▁Examples	-8333
▁tens	-8334
▁Iraq	-8335
▁2001	-8336
tw	-8337
▁fisher	-8338
▁engagement	-8339
For	-8340
agen	-8341
▁Gulf	-8342
▁hall	-8343
▁limitations	-8344
nut	-8345
▁drag	-8346
▁Fred	-8347
▁targeted	-8348
▁converted	-8349
▁£	-8350
▁assumed	-8351
▁spinal	-8352
▁fo	-8353
▁continuing	-8354
▁Between	-8355
▁Place	-8356
▁explicit	-8357
▁resc	-8358
urning	-8359
▁trick	-8360
ogy	-8361
▁Music	-8362
▁convert	-8363
▁convey	-8364
erman	-8365
▁dominant	-8366
chain	-8367
▁handling	-8368
▁acting	-8369
▁Support	-8370
▁committee	-8371
▁Wikipedia	-8372
▁spots	-8373
▁Daniel	-8374
▁CE	-8375
▁Van	-8376
▁fet	-8377
▁transmitted	-8378
flamm	-8379
▁actively	-8380
▁tack	-8381
▁grounds	-8382
▁occas	-8383
▁manager	-8384
▁3:	-8385
▁rh	-8386
friend	-8387
▁ID	-8388
▁appeal	-8389
▁promise	-8390
▁attribut	-8391
▁wearing	-8392
▁traits	-8393
▁integr	-8394
aints	-8395
▁Conference	-8396
▁Islands	-8397
oys	-8398
▁Interest	-8399
▁joints	-8400
mentation	-8401
▁classical	-8402
▁saving	-8403
▁prevalence	-8404
▁extension	-8405
olt	-8406
bell	-8407
▁Francisco	-8408
▁Amazon	-8409
▁Proble	-8410
wan	-8411
▁accompanied	-8412
▁equality	-8413
operative	-8414
▁sessions	-8415
▁Self	-8416
▁digestive	-8417
▁orb	-8418
▁strike	-8419
ila	-8420
▁Hard	-8421
▁entit	-8422
▁shaped	-8423
ocolate	-8424
▁adapted	-8425
Ex	-8426
▁sulf	-8427
OD	-8428
▁emerged	-8429
▁cough	-8430
▁symbols	-8431
ifice	-8432
▁profile	-8433
▁differ	-8434
rus	-8435
eping	-8436
▁craft	-8437
mod	-8438
▁Pu	-8439
▁weigh	-8440
▁Capt	-8441
▁hypothesis	-8442
▁Import	-8443
▁Standard	-8444
▁celebrated	-8445
olk	-8446
▁Testament	-8447
▁barriers	-8448
▁recre	-8449
▁choosing	-8450
Sh	-8451
68	-8452
unc	-8453
▁devast	-8454
▁Much	-8455
▁buff	-8456
▁8,	-8457
▁versus	-8458
▁prey	-8459
elve	-8460
erts	-8461
▁gravity	-8462
▁Material	-8463
aka	-8464
▁Ha	-8465
AB	-8466
▁Andrew	-8467
▁astronom	-8468
▁haven	-8469
▁pollut	-8470
▁wouldn	-8471
ranean	-8472
▁soils	-8473
IF	-8474
ouds	-8475
▁Emer	-8476
▁Copyright	-8477
▁kingdom	-8478
books	-8479
earch	-8480
▁AC	-8481
▁grades	-8482
▁involvement	-8483
endar	-8484
▁Should	-8485
▁Muslims	-8486
▁municip	-8487
▁resistant	-8488
▁Ott	-8489
▁specialized	-8490
agnetic	-8491
raham	-8492
▁friendly	-8493
neum	-8494
itting	-8495
▁gly	-8496
▁myself	-8497
▁dil	-8498
▁drinks	-8499
▁beat	-8500
▁loose	-8501
▁anticip	-8502
▁pill	-8503
▁acknowled	-8504
▁circulation	-8505
▁Mid	-8506
▁probability	-8507
▁Los	-8508
▁Nob	-8509
izers	-8510
▁complexity	-8511
ackson	-8512
▁34	-8513
▁references	-8514
▁unn	-8515
oto	-8516
▁holiday	-8517
▁cow	-8518
▁cul	-8519
▁solving	-8520
oves	-8521
▁cooperation	-8522
opl	-8523
▁pets	-8524
▁marg	-8525
▁personnel	-8526
▁newspaper	-8527
enced	-8528
oons	-8529
▁gum	-8530
▁Fig	-8531
▁Gall	-8532
▁frust	-8533
▁withdraw	-8534
box	-8535
▁Different	-8536
▁collective	-8537
▁mature	-8538
thod	-8539
▁sculpt	-8540
▁restore	-8541
▁habitats	-8542
eutic	-8543
encing	-8544
▁Major	-8545
▁mouse	-8546
▁meaningful	-8547
▁Indones	-8548
assium	-8549
section	-8550
▁Uk	-8551
▁Historical	-8552
inois	-8553
▁replacement	-8554
▁sad	-8555
play	-8556
obile	-8557
roud	-8558
▁pupils	-8559
ceans	-8560
▁bleeding	-8561
▁obst	-8562
ologically	-8563
▁Hence	-8564
▁discussions	-8565
▁lifetime	-8566
▁shorter	-8567
▁welfare	-8568
▁bare	-8569
▁hospitals	-8570
▁Call	-8571
▁seriously	-8572
▁medicines	-8573
▁begun	-8574
▁outbreak	-8575
agan	-8576
▁orange	-8577
esium	-8578
ailed	-8579
uan	-8580
▁hat	-8581
▁scenario	-8582
MA	-8583
▁McC	-8584
▁reign	-8585
▁heaven	-8586
▁graduate	-8587
lymp	-8588
▁Short	-8589
▁controlling	-8590
▁accord	-8591
▁addresses	-8592
▁aggressive	-8593
hire	-8594
▁Hindu	-8595
▁optimal	-8596
▁chose	-8597
▁cub	-8598
world	-8599
▁Media	-8600
▁Arts	-8601
▁juice	-8602
▁chair	-8603
▁readily	-8604
▁province	-8605
▁constra	-8606
▁intention	-8607
▁Moses	-8608
▁qualities	-8609
▁1930	-8610
'.	-8611
▁strategic	-8612
▁trem	-8613
▁Ast	-8614
ensed	-8615
▁planted	-8616
▁virtually	-8617
▁chromos	-8618
▁transc	-8619
▁competitive	-8620
▁Watch	-8621
▁vegetable	-8622
▁atoms	-8623
▁creativity	-8624
▁varies	-8625
disc	-8626
▁diarr	-8627
umer	-8628
▁suit	-8629
uscript	-8630
RC	-8631
▁2002	-8632
specific	-8633
unning	-8634
▁beans	-8635
▁Navy	-8636
zyme	-8637
cin	-8638
▁violent	-8639
▁Temple	-8640
▁ears	-8641
▁celebrate	-8642
▁Colon	-8643
foot	-8644
▁uncle	-8645
▁Biology	-8646
▁opinions	-8647
▁workplace	-8648
79	-8649
▁Norm	-8650
▁telesc	-8651
▁peer	-8652
▁powder	-8653
▁contents	-8654
▁assert	-8655
fast	-8656
▁joy	-8657
▁Bureau	-8658
▁absorb	-8659
▁pione	-8660
▁noticed	-8661
▁Friday	-8662
▁purchased	-8663
▁songs	-8664
reens	-8665
▁span	-8666
▁savings	-8667
▁Secretary	-8668
▁realized	-8669
▁Mess	-8670
▁stood	-8671
▁precip	-8672
▁develops	-8673
▁breaking	-8674
▁Move	-8675
▁profound	-8676
▁unlikely	-8677
▁default	-8678
EG	-8679
▁colony	-8680
▁origins	-8681
▁surgical	-8682
▁attitudes	-8683
▁wat	-8684
▁Rest	-8685
▁Connect	-8686
Gen	-8687
▁tone	-8688
▁returns	-8689
bel	-8690
▁verb	-8691
▁Vietnam	-8692
▁gathered	-8693
▁enthus	-8694
▁paying	-8695
▁Best	-8696
▁scheme	-8697
▁soph	-8698
▁tact	-8699
When	-8700
▁notion	-8701
requ	-8702
▁armed	-8703
▁barrier	-8704
▁Jackson	-8705
▁existed	-8706
thew	-8707
▁associate	-8708
▁intr	-8709
▁representative	-8710
▁Image	-8711
made	-8712
▁Occ	-8713
▁Town	-8714
▁$1	-8715
▁Poly	-8716
▁funded	-8717
▁reaches	-8718
▁apparently	-8719
▁Working	-8720
▁RNA	-8721
▁cheap	-8722
▁Microsoft	-8723
▁auto	-8724
▁Offic	-8725
▁immigrants	-8726
▁incent	-8727
through	-8728
▁exploring	-8729
▁pel	-8730
▁178	-8731
▁Rab	-8732
ogens	-8733
▁currency	-8734
▁Sustain	-8735
%,	-8736
▁maxim	-8737
▁deploy	-8738
▁Convention	-8739
▁Prim	-8740
▁anger	-8741
▁restaur	-8742
▁club	-8743
▁sacred	-8744
▁varied	-8745
▁reveals	-8746
▁Introduction	-8747
▁pace	-8748
eath	-8749
▁Hyd	-8750
urable	-8751
▁everywhere	-8752
▁tu	-8753
▁privile	-8754
▁tends	-8755
▁Illinois	-8756
▁victory	-8757
▁Aff	-8758
▁2012.	-8759
▁throat	-8760
▁illnesses	-8761
▁penet	-8762
lock	-8763
▁Trust	-8764
▁alarm	-8765
▁accurately	-8766
▁tension	-8767
aya	-8768
▁Olymp	-8769
▁Week	-8770
▁gif	-8771
▁minimize	-8772
▁dipl	-8773
▁12.	-8774
▁annually	-8775
▁literally	-8776
▁sug	-8777
imp	-8778
urrent	-8779
▁Select	-8780
▁productive	-8781
▁wash	-8782
▁specified	-8783
aware	-8784
▁globe	-8785
▁trace	-8786
!”	-8787
▁contributing	-8788
▁ham	-8789
▁Third	-8790
▁classic	-8791
▁Ell	-8792
▁practition	-8793
▁Fish	-8794
issipp	-8795
▁conversion	-8796
▁clay	-8797
▁posts	-8798
▁crown	-8799
▁photographs	-8800
▁Nutrition	-8801
olves	-8802
▁spoke	-8803
▁neurons	-8804
avirus	-8805
▁restoration	-8806
▁couldn	-8807
▁vibr	-8808
rip	-8809
▁CA	-8810
apes	-8811
▁prox	-8812
izz	-8813
icts	-8814
▁shore	-8815
▁possibilities	-8816
▁Abraham	-8817
adelph	-8818
They	-8819
▁sees	-8820
▁influences	-8821
▁breaks	-8822
ico	-8823
▁hal	-8824
TH	-8825
▁prescribed	-8826
▁gods	-8827
atus	-8828
▁Dam	-8829
awn	-8830
▁tab	-8831
▁preparing	-8832
oded	-8833
ocity	-8834
▁Chief	-8835
▁chicken	-8836
▁11,	-8837
▁gardens	-8838
▁disadvant	-8839
rypt	-8840
▁minimal	-8841
▁wars	-8842
▁nom	-8843
▁restrictions	-8844
rin	-8845
▁council	-8846
▁divine	-8847
awa	-8848
icking	-8849
▁Greece	-8850
▁OS	-8851
▁prayer	-8852
▁reflected	-8853
▁displayed	-8854
▁Clean	-8855
▁adopt	-8856
▁recording	-8857
▁Lew	-8858
EA	-8859
apped	-8860
▁thyroid	-8861
▁arise	-8862
▁coat	-8863
green	-8864
▁Kent	-8865
▁Master	-8866
ilst	-8867
▁Wed	-8868
▁Ult	-8869
▁ownership	-8870
▁compass	-8871
▁Print	-8872
abling	-8873
▁burden	-8874
▁Contact	-8875
▁addressing	-8876
▁Rather	-8877
▁severity	-8878
▁Tradition	-8879
▁sons	-8880
▁copyright	-8881
▁pairs	-8882
▁developments	-8883
▁Fed	-8884
▁requiring	-8885
▁Practice	-8886
flu	-8887
▁oils	-8888
▁representing	-8889
▁Gh	-8890
▁transferred	-8891
98	-8892
▁registered	-8893
▁advances	-8894
▁crypt	-8895
▁dropped	-8896
▁basically	-8897
▁Senate	-8898
▁Squ	-8899
▁livestock	-8900
▁Ancient	-8901
▁quantities	-8902
ais	-8903
zymes	-8904
▁impair	-8905
▁wing	-8906
▁Mexican	-8907
claim	-8908
▁Creek	-8909
▁analyzed	-8910
outheast	-8911
▁tongue	-8912
▁vig	-8913
▁accomplish	-8914
▁metabolism	-8915
▁prime	-8916
▁discipline	-8917
sex	-8918
▁mammals	-8919
▁scat	-8920
▁Near	-8921
▁glac	-8922
▁Brain	-8923
▁Think	-8924
▁Jacob	-8925
▁Local	-8926
▁calculate	-8927
▁11.	-8928
▁Mind	-8929
▁privacy	-8930
▁Ministry	-8931
▁Ide	-8932
▁sale	-8933
▁occupied	-8934
reprene	-8935
rowth	-8936
▁sciences	-8937
onents	-8938
▁surprise	-8939
▁happiness	-8940
▁incidence	-8941
▁nuts	-8942
▁dict	-8943
▁streams	-8944
▁embed	-8945
iner	-8946
mble	-8947
irable	-8948
▁forecast	-8949
▁logical	-8950
1/	-8951
▁Hem	-8952
▁Century	-8953
▁(6	-8954
▁till	-8955
aternal	-8956
adelphia	-8957
dd	-8958
rub	-8959
▁2011.	-8960
▁ol	-8961
▁judgment	-8962
▁Mississipp	-8963
▁utility	-8964
ref	-8965
▁wal	-8966
▁ion	-8967
▁ash	-8968
▁identical	-8969
uity	-8970
▁invention	-8971
vation	-8972
▁Action	-8973
▁Sus	-8974
▁buying	-8975
▁overview	-8976
▁spatial	-8977
▁enjoyed	-8978
▁gift	-8979
▁Prom	-8980
▁ho	-8981
▁churches	-8982
▁caps	-8983
▁indirect	-8984
▁motivation	-8985
▁suicide	-8986
▁2010.	-8987
▁tomat	-8988
▁Field	-8989
▁fascinating	-8990
▁estate	-8991
▁cellular	-8992
mond	-8993
▁lakes	-8994
▁flexibility	-8995
ois	-8996
shaped	-8997
text	-8998
▁initiatives	-8999
cule	-9000
▁suddenly	-9001
▁specialist	-9002
▁revers	-9003
▁(“	-9004
▁outdoor	-9005
▁wise	-9006
swe	-9007
▁Computer	-9008
▁regulate	-9009
▁draft	-9010
OP	-9011
cut	-9012
▁Typ	-9013
ifier	-9014
▁puzz	-9015
▁Product	-9016
▁arthritis	-9017
▁susceptible	-9018
▁120	-9019
▁Rail	-9020
▁Dictionary	-9021
▁bee	-9022
▁efficiently	-9023
▁FDA	-9024
▁strange	-9025
▁predicted	-9026
▁Son	-9027
▁bears	-9028
▁NOT	-9029
quality	-9030
▁varying	-9031
▁Antar	-9032
worth	-9033
▁puts	-9034
▁preserved	-9035
▁reef	-9036
▁regime	-9037
ocated	-9038
▁Others	-9039
▁oste	-9040
ifer	-9041
▁2013.	-9042
dep	-9043
otypes	-9044
▁calm	-9045
▁underground	-9046
▁bias	-9047
▁swelling	-9048
RNA	-9049
▁refused	-9050
▁descend	-9051
▁ultimate	-9052
▁rod	-9053
▁neglect	-9054
But	-9055
▁analyses	-9056
oca	-9057
▁Text	-9058
▁payment	-9059
1:	-9060
▁revenue	-9061
▁instances	-9062
rait	-9063
▁Monday	-9064
▁Die	-9065
▁managers	-9066
!!	-9067
▁dimensions	-9068
bered	-9069
▁employee	-9070
▁spacecraft	-9071
oler	-9072
▁Obama	-9073
iterranean	-9074
▁rooms	-9075
▁herself	-9076
▁legit	-9077
▁volunteers	-9078
▁permit	-9079
▁Individual	-9080
▁curve	-9081
ometer	-9082
BM	-9083
▁platforms	-9084
▁evolutionary	-9085
isd	-9086
▁algorithm	-9087
▁conflicts	-9088
▁Paper	-9089
▁worker	-9090
▁Heritage	-9091
▁Relig	-9092
▁sister	-9093
▁shr	-9094
▁Altern	-9095
▁documented	-9096
▁channels	-9097
▁Ren	-9098
▁Garden	-9099
▁sheep	-9100
▁perfectly	-9101
▁transformation	-9102
▁designated	-9103
mega	-9104
▁sleeping	-9105
▁tom	-9106
gments	-9107
ceptions	-9108
▁reproductive	-9109
▁satisfact	-9110
rue	-9111
▁Const	-9112
▁Applic	-9113
▁passes	-9114
sembly	-9115
▁teens	-9116
86	-9117
▁1920	-9118
▁Proper	-9119
▁alumin	-9120
imm	-9121
SP	-9122
)||	-9123
▁dementia	-9124
http	-9125
iders	-9126
Sc	-9127
▁CDC	-9128
▁magnitude	-9129
aved	-9130
vi	-9131
function	-9132
▁Assessment	-9133
▁12,	-9134
▁honest	-9135
▁inherent	-9136
▁finish	-9137
▁continent	-9138
▁Clinical	-9139
press	-9140
issance	-9141
ghan	-9142
bury	-9143
▁borrow	-9144
Med	-9145
▁Commons	-9146
▁mask	-9147
▁disturb	-9148
regon	-9149
▁dating	-9150
▁Indigenous	-9151
▁Teachers	-9152
▁Walk	-9153
▁minority	-9154
▁healthier	-9155
▁CT	-9156
▁55	-9157
▁partnership	-9158
▁Marine	-9159
▁paintings	-9160
▁Hit	-9161
plate	-9162
isations	-9163
▁Mississippi	-9164
uis	-9165
▁dimin	-9166
iblical	-9167
▁summar	-9168
▁encouraging	-9169
▁wings	-9170
▁neural	-9171
▁PL	-9172
▁beneath	-9173
▁meetings	-9174
oked	-9175
UL	-9176
▁Redu	-9177
▁Line	-9178
▁distinguish	-9179
▁statistical	-9180
aneous	-9181
▁memor	-9182
2),	-9183
▁Bern	-9184
▁transplant	-9185
▁optical	-9186
▁preserv	-9187
▁soy	-9188
inces	-9189
▁Turn	-9190
elect	-9191
▁zones	-9192
▁PDF	-9193
▁phones	-9194
▁candidate	-9195
sk	-9196
▁tort	-9197
▁Alaska	-9198
▁blank	-9199
▁themes	-9200
▁alternatives	-9201
efficient	-9202
▁simultaneously	-9203
▁NO	-9204
▁visits	-9205
▁fifth	-9206
aine	-9207
▁compos	-9208
▁theoretical	-9209
▁39	-9210
elly	-9211
▁wooden	-9212
▁villages	-9213
eem	-9214
urse	-9215
▁particle	-9216
▁separation	-9217
▁establishing	-9218
▁dish	-9219
▁robust	-9220
▁hybrid	-9221
▁kg	-9222
▁acceptable	-9223
▁incorporate	-9224
▁encounter	-9225
▁isolation	-9226
▁symptom	-9227
▁Area	-9228
▁Tar	-9229
▁applies	-9230
▁inev	-9231
▁invasive	-9232
▁Tit	-9233
▁Turk	-9234
power	-9235
▁gate	-9236
▁popularity	-9237
acles	-9238
▁restricted	-9239
uled	-9240
▁pert	-9241
▁glob	-9242
▁doses	-9243
▁installation	-9244
▁debris	-9245
▁Philadelphia	-9246
▁Luc	-9247
▁Questions	-9248
▁inhabitants	-9249
▁provision	-9250
▁Tool	-9251
▁fraction	-9252
▁Full	-9253
▁hydro	-9254
▁ranges	-9255
▁regulatory	-9256
▁abundance	-9257
▁Nevertheless	-9258
▁Origin	-9259
▁consequence	-9260
▁segment	-9261
▁attributed	-9262
▁Fair	-9263
▁distant	-9264
▁abandoned	-9265
astics	-9266
▁rainfall	-9267
▁lecture	-9268
▁Ariz	-9269
▁hygiene	-9270
▁alert	-9271
▁peers	-9272
▁Scientific	-9273
after	-9274
ught	-9275
No	-9276
▁package	-9277
▁visiting	-9278
▁enhanced	-9279
▁inch	-9280
▁encl	-9281
▁developers	-9282
ker	-9283
▁Log	-9284
▁bought	-9285
▁noun	-9286
terior	-9287
enda	-9288
▁achieving	-9289
▁Teaching	-9290
▁sending	-9291
▁Mediterranean	-9292
▁perpet	-9293
▁sediment	-9294
▁entitled	-9295
mal	-9296
ologic	-9297
▁discharge	-9298
▁confusion	-9299
▁enforcement	-9300
▁gest	-9301
ateral	-9302
▁favour	-9303
▁earthquake	-9304
▁^	-9305
▁Wilson	-9306
zone	-9307
▁winds	-9308
▁Fer	-9309
▁ster	-9310
▁absorption	-9311
▁Santa	-9312
▁elections	-9313
▁tumors	-9314
doi	-9315
aven	-9316
orus	-9317
▁Sud	-9318
▁~	-9319
▁Isa	-9320
▁knee	-9321
▁subsc	-9322
▁diagnostic	-9323
omed	-9324
▁Neg	-9325
▁translated	-9326
▁Oregon	-9327
▁Corpor	-9328
▁prosper	-9329
duction	-9330
▁stabil	-9331
rics	-9332
▁corporate	-9333
▁assignment	-9334
▁neurolog	-9335
▁totally	-9336
▁absolutely	-9337
child	-9338
profit	-9339
▁Mrs	-9340
▁bull	-9341
amil	-9342
▁bonds	-9343
▁attempted	-9344
▁algorithms	-9345
▁diets	-9346
▁Ont	-9347
▁persu	-9348
▁15,	-9349
▁merch	-9350
▁exclud	-9351
43	-9352
ricks	-9353
▁Need	-9354
▁3-	-9355
▁engineer	-9356
▁unem	-9357
▁containers	-9358
▁Sn	-9359
▁alongside	-9360
▁9,	-9361
thur	-9362
▁trail	-9363
▁cig	-9364
▁allergies	-9365
▁precisely	-9366
▁Station	-9367
.:	-9368
▁Egyptian	-9369
quiry	-9370
▁citizen	-9371
▁developmental	-9372
▁hopes	-9373
▁bron	-9374
▁elevated	-9375
▁ruled	-9376
urd	-9377
▁whenever	-9378
▁accounting	-9379
▁Jack	-9380
▁mistakes	-9381
▁stere	-9382
▁remem	-9383
▁Apple	-9384
▁canal	-9385
▁attractive	-9386
bow	-9387
▁Unt	-9388
ictions	-9389
▁50%	-9390
▁Nic	-9391
▁morph	-9392
▁Answ	-9393
▁faculty	-9394
inth	-9395
orters	-9396
▁irrigation	-9397
▁consent	-9398
▁implementing	-9399
▁prevents	-9400
ivities	-9401
▁module	-9402
▁strains	-9403
isting	-9404
▁hier	-9405
▁dried	-9406
regular	-9407
▁reserved	-9408
ouri	-9409
▁Making	-9410
▁pesticides	-9411
▁incorporated	-9412
▁relate	-9413
▁elementary	-9414
▁synthetic	-9415
▁Student	-9416
)|	-9417
cho	-9418
▁Future	-9419
emies	-9420
page	-9421
▁cited	-9422
▁Univers	-9423
▁suggesting	-9424
▁Aud	-9425
ffe	-9426
mail	-9427
▁equipped	-9428
▁elderly	-9429
▁philosoph	-9430
42	-9431
/201	-9432
▁systematic	-9433
▁ft	-9434
worm	-9435
▁vom	-9436
ivation	-9437
▁Jr	-9438
▁chocolate	-9439
rose	-9440
▁manuscript	-9441
▁minister	-9442
▁1999	-9443
▁prol	-9444
▁folk	-9445
▁exceed	-9446
▁Schools	-9447
ospel	-9448
▁contaminated	-9449
▁dramatically	-9450
▁Benef	-9451
▁celeb	-9452
▁broke	-9453
▁amongst	-9454
▁plates	-9455
Figure	-9456
▁Adam	-9457
▁electrons	-9458
1–	-9459
▁Bh	-9460
oline	-9461
▁aside	-9462
▁distinction	-9463
DL	-9464
▁repeat	-9465
▁cream	-9466
▁contamination	-9467
▁eleph	-9468
ideo	-9469
▁improves	-9470
iano	-9471
sters	-9472
▁hurt	-9473
▁neighb	-9474
▁Spe	-9475
▁Besides	-9476
▁Real	-9477
▁ending	-9478
▁resemb	-9479
▁legend	-9480
pdf	-9481
▁medieval	-9482
ocial	-9483
▁guarantee	-9484
▁Ent	-9485
.),	-9486
▁sectors	-9487
▁brains	-9488
▁scales	-9489
Os	-9490
▁repet	-9491
▁Risk	-9492
▁cycles	-9493
▁partial	-9494
eller	-9495
▁Hig	-9496
▁1.5	-9497
▁PhD	-9498
▁rib	-9499
uct	-9500
stru	-9501
▁surveys	-9502
ethe	-9503
▁crack	-9504
ador	-9505
▁Talk	-9506
▁tendency	-9507
▁occasionally	-9508
▁bottle	-9509
▁amino	-9510
atoes	-9511
▁invasion	-9512
▁broader	-9513
▁complement	-9514
itic	-9515
ighth	-9516
▁abundant	-9517
/10.	-9518
▁250	-9519
▁rays	-9520
▁rough	-9521
▁codes	-9522
expected	-9523
ashed	-9524
economic	-9525
▁prolong	-9526
▁certific	-9527
▁spreading	-9528
western	-9529
67	-9530
:||	-9531
enter	-9532
eras	-9533
▁Arizona	-9534
▁Encyclopedia	-9535
▁4:	-9536
▁doors	-9537
▁copies	-9538
▁expanding	-9539
▁scholar	-9540
▁endangered	-9541
nia	-9542
▁Training	-9543
ATION	-9544
etically	-9545
▁collapse	-9546
▁metabolic	-9547
arks	-9548
▁combine	-9549
ugs	-9550
▁sensory	-9551
ika	-9552
▁Fac	-9553
▁apps	-9554
▁straw	-9555
fly	-9556
85	-9557
▁arrival	-9558
▁Sleep	-9559
▁adoption	-9560
▁dentist	-9561
▁Williams	-9562
▁duties	-9563
1),	-9564
▁consuming	-9565
▁Berlin	-9566
▁Exerc	-9567
▁lingu	-9568
▁penal	-9569
▁valve	-9570
▁operated	-9571
▁surprising	-9572
▁tough	-9573
▁2010,	-9574
▁deposits	-9575
redit	-9576
▁oceans	-9577
▁Story	-9578
▁hol	-9579
▁Ho	-9580
reshold	-9581
▁relating	-9582
▁integrity	-9583
▁1000	-9584
owered	-9585
▁subsid	-9586
▁Doc	-9587
▁Below	-9588
▁LED	-9589
▁panc	-9590
▁suggestions	-9591
▁bags	-9592
olph	-9593
▁ancestors	-9594
▁burned	-9595
▁rent	-9596
▁disag	-9597
▁BM	-9598
elihood	-9599
▁films	-9600
▁Parents	-9601
▁("	-9602
▁pipe	-9603
ji	-9604
rint	-9605
friendly	-9606
▁Mountain	-9607
▁therapeutic	-9608
ouses	-9609
▁reflects	-9610
igned	-9611
▁lob	-9612
▁nursing	-9613
▁proposal	-9614
anz	-9615
▁cuts	-9616
▁cable	-9617
▁posted	-9618
▁surrounded	-9619
▁ow	-9620
▁Integ	-9621
▁imagination	-9622
mental	-9623
even	-9624
▁dynamics	-9625
▁semi	-9626
▁GM	-9627
▁kitchen	-9628
isition	-9629
▁Mother	-9630
▁assessments	-9631
▁cyl	-9632
han	-9633
▁0.0	-9634
▁Pope	-9635
ori	-9636
▁clouds	-9637
Be	-9638
▁evaluated	-9639
▁600	-9640
▁spons	-9641
▁Bell	-9642
▁collections	-9643
▁fitness	-9644
▁trading	-9645
▁confident	-9646
ications	-9647
----	-9648
▁schem	-9649
▁Map	-9650
▁eaten	-9651
▁flavor	-9652
▁Order	-9653
▁excav	-9654
▁fingers	-9655
▁reflection	-9656
▁CS	-9657
▁intra	-9658
▁civilization	-9659
")	-9660
On	-9661
▁blo	-9662
▁fant	-9663
berries	-9664
▁Mental	-9665
▁register	-9666
▁swimming	-9667
▁deer	-9668
▁disk	-9669
▁survived	-9670
▁Meanwhile	-9671
▁sovere	-9672
▁enzymes	-9673
▁candidates	-9674
▁reputation	-9675
▁democratic	-9676
eling	-9677
▁Name	-9678
▁Wales	-9679
▁germ	-9680
▁hazards	-9681
▁selling	-9682
▁utilized	-9683
▁holy	-9684
▁punishment	-9685
oving	-9686
▁finance	-9687
▁reasoning	-9688
pre	-9689
BD	-9690
▁salmon	-9691
▁atmospheric	-9692
Ind	-9693
▁thank	-9694
▁pose	-9695
▁classification	-9696
▁sew	-9697
▁horizontal	-9698
▁ul	-9699
▁injured	-9700
▁accidents	-9701
rat	-9702
▁Java	-9703
▁potassium	-9704
▁describing	-9705
▁Theory	-9706
▁residential	-9707
▁Angeles	-9708
isticated	-9709
▁divide	-9710
▁avoiding	-9711
▁loan	-9712
▁magazine	-9713
iative	-9714
imen	-9715
▁thirty	-9716
▁password	-9717
ependence	-9718
▁pale	-9719
▁invented	-9720
▁muc	-9721
▁shoes	-9722
▁conclusions	-9723
▁Photo	-9724
▁infectious	-9725
inery	-9726
▁socio	-9727
▁struck	-9728
arios	-9729
▁producers	-9730
utical	-9731
▁fluor	-9732
▁CR	-9733
▁Sem	-9734
▁weaken	-9735
▁verte	-9736
esthetic	-9737
▁painted	-9738
▁tracking	-9739
ropol	-9740
GE	-9741
▁extraord	-9742
▁erect	-9743
▁throw	-9744
bage	-9745
rible	-9746
▁definitions	-9747
▁speaker	-9748
▁predomin	-9749
▁bite	-9750
▁chamber	-9751
▁width	-9752
▁Matthew	-9753
▁anthrop	-9754
▁grammar	-9755
▁partly	-9756
88	-9757
▁consistently	-9758
▁pneum	-9759
best	-9760
▁Event	-9761
▁Script	-9762
▁sheets	-9763
▁Assembly	-9764
▁Dyn	-9765
▁hung	-9766
▁Create	-9767
▁lun	-9768
▁ADHD	-9769
▁velocity	-9770
▁MP	-9771
▁Ash	-9772
duate	-9773
▁factory	-9774
▁20,	-9775
▁reh	-9776
▁onset	-9777
di	-9778
▁incom	-9779
▁SC	-9780
▁diagram	-9781
▁physicians	-9782
▁Twitter	-9783
engers	-9784
▁%	-9785
▁Cook	-9786
ricane	-9787
▁memories	-9788
▁fan	-9789
▁organism	-9790
▁Turkey	-9791
▁Object	-9792
uro	-9793
▁likelihood	-9794
▁Cond	-9795
illance	-9796
▁appointment	-9797
▁camps	-9798
▁surviv	-9799
athan	-9800
▁influenza	-9801
▁Kn	-9802
▁erosion	-9803
▁fiction	-9804
▁Write	-9805
▁binding	-9806
▁malaria	-9807
▁attended	-9808
▁stretch	-9809
▁Enter	-9810
▁shares	-9811
▁seiz	-9812
anol	-9813
▁Tenn	-9814
▁Standards	-9815
author	-9816
▁allergic	-9817
▁recall	-9818
▁NE	-9819
.1	-9820
▁Culture	-9821
▁Bol	-9822
▁spine	-9823
▁179	-9824
▁approval	-9825
▁mile	-9826
▁Econom	-9827
▁adolescents	-9828
▁seal	-9829
▁numer	-9830
jud	-9831
▁affairs	-9832
▁landing	-9833
grade	-9834
itzer	-9835
obic	-9836
▁appreciate	-9837
iances	-9838
▁Death	-9839
▁Charl	-9840
▁gentle	-9841
itate	-9842
▁crimes	-9843
▁Luther	-9844
▁displays	-9845
rium	-9846
▁Peace	-9847
▁retain	-9848
mn	-9849
Fig	-9850
▁Hot	-9851
▁Sav	-9852
▁loud	-9853
▁shelter	-9854
▁es	-9855
▁Maryland	-9856
▁pleasure	-9857
▁shoulder	-9858
akespe	-9859
▁discom	-9860
PR	-9861
▁shade	-9862
▁myster	-9863
▁Number	-9864
▁refugees	-9865
imensional	-9866
stic	-9867
healthy	-9868
▁Na	-9869
▁Ah	-9870
ieth	-9871
▁grad	-9872
▁pine	-9873
▁Guard	-9874
▁enzyme	-9875
▁dying	-9876
▁offices	-9877
▁Jones	-9878
▁jurisd	-9879
▁Diabetes	-9880
▁officially	-9881
▁bub	-9882
▁proud	-9883
To	-9884
also	-9885
▁predators	-9886
▁retail	-9887
,’	-9888
da	-9889
▁mutations	-9890
▁Jon	-9891
▁toile	-9892
▁NY	-9893
▁attributes	-9894
nea	-9895
▁Iron	-9896
▁humidity	-9897
istically	-9898
▁contrad	-9899
▁absorbed	-9900
▁commod	-9901
▁liberal	-9902
yes	-9903
isons	-9904
achel	-9905
▁Philos	-9906
original	-9907
▁submit	-9908
akespeare	-9909
▁collecting	-9910
▁Missouri	-9911
▁struggling	-9912
wa	-9913
69	-9914
▁valley	-9915
▁Case	-9916
▁Poland	-9917
▁inflation	-9918
▁indicating	-9919
▁aggreg	-9920
BA	-9921
▁beach	-9922
▁economics	-9923
▁vaccination	-9924
▁Living	-9925
▁athletes	-9926
▁convenient	-9927
▁parks	-9928
▁42	-9929
▁partially	-9930
▁somewhere	-9931
raid	-9932
▁Darwin	-9933
▁assessed	-9934
▁adaptation	-9935
▁investments	-9936
▁Korean	-9937
▁brothers	-9938
▁Cit	-9939
▁ber	-9940
▁libraries	-9941
▁highlights	-9942
▁busy	-9943
▁tag	-9944
▁empire	-9945
otion	-9946
▁charges	-9947
▁fatal	-9948
▁Minnes	-9949
▁Buddh	-9950
compass	-9951
▁adjacent	-9952
▁wireless	-9953
▁murder	-9954
▁edges	-9955
▁exhibition	-9956
▁Chall	-9957
▁Jersey	-9958
▁Jim	-9959
osaur	-9960
▁circular	-9961
▁molecule	-9962
▁grams	-9963
▁consisting	-9964
▁wake	-9965
▁Hu	-9966
▁14,	-9967
▁loop	-9968
▁cloth	-9969
▁gray	-9970
▁2012,	-9971
▁operational	-9972
▁Tay	-9973
▁bell	-9974
▁mail	-9975
▁subsequently	-9976
▁Governor	-9977
▁assistant	-9978
▁arc	-9979
▁kilometers	-9980
▁independently	-9981
date	-9982
▁fibers	-9983
▁thoroughly	-9984
found	-9985
▁wage	-9986
▁Dun	-9987
▁prevented	-9988
▁reviewed	-9989
▁GDP	-9990
ipation	-9991
aping	-9992
ctors	-9993
uv	-9994
▁ON	-9995
▁PR	-9996
▁workshop	-9997
QL	-9998
▁Unit	-9999
ayer	-10000
ivate	-10001
▁beet	-10002
▁Trade	-10003
▁tower	-10004
▁Cold	-10005
oning	-10006
nings	-10007
▁license	-10008
ineteenth	-10009
▁Allah	-10010
▁Samuel	-10011
▁returning	-10012
▁Enc	-10013
▁Patients	-10014
▁receives	-10015
▁calendar	-10016
▁Bio	-10017
▁toxins	-10018
gregation	-10019
▁Prince	-10020
▁phenomena	-10021
▁promising	-10022
akh	-10023
▁10%	-10024
▁Hitler	-10025
▁cave	-10026
▁prisoners	-10027
▁Statistics	-10028
▁stems	-10029
arten	-10030
▁Stephen	-10031
▁Qur	-10032
▁grace	-10033
▁borders	-10034
ctu	-10035
▁campus	-10036
▁termin	-10037
▁monthly	-10038
▁attacked	-10039
cled	-10040
list	-10041
you	-10042
▁Six	-10043
▁indoor	-10044
▁tolerance	-10045
▁fertilizer	-10046
▁deliber	-10047
▁awarded	-10048
▁sequences	-10049
▁twelve	-10050
▁worn	-10051
▁Daily	-10052
▁administrative	-10053
▁cosm	-10054
effective	-10055
▁intelligent	-10056
fire	-10057
64	-10058
▁entrance	-10059
ceeding	-10060
▁Path	-10061
ylon	-10062
▁Available	-10063
▁sacrifice	-10064
▁Scholar	-10065
▁mobility	-10066
dess	-10067
▁Nether	-10068
aceutical	-10069
▁WHO	-10070
▁prescription	-10071
acle	-10072
▁speakers	-10073
erb	-10074
▁depr	-10075
▁Afghan	-10076
▁welcome	-10077
aze	-10078
▁pests	-10079
▁10,000	-10080
adequ	-10081
conn	-10082
▁acquire	-10083
ermat	-10084
▁Ontario	-10085
▁submitted	-10086
▁ES	-10087
▁boundary	-10088
▁Arm	-10089
▁entreprene	-10090
▁abol	-10091
▁sophisticated	-10092
▁Gre	-10093
pert	-10094
▁Cut	-10095
▁freely	-10096
▁lasting	-10097
▁plasma	-10098
thal	-10099
3–	-10100
▁vag	-10101
▁1900	-10102
▁Python	-10103
forced	-10104
▁emit	-10105
▁tanks	-10106
▁participating	-10107
ela	-10108
▁Nep	-10109
velength	-10110
▁beam	-10111
▁Defin	-10112
▁speeds	-10113
action	-10114
▁bark	-10115
▁discomfort	-10116
▁nodes	-10117
▁1998	-10118
▁2011,	-10119
ositive	-10120
▁thrive	-10121
▁pink	-10122
▁Minnesota	-10123
step	-10124
▁gaps	-10125
rons	-10126
▁refrig	-10127
▁browser	-10128
▁Ele	-10129
▁fles	-10130
▁Sab	-10131
▁Certain	-10132
▁Opt	-10133
enh	-10134
▁diarrhea	-10135
BI	-10136
▁Carib	-10137
▁mapping	-10138
arded	-10139
▁16,	-10140
▁historians	-10141
otten	-10142
▁Bush	-10143
▁intensive	-10144
▁Jun	-10145
▁bullying	-10146
oting	-10147
▁Behavior	-10148
▁unexpected	-10149
▁export	-10150
▁vine	-10151
▁orientation	-10152
Pro	-10153
▁pursue	-10154
Pl	-10155
▁milit	-10156
▁perf	-10157
▁sampling	-10158
▁placing	-10159
▁representatives	-10160
▁femin	-10161
▁Chemical	-10162
▁Marc	-10163
▁Hom	-10164
▁spark	-10165
3),	-10166
▁rom	-10167
▁Flow	-10168
:00	-10169
▁weekly	-10170
▁progressive	-10171
▁Shakespeare	-10172
iatric	-10173
aver	-10174
▁Nation	-10175
▁update	-10176
▁pest	-10177
generation	-10178
▁mirror	-10179
dominal	-10180
▁Present	-10181
▁threshold	-10182
▁Five	-10183
300	-10184
▁avoided	-10185
orer	-10186
bul	-10187
▁Davis	-10188
▁Centers	-10189
▁pond	-10190
ulates	-10191
▁13.	-10192
▁connecting	-10193
iph	-10194
▁elabor	-10195
inch	-10196
▁pock	-10197
▁altered	-10198
▁homework	-10199
▁pod	-10200
▁Germans	-10201
aning	-10202
▁affordable	-10203
▁meditation	-10204
▁artistic	-10205
▁robots	-10206
▁accomplished	-10207
omal	-10208
▁treaty	-10209
▁seasonal	-10210
▁drops	-10211
▁distances	-10212
▁CN	-10213
▁Pay	-10214
▁pediatric	-10215
▁Ten	-10216
umns	-10217
▁gran	-10218
-201	-10219
▁distract	-10220
angel	-10221
▁diver	-10222
▁reservoir	-10223
income	-10224
▁prospect	-10225
▁Satur	-10226
▁manufacturer	-10227
yan	-10228
▁antibodies	-10229
iously	-10230
atile	-10231
iac	-10232
gebra	-10233
▁arrive	-10234
▁confused	-10235
thood	-10236
▁designing	-10237
▁discl	-10238
▁carries	-10239
▁frog	-10240
▁enabling	-10241
▁Large	-10242
ecessary	-10243
▁encourages	-10244
▁2009.	-10245
▁yes	-10246
▁heal	-10247
plex	-10248
▁misc	-10249
▁traveling	-10250
▁Grade	-10251
▁boxes	-10252
▁assault	-10253
PD	-10254
▁Fa	-10255
▁flooding	-10256
III	-10257
▁notable	-10258
▁cheese	-10259
▁shallow	-10260
TA	-10261
▁importantly	-10262
▁prone	-10263
ques	-10264
▁Animal	-10265
▁capability	-10266
▁broadcast	-10267
▁2014.	-10268
case	-10269
▁divers	-10270
▁Generally	-10271
olds	-10272
pany	-10273
▁concentrated	-10274
▁missions	-10275
▁immunity	-10276
▁patent	-10277
▁washing	-10278
▁dispers	-10279
▁courage	-10280
▁anat	-10281
▁perspectives	-10282
▁expressions	-10283
▁Ak	-10284
▁Discuss	-10285
▁modeling	-10286
arium	-10287
▁routes	-10288
▁forever	-10289
▁bills	-10290
▁Democratic	-10291
ooked	-10292
security	-10293
▁excited	-10294
▁earned	-10295
-15	-10296
▁Club	-10297
▁bind	-10298
▁promotes	-10299
▁elig	-10300
PV	-10301
ushing	-10302
▁Hop	-10303
LS	-10304
▁AIDS	-10305
▁desk	-10306
▁Core	-10307
▁reson	-10308
▁Search	-10309
commun	-10310
uine	-10311
▁13,	-10312
Ad	-10313
▁scenarios	-10314
▁Hur	-10315
▁Thurs	-10316
▁cluster	-10317
▁portray	-10318
emor	-10319
▁settlers	-10320
iotic	-10321
▁Currently	-10322
▁Depression	-10323
▁Intellig	-10324
▁reviews	-10325
▁gear	-10326
▁colored	-10327
jo	-10328
▁hide	-10329
▁100%	-10330
burn	-10331
▁18,	-10332
▁mini	-10333
▁destination	-10334
See	-10335
formed	-10336
atories	-10337
law	-10338
▁Han	-10339
▁Sher	-10340
▁celebration	-10341
▁Marsh	-10342
▁NG	-10343
▁183	-10344
▁2015.	-10345
▁44	-10346
▁exch	-10347
sequently	-10348
▁Depending	-10349
inflamm	-10350
ontin	-10351
▁17,	-10352
▁intermedi	-10353
arians	-10354
▁Quality	-10355
LC	-10356
▁rats	-10357
▁legacy	-10358
▁defects	-10359
▁teaches	-10360
▁Oil	-10361
▁Num	-10362
▁Lewis	-10363
▁resolve	-10364
▁educated	-10365
▁carbohydrates	-10366
▁utilize	-10367
▁impressive	-10368
itus	-10369
▁hypert	-10370
AF	-10371
▁vice	-10372
▁drives	-10373
▁preservation	-10374
Ed	-10375
antine	-10376
▁ensures	-10377
psy	-10378
▁3)	-10379
iating	-10380
istent	-10381
▁appet	-10382
▁loyal	-10383
▁verse	-10384
▁coral	-10385
▁protest	-10386
▁STEM	-10387
2:	-10388
▁decreases	-10389
▁meter	-10390
▁hip	-10391
▁stakeholders	-10392
▁bearing	-10393
▁tribe	-10394
sub	-10395
▁Jefferson	-10396
▁Has	-10397
▁nerves	-10398
▁render	-10399
chnology	-10400
▁therapies	-10401
▁Anne	-10402
▁afraid	-10403
▁Volume	-10404
▁contrary	-10405
onin	-10406
▁Month	-10407
▁transformed	-10408
97	-10409
abilitation	-10410
▁embedded	-10411
▁safer	-10412
▁injection	-10413
▁Carl	-10414
▁overwhelming	-10415
ja	-10416
▁administered	-10417
▁distress	-10418
▁mira	-10419
”)	-10420
▁allergy	-10421
▁axis	-10422
▁tied	-10423
▁demonstrates	-10424
▁transactions	-10425
▁Wednes	-10426
▁Protest	-10427
iscons	-10428
▁hardly	-10429
▁fallen	-10430
▁contributes	-10431
estone	-10432
▁alike	-10433
▁compliance	-10434
▁harsh	-10435
vy	-10436
▁upl	-10437
▁persistent	-10438
▁Hon	-10439
thodox	-10440
All	-10441
▁sel	-10442
▁2008.	-10443
isconsin	-10444
▁extinction	-10445
▁nic	-10446
▁978	-10447
▁Electric	-10448
▁publ	-10449
gged	-10450
▁Netherlands	-10451
▁Tues	-10452
▁inspiration	-10453
▁comparing	-10454
▁distribut	-10455
▁regen	-10456
TC	-10457
▁defines	-10458
▁sustained	-10459
▁fluids	-10460
oa	-10461
Our	-10462
▁suspect	-10463
▁synthesis	-10464
▁Index	-10465
▁thesis	-10466
▁magnesium	-10467
onics	-10468
▁tremend	-10469
▁qualified	-10470
▁sle	-10471
iy	-10472
▁fault	-10473
▁Francis	-10474
▁Psychology	-10475
▁argues	-10476
▁drainage	-10477
iler	-10478
▁Question	-10479
▁fertility	-10480
▁Along	-10481
▁pou	-10482
▁tourism	-10483
▁inequality	-10484
▁Hung	-10485
▁algae	-10486
vae	-10487
▁rubber	-10488
▁occupation	-10489
▁packaging	-10490
chron	-10491
lings	-10492
▁undergo	-10493
▁occurrence	-10494
doors	-10495
▁Sens	-10496
▁steady	-10497
▁bin	-10498
▁Date	-10499
▁empower	-10500
▁Usually	-10501
2-	-10502
▁cycl	-10503
▁ride	-10504
iosity	-10505
▁tubes	-10506
DR	-10507
atin	-10508
▁essence	-10509
▁buck	-10510
▁Kansas	-10511
igm	-10512
▁Emperor	-10513
▁mi	-10514
▁arranged	-10515
sized	-10516
▁Mand	-10517
▁featured	-10518
▁recommends	-10519
▁jew	-10520
▁cerv	-10521
quarters	-10522
▁Hay	-10523
▁enlar	-10524
▁dialogue	-10525
TER	-10526
▁dow	-10527
▁generating	-10528
▁extrem	-10529
▁completion	-10530
▁Poll	-10531
▁Yellow	-10532
000.	-10533
▁Soft	-10534
cal	-10535
▁Recent	-10536
verages	-10537
▁irregular	-10538
UC	-10539
▁conducting	-10540
▁(10	-10541
▁provisions	-10542
▁Imag	-10543
▁Physics	-10544
▁constitutional	-10545
▁Types	-10546
▁devoted	-10547
▁employers	-10548
uclear	-10549
▁explored	-10550
▁spir	-10551
▁Tro	-10552
▁cameras	-10553
▁equations	-10554
▁golden	-10555
▁doctrine	-10556
▁timing	-10557
▁Linux	-10558
▁priest	-10559
▁progression	-10560
▁Kim	-10561
▁controversial	-10562
▁spelling	-10563
ammad	-10564
▁surprised	-10565
▁asks	-10566
omon	-10567
about	-10568
▁Corps	-10569
▁PA	-10570
3%	-10571
▁Healthy	-10572
▁Cra	-10573
rels	-10574
▁solely	-10575
▁rejected	-10576
▁Rub	-10577
▁Rose	-10578
actic	-10579
▁gains	-10580
▁Tree	-10581
▁traditionally	-10582
▁Basic	-10583
▁inflammatory	-10584
▁dollar	-10585
Bl	-10586
▁configuration	-10587
▁Scottish	-10588
▁2009,	-10589
▁Begin	-10590
▁WW	-10591
▁Thank	-10592
▁aster	-10593
anas	-10594
▁deadly	-10595
▁Indonesia	-10596
▁relatives	-10597
▁Opp	-10598
▁Years	-10599
▁monument	-10600
▁continuously	-10601
▁2008,	-10602
▁founder	-10603
▁distinguished	-10604
kal	-10605
▁Mes	-10606
▁Romans	-10607
▁distinctive	-10608
▁Os	-10609
▁obviously	-10610
74	-10611
nedy	-10612
agger	-10613
▁gathering	-10614
insula	-10615
anium	-10616
▁Lower	-10617
▁Transport	-10618
▁inclusion	-10619
▁Thursday	-10620
▁cope	-10621
alog	-10622
▁Sep	-10623
iking	-10624
▁Ty	-10625
▁lift	-10626
ronaut	-10627
▁(3)	-10628
▁Overall	-10629
▁filters	-10630
▁Pap	-10631
▁leak	-10632
▁Front	-10633
▁indicators	-10634
▁pushed	-10635
▁Wisconsin	-10636
▁Nazi	-10637
▁simulation	-10638
▁Az	-10639
▁Results	-10640
▁Particip	-10641
▁brid	-10642
▁Until	-10643
▁horn	-10644
▁attain	-10645
▁Throughout	-10646
▁acceptance	-10647
▁Dom	-10648
phones	-10649
spring	-10650
ropriate	-10651
▁Show	-10652
▁organisations	-10653
▁tape	-10654
▁toys	-10655
▁(8	-10656
▁keys	-10657
▁enabled	-10658
▁parliament	-10659
inea	-10660
▁wed	-10661
▁Comb	-10662
▁correlation	-10663
▁Balt	-10664
▁Additional	-10665
Ps	-10666
front	-10667
▁vomiting	-10668
▁searching	-10669
▁Give	-10670
▁Grant	-10671
........	-10672
cor	-10673
▁shouldn	-10674
▁pathways	-10675
▁reproduction	-10676
▁hill	-10677
▁striking	-10678
▁Zh	-10679
acon	-10680
▁masses	-10681
FC	-10682
▁organisation	-10683
▁Example	-10684
▁Wednesday	-10685
▁Ce	-10686
▁opens	-10687
▁@	-10688
▁emission	-10689
▁por	-10690
asses	-10691
▁Exec	-10692
▁Flu	-10693
▁torn	-10694
▁Sweden	-10695
▁hazardous	-10696
fold	-10697
▁execution	-10698
▁Caribbean	-10699
vol	-10700
▁Species	-10701
▁implies	-10702
▁Sa	-10703
burgh	-10704
▁confront	-10705
▁expenses	-10706
▁illustrated	-10707
▁labels	-10708
▁investors	-10709
▁hepat	-10710
▁Carbon	-10711
▁wavelength	-10712
▁frozen	-10713
▁League	-10714
▁multip	-10715
▁reserves	-10716
▁800	-10717
▁Mathemat	-10718
arer	-10719
▁UC	-10720
▁methane	-10721
▁mystery	-10722
▁governor	-10723
▁authentic	-10724
▁talks	-10725
▁wages	-10726
teenth	-10727
▁feather	-10728
▁epidemic	-10729
▁Mos	-10730
▁accompany	-10731
rust	-10732
▁namely	-10733
coin	-10734
▁locally	-10735
▁permitted	-10736
azz	-10737
emet	-10738
▁Requ	-10739
onomous	-10740
▁rend	-10741
▁artif	-10742
auc	-10743
▁calculations	-10744
▁nort	-10745
ican	-10746
▁instant	-10747
ulsion	-10748
▁bladder	-10749
▁mistake	-10750
▁associations	-10751
▁OR	-10752
▁essays	-10753
▁classrooms	-10754
▁pathogens	-10755
▁Tib	-10756
▁Things	-10757
yard	-10758
▁mes	-10759
owners	-10760
uting	-10761
▁fate	-10762
atre	-10763
▁1997	-10764
▁Leon	-10765
▁Tuesday	-10766
▁”	-10767
▁compat	-10768
▁historian	-10769
▁Download	-10770
▁Victoria	-10771
afe	-10772
icides	-10773
▁Mit	-10774
▁bits	-10775
1%	-10776
▁integral	-10777
▁obser	-10778
▁precision	-10779
reement	-10780
▁rhythm	-10781
▁vacuum	-10782
▁Wars	-10783
Le	-10784
▁guns	-10785
▁Taking	-10786
▁uncertainty	-10787
▁counterpart	-10788
▁zinc	-10789
▁electronics	-10790
nals	-10791
▁heter	-10792
riction	-10793
▁Urban	-10794
▁Jane	-10795
person	-10796
▁filling	-10797
▁criticism	-10798
▁Jean	-10799
▁infin	-10800
56	-10801
ceeds	-10802
▁Period	-10803
▁Bit	-10804
▁swallow	-10805
▁publications	-10806
▁Sac	-10807
▁nurse	-10808
▁acknowledge	-10809
urated	-10810
▁Body	-10811
▁Reserve	-10812
De	-10813
▁Love	-10814
▁thickness	-10815
iversary	-10816
feeding	-10817
uns	-10818
develop	-10819
▁dominated	-10820
▁advertising	-10821
▁Kennedy	-10822
▁categor	-10823
▁inspect	-10824
▁thorough	-10825
▁anten	-10826
▁immigration	-10827
▁rocket	-10828
▁skull	-10829
▁texture	-10830
▁jaw	-10831
orney	-10832
▁investigated	-10833
▁mart	-10834
type	-10835
dated	-10836
▁30,	-10837
rophic	-10838
▁poorly	-10839
▁dangers	-10840
▁encompass	-10841
▁Lu	-10842
▁hunger	-10843
▁revolutionary	-10844
▁Dougl	-10845
▁Bad	-10846
▁mercury	-10847
▁firms	-10848
▁matrix	-10849
enders	-10850
.2	-10851
asal	-10852
▁Conc	-10853
▁columns	-10854
▁prevalent	-10855
▁yields	-10856
▁coordination	-10857
▁counties	-10858
▁Duke	-10859
3:	-10860
▁Cape	-10861
▁genus	-10862
swered	-10863
▁deleg	-10864
▁subtle	-10865
▁vector	-10866
▁volumes	-10867
▁Du	-10868
▁seasons	-10869
▁Guid	-10870
▁Tax	-10871
▁assumptions	-10872
▁nick	-10873
▁weapon	-10874
osity	-10875
▁Industrial	-10876
▁hack	-10877
▁coins	-10878
▁metap	-10879
ogram	-10880
▁Republican	-10881
▁Earl	-10882
▁outline	-10883
orks	-10884
RL	-10885
▁Sex	-10886
ergarten	-10887
1-	-10888
grad	-10889
▁ought	-10890
pson	-10891
▁diagnose	-10892
▁Prime	-10893
leton	-10894
▁Gir	-10895
▁foster	-10896
▁executed	-10897
▁aluminum	-10898
58	-10899
▁Es	-10900
storm	-10901
▁Observ	-10902
▁meteor	-10903
That	-10904
flies	-10905
▁Ib	-10906
▁1940	-10907
▁bugs	-10908
▁emerge	-10909
▁disposal	-10910
eav	-10911
this	-10912
▁writings	-10913
▁storms	-10914
▁Franklin	-10915
▁Materials	-10916
▁46	-10917
seud	-10918
▁μ	-10919
▁patri	-10920
▁combust	-10921
▁payments	-10922
▁genuine	-10923
▁inadequ	-10924
dimensional	-10925
cult	-10926
At	-10927
▁chron	-10928
▁Choose	-10929
2/	-10930
fare	-10931
▁Deep	-10932
▁loans	-10933
role	-10934
▁defeat	-10935
▁suspected	-10936
gered	-10937
▁Bow	-10938
▁substr	-10939
▁rear	-10940
▁Knowledge	-10941
ternoon	-10942
oved	-10943
iors	-10944
▁Marx	-10945
▁transf	-10946
hester	-10947
▁facial	-10948
▁economies	-10949
59	-10950
▁extraordinary	-10951
ivals	-10952
▁21,	-10953
▁Lind	-10954
▁enact	-10955
▁WH	-10956
anth	-10957
▁realistic	-10958
▁accordance	-10959
IST	-10960
entieth	-10961
▁discussing	-10962
▁Monitor	-10963
▁hang	-10964
▁markers	-10965
uble	-10966
▁moments	-10967
▁14.	-10968
▁Taylor	-10969
▁stimulate	-10970
▁Win	-10971
▁Vers	-10972
▁incredible	-10973
▁yard	-10974
ECT	-10975
▁originated	-10976
owa	-10977
▁potatoes	-10978
▁Ethiop	-10979
▁census	-10980
aft	-10981
orient	-10982
idae	-10983
agle	-10984
▁von	-10985
xic	-10986
▁lunch	-10987
▁stops	-10988
Se	-10989
▁soap	-10990
▁replic	-10991
▁tracks	-10992
▁influential	-10993
emetery	-10994
ocent	-10995
▁Plants	-10996
stration	-10997
▁protects	-10998
asa	-10999
▁Teacher	-11000
▁pries	-11001
▁specimens	-11002
▁Buddha	-11003
▁applicable	-11004
▁Ray	-11005
▁exclusively	-11006
inian	-11007
▁liberty	-11008
▁succeeded	-11009
▁gland	-11010
▁ethics	-11011
▁Represent	-11012
▁imperial	-11013
▁RE	-11014
▁irre	-11015
▁Trump	-11016
▁illustrate	-11017
ttes	-11018
onymous	-11019
▁severely	-11020
▁conversations	-11021
vals	-11022
▁dehyd	-11023
▁receptors	-11024
!)	-11025
omatic	-11026
▁tired	-11027
▁careg	-11028
▁incredibly	-11029
▁insu	-11030
▁Always	-11031
▁Therapy	-11032
ysical	-11033
▁Greg	-11034
icting	-11035
▁atomic	-11036
▁Anim	-11037
▁°	-11038
ikes	-11039
▁expense	-11040
▁Benefits	-11041
RS	-11042
▁Kat	-11043
▁territories	-11044
▁PH	-11045
▁stiff	-11046
Co	-11047
othy	-11048
▁19,	-11049
arter	-11050
▁Fram	-11051
ochond	-11052
▁Prior	-11053
phal	-11054
ognition	-11055
hedral	-11056
▁expend	-11057
▁enemies	-11058
▁scal	-11059
▁Primary	-11060
▁Tri	-11061
▁racism	-11062
▁`	-11063
grim	-11064
▁1995	-11065
Hz	-11066
▁declined	-11067
▁explaining	-11068
▁160	-11069
▁Rod	-11070
▁protocols	-11071
▁arrangement	-11072
▁situated	-11073
▁necessity	-11074
▁Diagn	-11075
▁sperm	-11076
▁Magn	-11077
▁consensus	-11078
oil	-11079
7%	-11080
▁Very	-11081
▁invited	-11082
lam	-11083
school	-11084
▁caffe	-11085
▁Account	-11086
▁1800	-11087
▁2016.	-11088
▁Essay	-11089
▁cardiac	-11090
▁relieve	-11091
400	-11092
hops	-11093
▁Marg	-11094
▁AT	-11095
essional	-11096
▁ruling	-11097
▁deterior	-11098
high	-11099
▁circles	-11100
▁bulk	-11101
▁Miller	-11102
▁compassion	-11103
▁politicians	-11104
▁Bor	-11105
▁colleges	-11106
▁gums	-11107
▁educate	-11108
▁coinc	-11109
▁antibiotic	-11110
▁gastro	-11111
▁voting	-11112
Re	-11113
cts	-11114
▁Ford	-11115
▁genetics	-11116
▁skilled	-11117
▁5:	-11118
▁Ni	-11119
▁Was	-11120
▁resilience	-11121
osphere	-11122
rell	-11123
▁Job	-11124
▁Rand	-11125
▁Educational	-11126
My	-11127
▁shopping	-11128
▁Rus	-11129
▁2013,	-11130
▁peripher	-11131
▁overweight	-11132
▁2007,	-11133
▁datas	-11134
▁pride	-11135
▁rotation	-11136
▁incorrect	-11137
▁Belg	-11138
egu	-11139
▁expedition	-11140
▁institutional	-11141
▁magnet	-11142
▁commands	-11143
▁stressed	-11144
▁ic	-11145
▁preschool	-11146
▁ma	-11147
▁cong	-11148
onent	-11149
range	-11150
▁genetically	-11151
pm	-11152
▁Rog	-11153
▁restored	-11154
▁22,	-11155
▁chains	-11156
▁Fem	-11157
▁2007.	-11158
▁analog	-11159
▁outdoors	-11160
▁FA	-11161
bro	-11162
▁telephone	-11163
▁phrases	-11164
▁answered	-11165
▁crust	-11166
asures	-11167
heastern	-11168
▁precious	-11169
▁Fall	-11170
▁brill	-11171
▁viable	-11172
▁disappear	-11173
▁Collect	-11174
ko	-11175
▁NC	-11176
▁recycled	-11177
neg	-11178
▁EM	-11179
uster	-11180
▁Eval	-11181
▁Muh	-11182
▁orn	-11183
▁Evolution	-11184
▁Tips	-11185
▁Ban	-11186
▁departments	-11187
rise	-11188
▁chip	-11189
▁FOR	-11190
▁spell	-11191
▁↑	-11192
ERS	-11193
▁limiting	-11194
▁meets	-11195
▁dece	-11196
▁referring	-11197
who	-11198
▁dispar	-11199
▁considerably	-11200
▁20%	-11201
▁wra	-11202
▁belonging	-11203
▁25,	-11204
▁Barb	-11205
▁damaging	-11206
▁Published	-11207
▁anch	-11208
▁quad	-11209
▁1996	-11210
▁digit	-11211
▁scenes	-11212
▁Visual	-11213
▁phases	-11214
upp	-11215
erness	-11216
▁GP	-11217
thening	-11218
▁Arthur	-11219
uty	-11220
▁lying	-11221
▁Perform	-11222
▁larvae	-11223
3/	-11224
arding	-11225
▁discoveries	-11226
▁cooked	-11227
ancial	-11228
▁ignore	-11229
▁gau	-11230
emed	-11231
▁Bridge	-11232
▁dinner	-11233
▁impression	-11234
▁Communication	-11235
▁Related	-11236
▁menu	-11237
▁SM	-11238
▁conservative	-11239
▁admitted	-11240
▁Advanced	-11241
▁supplied	-11242
▁programmes	-11243
–19	-11244
▁Movement	-11245
▁attracted	-11246
▁thinks	-11247
▁Cultural	-11248
▁Pear	-11249
▁cataly	-11250
▁extraction	-11251
▁crash	-11252
▁determination	-11253
TML	-11254
▁globally	-11255
▁satellites	-11256
ountered	-11257
▁physiological	-11258
▁pollutants	-11259
ausea	-11260
▁surre	-11261
UM	-11262
▁senses	-11263
▁collaborative	-11264
run	-11265
▁bowel	-11266
▁assumption	-11267
▁newspapers	-11268
igration	-11269
▁Buddhist	-11270
▁pap	-11271
eared	-11272
iolet	-11273
ocaust	-11274
▁worksheets	-11275
▁tang	-11276
▁apple	-11277
iro	-11278
▁49	-11279
▁picked	-11280
bral	-11281
icked	-11282
▁presum	-11283
▁marginal	-11284
▁substitute	-11285
anna	-11286
▁Effects	-11287
▁IC	-11288
▁prolonged	-11289
velt	-11290
rac	-11291
lear	-11292
▁vow	-11293
acher	-11294
▁unity	-11295
▁bands	-11296
-200	-11297
▁Stress	-11298
▁Census	-11299
▁lith	-11300
▁chapters	-11301
▁abroad	-11302
▁encountered	-11303
▁Stone	-11304
aki	-11305
igma	-11306
▁hills	-11307
▁Arist	-11308
hard	-11309
▁inver	-11310
isphere	-11311
▁Mission	-11312
▁NS	-11313
wall	-11314
▁Video	-11315
▁boards	-11316
lessly	-11317
▁Sustainable	-11318
▁herbs	-11319
▁entity	-11320
▁casual	-11321
▁metres	-11322
FS	-11323
hour	-11324
▁whilst	-11325
▁precipitation	-11326
▁palm	-11327
▁geographic	-11328
▁groundwater	-11329
▁dismiss	-11330
▁headaches	-11331
▁behalf	-11332
inflammatory	-11333
▁sket	-11334
▁disput	-11335
▁Cham	-11336
▁reserve	-11337
rared	-11338
atching	-11339
▁strand	-11340
▁Ger	-11341
▁beds	-11342
▁seeks	-11343
▁Facts	-11344
▁passive	-11345
arts	-11346
▁Pit	-11347
▁frequencies	-11348
eous	-11349
▁sorts	-11350
▁Ra	-11351
▁Utah	-11352
▁syll	-11353
▁ignored	-11354
▁football	-11355
▁Architect	-11356
orie	-11357
▁Mountains	-11358
▁surveillance	-11359
ez	-11360
▁Captain	-11361
▁determines	-11362
▁specialists	-11363
▁pipes	-11364
▁multipl	-11365
▁accessed	-11366
alo	-11367
▁64	-11368
▁epidem	-11369
▁feas	-11370
inator	-11371
▁Amendment	-11372
▁farmer	-11373
▁Inv	-11374
▁fears	-11375
ructive	-11376
▁degradation	-11377
▁Philippines	-11378
▁(9	-11379
▁electrom	-11380
▁portions	-11381
yt	-11382
▁Nat	-11383
▁conclude	-11384
▁decent	-11385
▁shield	-11386
▁aquatic	-11387
▁appetite	-11388
makers	-11389
▁cha	-11390
▁respective	-11391
▁Bru	-11392
▁Polish	-11393
▁condem	-11394
▁organize	-11395
▁unnecessary	-11396
otyp	-11397
there	-11398
▁shipping	-11399
▁furniture	-11400
iki	-11401
▁Lt	-11402
▁radi	-11403
▁Freder	-11404
▁sau	-11405
▁automatic	-11406
▁Draw	-11407
ordan	-11408
yo	-11409
▁explos	-11410
▁indicator	-11411
,'	-11412
▁24,	-11413
▁Impact	-11414
▁Moh	-11415
PDF	-11416
human	-11417
▁Virt	-11418
arest	-11419
▁dign	-11420
▁stuck	-11421
▁gaining	-11422
ón	-11423
▁catast	-11424
onge	-11425
▁Nig	-11426
▁devastating	-11427
▁stack	-11428
▁Credit	-11429
▁EN	-11430
▁motivated	-11431
▁powered	-11432
▁nurses	-11433
▁unemployment	-11434
▁architectural	-11435
osevelt	-11436
▁traveled	-11437
▁Jup	-11438
▁quote	-11439
▁Saturday	-11440
ococc	-11441
▁Site	-11442
▁manufactured	-11443
GS	-11444
▁SO	-11445
▁afternoon	-11446
▁attempting	-11447
▁Rout	-11448
▁flesh	-11449
isible	-11450
▁designers	-11451
▁kings	-11452
▁static	-11453
▁abdominal	-11454
▁considerations	-11455
▁compact	-11456
▁Cro	-11457
▁prophe	-11458
▁mounted	-11459
▁tunnel	-11460
ishers	-11461
▁snake	-11462
▁Team	-11463
▁arbit	-11464
▁yeast	-11465
▁Hispan	-11466
▁disasters	-11467
▁aids	-11468
opathy	-11469
▁costly	-11470
▁Relations	-11471
▁viewing	-11472
plan	-11473
▁unto	-11474
▁graphic	-11475
▁Raj	-11476
▁blacks	-11477
▁decomp	-11478
▁nineteenth	-11479
▁Mu	-11480
▁deals	-11481
▁Creative	-11482
▁poems	-11483
▁Pa	-11484
vity	-11485
▁lig	-11486
▁comparable	-11487
▁alien	-11488
onto	-11489
▁overse	-11490
▁pupp	-11491
▁Syria	-11492
▁immense	-11493
arth	-11494
Google	-11495
▁fifty	-11496
▁Arabic	-11497
ilty	-11498
▁Analy	-11499
▁ingredient	-11500
▁Pict	-11501
▁makers	-11502
▁repeatedly	-11503
rets	-11504
▁mud	-11505
▁pec	-11506
▁Freedom	-11507
▁wealthy	-11508
illy	-11509
EST	-11510
▁dishes	-11511
iplinary	-11512
2%	-11513
▁Political	-11514
risk	-11515
father	-11516
▁singing	-11517
▁Smart	-11518
▁ric	-11519
▁guides	-11520
▁mim	-11521
essee	-11522
▁recovered	-11523
▁mutual	-11524
▁Had	-11525
▁machinery	-11526
▁interviews	-11527
rying	-11528
▁festival	-11529
restrial	-11530
rup	-11531
uming	-11532
▁100,000	-11533
▁documentation	-11534
▁smallest	-11535
▁shortly	-11536
▁node	-11537
▁shadow	-11538
▁episode	-11539
▁campaigns	-11540
▁177	-11541
▁warmer	-11542
host	-11543
inton	-11544
▁rises	-11545
▁Issue	-11546
screen	-11547
eld	-11548
▁extends	-11549
10,	-11550
iotics	-11551
▁Ark	-11552
iley	-11553
▁suppress	-11554
abetic	-11555
▁Roosevelt	-11556
▁Chap	-11557
imedia	-11558
▁Tibet	-11559
▁slide	-11560
uese	-11561
▁dimension	-11562
▁Vo	-11563
▁analyzing	-11564
ML	-11565
arse	-11566
▁yoga	-11567
▁participated	-11568
conf	-11569
▁entities	-11570
▁guided	-11571
▁beta	-11572
▁examining	-11573
▁28,	-11574
▁bor	-11575
estion	-11576
▁crossing	-11577
▁forb	-11578
▁pathway	-11579
▁personally	-11580
▁2017.	-11581
▁checking	-11582
▁Bot	-11583
▁rescue	-11584
aug	-11585
tics	-11586
▁pharmac	-11587
▁Louisiana	-11588
▁Confederate	-11589
shore	-11590
ilton	-11591
asting	-11592
▁digestion	-11593
esy	-11594
▁flies	-11595
▁Imper	-11596
▁Bon	-11597
▁Previous	-11598
▁meanings	-11599
▁Series	-11600
▁operators	-11601
▁whales	-11602
▁discusses	-11603
irs	-11604
▁tech	-11605
▁induced	-11606
▁vocal	-11607
▁23,	-11608
▁Maybe	-11609
▁carp	-11610
▁prostate	-11611
▁neighbors	-11612
▁Personal	-11613
▁kin	-11614
▁cannab	-11615
▁ceremony	-11616
▁cheaper	-11617
▁absent	-11618
▁poisoning	-11619
▁efficacy	-11620
▁philosophical	-11621
▁updates	-11622
▁alphabet	-11623
▁2015,	-11624
▁disin	-11625
▁inherited	-11626
▁practitioners	-11627
▁Sche	-11628
▁needle	-11629
▁adul	-11630
▁winning	-11631
fol	-11632
▁hearts	-11633
govern	-11634
▁SE	-11635
laration	-11636
imeter	-11637
▁cavity	-11638
lastname	-11639
ulative	-11640
▁Summer	-11641
▁flowing	-11642
▁Fle	-11643
▁paths	-11644
▁curious	-11645
Do	-11646
lah	-11647
▁structured	-11648
▁interpreted	-11649
▁Kenya	-11650
▁Nap	-11651
▁belt	-11652
ochemical	-11653
▁Rap	-11654
▁fulfill	-11655
▁compensation	-11656
▁2-	-11657
▁Hunt	-11658
▁alb	-11659
▁plaque	-11660
dis	-11661
▁Bob	-11662
abama	-11663
▁clusters	-11664
▁galaxy	-11665
▁Pow	-11666
▁methodology	-11667
▁Bird	-11668
▁propos	-11669
▁Dub	-11670
▁staying	-11671
natural	-11672
▁oxide	-11673
▁advised	-11674
▁colours	-11675
orious	-11676
olly	-11677
▁pushing	-11678
eland	-11679
57	-11680
▁uter	-11681
▁initiated	-11682
apore	-11683
41	-11684
▁Mong	-11685
▁grave	-11686
▁endeav	-11687
▁fails	-11688
rage	-11689
▁beer	-11690
▁Exercise	-11691
ewater	-11692
▁Philip	-11693
▁Clear	-11694
▁magic	-11695
▁Albert	-11696
▁Compar	-11697
inced	-11698
▁carcin	-11699
▁Strateg	-11700
onald	-11701
ushes	-11702
▁pulled	-11703
▁compress	-11704
instein	-11705
▁angles	-11706
!"	-11707
non	-11708
▁fee	-11709
4),	-11710
▁Dat	-11711
▁Fisher	-11712
monary	-11713
▁2006,	-11714
▁Defense	-11715
▁angry	-11716
▁chips	-11717
▁bold	-11718
▁Clark	-11719
▁timber	-11720
▁telescope	-11721
▁Dur	-11722
▁grants	-11723
▁coding	-11724
▁descriptions	-11725
▁voices	-11726
igs	-11727
▁PMID	-11728
▁mainstream	-11729
▁26,	-11730
osex	-11731
▁strengths	-11732
ikh	-11733
ltry	-11734
▁checked	-11735
▁obsc	-11736
▁responded	-11737
▁dirt	-11738
89	-11739
▁quantitative	-11740
cm	-11741
▁Market	-11742
▁patch	-11743
▁transparent	-11744
sur	-11745
bits	-11746
hr	-11747
osynt	-11748
ogl	-11749
▁Gil	-11750
▁Hal	-11751
▁aspir	-11752
▁imbal	-11753
▁Jupiter	-11754
▁Imm	-11755
▁Pas	-11756
angers	-11757
▁Lady	-11758
▁verbal	-11759
▁insulation	-11760
look	-11761
▁Cert	-11762
weet	-11763
comp	-11764
▁Chen	-11765
▁belongs	-11766
▁Resource	-11767
▁Tennessee	-11768
oxide	-11769
▁Nich	-11770
VD	-11771
▁airport	-11772
▁caffeine	-11773
▁enterprise	-11774
▁Fri	-11775
▁blockchain	-11776
pur	-11777
600	-11778
▁Build	-11779
etry	-11780
▁anniversary	-11781
ailing	-11782
warf	-11783
▁rou	-11784
▁historically	-11785
▁actors	-11786
ographer	-11787
▁Everyone	-11788
itored	-11789
▁archaeological	-11790
arma	-11791
activity	-11792
▁Archae	-11793
▁fluctu	-11794
etheless	-11795
▁Eating	-11796
▁Getting	-11797
▁Afghanistan	-11798
▁Dor	-11799
ogene	-11800
lyn	-11801
▁promoted	-11802
▁integrate	-11803
▁odd	-11804
▁atom	-11805
▁basics	-11806
oub	-11807
▁Hawaii	-11808
keys	-11809
acular	-11810
▁battles	-11811
▁bottles	-11812
▁Hong	-11813
▁Nort	-11814
▁Treaty	-11815
▁licensed	-11816
▁resur	-11817
▁denied	-11818
▁Golden	-11819
▁Tele	-11820
ietal	-11821
▁satisfaction	-11822
kh	-11823
▁Includ	-11824
▁tremendous	-11825
▁Whit	-11826
▁que	-11827
osaurs	-11828
▁profits	-11829
▁volunteer	-11830
opt	-11831
▁47	-11832
appy	-11833
▁murd	-11834
ilateral	-11835
▁republic	-11836
▁interrupt	-11837
▁Independence	-11838
orship	-11839
▁fled	-11840
▁sore	-11841
▁fleet	-11842
▁Ages	-11843
▁refriger	-11844
▁bom	-11845
▁volcanic	-11846
.-	-11847
graduate	-11848
Con	-11849
▁gifts	-11850
▁acquisition	-11851
▁terminal	-11852
▁assignments	-11853
▁Persian	-11854
▁replacing	-11855
Us	-11856
▁Corporation	-11857
▁coin	-11858
▁2014,	-11859
estinal	-11860
▁practicing	-11861
ESS	-11862
keley	-11863
roleum	-11864
▁Deb	-11865
good	-11866
▁Eat	-11867
▁Prize	-11868
▁vapor	-11869
▁arteries	-11870
exts	-11871
forward	-11872
▁Around	-11873
▁movies	-11874
▁speaks	-11875
▁cher	-11876
▁servers	-11877
▁residence	-11878
▁constraints	-11879
bestos	-11880
letter	-11881
▁Foreign	-11882
▁contracts	-11883
agus	-11884
▁Prevent	-11885
▁Memorial	-11886
▁margin	-11887
▁Tai	-11888
▁Bah	-11889
▁cows	-11890
▁veterin	-11891
gon	-11892
▁lapt	-11893
▁forty	-11894
▁astronaut	-11895
▁chim	-11896
▁affil	-11897
▁tear	-11898
▁substantially	-11899
▁2,000	-11900
rasound	-11901
▁announce	-11902
▁circuits	-11903
▁galaxies	-11904
▁hosts	-11905
oths	-11906
▁convinced	-11907
▁mutation	-11908
▁Collection	-11909
▁preferences	-11910
▁Frequ	-11911
▁Planning	-11912
whe	-11913
These	-11914
ibli	-11915
▁convention	-11916
sl	-11917
▁drawings	-11918
▁Fun	-11919
▁admit	-11920
▁empir	-11921
▁Prophet	-11922
▁pollen	-11923
▁raises	-11924
▁Together	-11925
▁conjunction	-11926
▁Kong	-11927
▁Regular	-11928
▁religions	-11929
▁consultation	-11930
▁databases	-11931
▁Diego	-11932
▁Essential	-11933
▁2005,	-11934
▁Total	-11935
▁Alabama	-11936
▁Boy	-11937
▁regulated	-11938
▁181	-11939
▁equity	-11940
▁chat	-11941
▁hepatitis	-11942
▁persec	-11943
8%	-11944
sun	-11945
▁LG	-11946
▁Argent	-11947
▁asset	-11948
▁enters	-11949
py	-11950
gr	-11951
▁Declaration	-11952
▁purple	-11953
lation	-11954
▁publicly	-11955
backs	-11956
▁Veter	-11957
▁highlighted	-11958
bu	-11959
▁Hind	-11960
▁boats	-11961
ibration	-11962
▁Sci	-11963
white	-11964
▁accused	-11965
▁corruption	-11966
▁hypertension	-11967
▁Pil	-11968
▁rings	-11969
▁ED	-11970
▁Ball	-11971
▁blame	-11972
▁ren	-11973
▁footprint	-11974
▁Intelligence	-11975
▁neighbour	-11976
▁reliability	-11977
olas	-11978
urred	-11979
▁dual	-11980
▁overt	-11981
▁2.5	-11982
▁(197	-11983
iencies	-11984
▁Aboriginal	-11985
eterm	-11986
▁basket	-11987
▁searc	-11988
One	-11989
aying	-11990
▁photography	-11991
▁commemor	-11992
▁operator	-11993
elson	-11994
▁consp	-11995
▁Gro	-11996
▁intu	-11997
▁steep	-11998
▁epit	-11999
yers	-12000
▁hind	-12001
▁dreams	-12002
▁counting	-12003
▁prosec	-12004
▁abd	-12005
▁contexts	-12006
▁cer	-12007
rology	-12008
▁symmet	-12009
▁arrested	-12010
away	-12011
spe	-12012
WS	-12013
▁Rain	-12014
▁beef	-12015
▁tempt	-12016
▁ignor	-12017
▁smok	-12018
PP	-12019
▁lact	-12020
▁projected	-12021
sets	-12022
Ref	-12023
▁imposed	-12024
▁geographical	-12025
▁relates	-12026
▁possession	-12027
▁bars	-12028
▁locate	-12029
▁Benj	-12030
▁Game	-12031
fficiency	-12032
▁Kentucky	-12033
▁Hope	-12034
▁march	-12035
▁Edition	-12036
aund	-12037
▁enthusi	-12038
▁builds	-12039
▁Youth	-12040
▁fungi	-12041
▁pitch	-12042
organisms	-12043
▁ger	-12044
▁emergence	-12045
▁monitored	-12046
▁gross	-12047
▁reads	-12048
▁landf	-12049
icul	-12050
▁heated	-12051
▁Lawrence	-12052
▁purchasing	-12053
▁Tok	-12054
▁retire	-12055
▁Portuguese	-12056
▁headache	-12057
▁practiced	-12058
▁15.	-12059
▁peaceful	-12060
plus	-12061
▁Innov	-12062
link	-12063
▁Affairs	-12064
▁scheduled	-12065
▁comprehension	-12066
▁Command	-12067
▁predictions	-12068
▁Hell	-12069
▁brick	-12070
▁tender	-12071
▁breathe	-12072
heres	-12073
▁$2	-12074
▁Bapt	-12075
▁Fortunately	-12076
▁(7	-12077
▁mul	-12078
▁introducing	-12079
first	-12080
▁Archives	-12081
iser	-12082
inates	-12083
ationally	-12084
roach	-12085
access	-12086
induced	-12087
▁alleged	-12088
▁menstru	-12089
▁receptor	-12090
▁counts	-12091
orb	-12092
▁mosquito	-12093
AV	-12094
▁Pra	-12095
▁caring	-12096
▁pix	-12097
▁27,	-12098
▁CL	-12099
▁Norway	-12100
▁defeated	-12101
they	-12102
▁Tal	-12103
▁grey	-12104
▁Games	-12105
▁Nobel	-12106
▁Military	-12107
▁governance	-12108
▁Anti	-12109
▁deple	-12110
▁artery	-12111
olescent	-12112
▁Lic	-12113
writing	-12114
oen	-12115
▁Lie	-12116
▁consisted	-12117
▁fees	-12118
▁talked	-12119
tein	-12120
▁cyt	-12121
▁dictionary	-12122
▁Turkish	-12123
0.0	-12124
▁followers	-12125
▁Tell	-12126
▁Sri	-12127
▁conceptual	-12128
▁Cru	-12129
▁certified	-12130
held	-12131
▁Past	-12132
▁butt	-12133
▁evac	-12134
▁Radio	-12135
▁closest	-12136
▁environmentally	-12137
olecular	-12138
▁ok	-12139
abs	-12140
asis	-12141
giving	-12142
▁agenda	-12143
▁passengers	-12144
▁navigate	-12145
▁trap	-12146
▁Historic	-12147
▁Typically	-12148
▁Aqu	-12149
▁glands	-12150
▁Singapore	-12151
▁assessing	-12152
▁stimulation	-12153
▁selecting	-12154
▁Hub	-12155
▁intervals	-12156
▁Almost	-12157
▁pressures	-12158
▁Winter	-12159
▁wax	-12160
▁bicy	-12161
▁indication	-12162
▁careers	-12163
▁membership	-12164
athic	-12165
▁thrown	-12166
▁releases	-12167
▁triggers	-12168
oT	-12169
ovenant	-12170
▁Fat	-12171
▁hate	-12172
▁Buddhism	-12173
▁Evidence	-12174
▁Holocaust	-12175
▁Wy	-12176
▁cro	-12177
aments	-12178
▁incidents	-12179
▁Publishing	-12180
ulses	-12181
▁norms	-12182
▁preference	-12183
▁Country	-12184
▁Syndrome	-12185
weed	-12186
urally	-12187
iciency	-12188
▁defect	-12189
▁breakfast	-12190
▁completing	-12191
9%	-12192
▁Dak	-12193
▁throne	-12194
▁Agricultural	-12195
▁Cust	-12196
▁Sound	-12197
▁automated	-12198
▁Mechan	-12199
▁challenged	-12200
▁cod	-12201
▁pharmaceutical	-12202
▁AB	-12203
▁BBC	-12204
▁Activity	-12205
▁HTML	-12206
▁fraud	-12207
▁resident	-12208
▁exert	-12209
▁biomass	-12210
▁compete	-12211
▁tackle	-12212
▁Executive	-12213
▁extending	-12214
▁bay	-12215
▁polymer	-12216
▁antioxidants	-12217
▁Rena	-12218
mouth	-12219
▁Block	-12220
▁customs	-12221
▁inquiry	-12222
▁geography	-12223
▁SD	-12224
▁promised	-12225
▁kidneys	-12226
olith	-12227
▁crowd	-12228
▁Ukraine	-12229
▁combining	-12230
ierce	-12231
▁Protect	-12232
▁sacrific	-12233
▁Commer	-12234
▁defining	-12235
opol	-12236
▁interval	-12237
▁caution	-12238
▁sugars	-12239
▁constitute	-12240
▁suited	-12241
fat	-12242
odge	-12243
▁Chile	-12244
96	-12245
▁CM	-12246
▁rows	-12247
▁castle	-12248
▁Ku	-12249
▁80%	-12250
▁intestinal	-12251
itance	-12252
▁darkness	-12253
▁railroad	-12254
▁Chemistry	-12255
▁unders	-12256
▁accumulation	-12257
▁Visit	-12258
▁Looking	-12259
cr	-12260
▁whites	-12261
▁geometry	-12262
▁Character	-12263
▁Gas	-12264
▁navigation	-12265
iens	-12266
▁decreasing	-12267
▁illustrations	-12268
supp	-12269
▁ions	-12270
▁wast	-12271
▁maternal	-12272
▁bapt	-12273
▁basin	-12274
▁missed	-12275
▁voters	-12276
forestation	-12277
▁bes	-12278
▁floating	-12279
▁weren	-12280
▁Travel	-12281
eu	-12282
▁headed	-12283
▁drew	-12284
▁divor	-12285
▁survivors	-12286
▁Beyond	-12287
incial	-12288
izational	-12289
▁Indiana	-12290
▁Machine	-12291
▁lacking	-12292
appropriate	-12293
▁presenting	-12294
gic	-12295
▁sho	-12296
▁2006.	-12297
▁Better	-12298
▁promotion	-12299
▁Maria	-12300
▁Jordan	-12301
iasis	-12302
▁realm	-12303
ryption	-12304
▁bitter	-12305
▁labeled	-12306
▁Si	-12307
▁90%	-12308
▁Pediatric	-12309
▁fragments	-12310
▁29,	-12311
▁Sant	-12312
▁demonstration	-12313
▁sphere	-12314
▁mixing	-12315
▁explores	-12316
▁Images	-12317
▁offspring	-12318
mill	-12319
▁ink	-12320
▁explosion	-12321
▁traged	-12322
▁brilliant	-12323
▁olive	-12324
▁extracted	-12325
▁Castle	-12326
▁inputs	-12327
▁edited	-12328
▁ties	-12329
hend	-12330
▁Genesis	-12331
▁unhealthy	-12332
▁workshops	-12333
immune	-12334
▁premature	-12335
edge	-12336
▁inclusive	-12337
▁Vill	-12338
otechnology	-12339
▁airpl	-12340
▁observing	-12341
▁feat	-12342
▁tribal	-12343
▁requests	-12344
vance	-12345
▁bike	-12346
▁neurological	-12347
angular	-12348
▁Territ	-12349
▁seemingly	-12350
▁Adams	-12351
▁unclear	-12352
▁lunar	-12353
attle	-12354
▁upset	-12355
▁placement	-12356
▁imported	-12357
PM	-12358
▁Tour	-12359
▁omega	-12360
▁virtue	-12361
▁entertainment	-12362
▁85	-12363
▁juven	-12364
▁loads	-12365
▁safegu	-12366
▁soldier	-12367
▁Link	-12368
▁modify	-12369
▁banking	-12370
empl	-12371
▁corporations	-12372
acre	-12373
scill	-12374
sens	-12375
▁Alf	-12376
▁Editor	-12377
▁Financial	-12378
olia	-12379
▁kne	-12380
▁Astr	-12381
6%	-12382
▁lining	-12383
▁combinations	-12384
▁functionality	-12385
▁inadequate	-12386
▁Shar	-12387
▁forgotten	-12388
▁Armen	-12389
▁exams	-12390
▁nausea	-12391
▁foundations	-12392
▁affirm	-12393
▁dysfunction	-12394
po	-12395
▁worried	-12396
▁Stanford	-12397
amma	-12398
▁Box	-12399
▁provinces	-12400
▁Appl	-12401
▁icon	-12402
▁harass	-12403
unciation	-12404
▁advocate	-12405
five	-12406
▁Muhammad	-12407
▁founding	-12408
▁obese	-12409
▁Tu	-12410
▁fart	-12411
lades	-12412
▁voluntary	-12413
▁USDA	-12414
▁implant	-12415
▁compression	-12416
▁intact	-12417
▁Regional	-12418
uana	-12419
▁Iowa	-12420
▁altogether	-12421
▁melting	-12422
▁separately	-12423
▁Soil	-12424
resistant	-12425
▁Population	-12426
▁lean	-12427
▁dozen	-12428
▁Ross	-12429
arettes	-12430
▁mankind	-12431
▁eligible	-12432
▁melt	-12433
▁grat	-12434
arency	-12435
▁panic	-12436
▁breakdown	-12437
▁surviving	-12438
▁Broad	-12439
▁lesser	-12440
▁YO	-12441
▁Capital	-12442
erenn	-12443
▁Upper	-12444
▁shifts	-12445
.||	-12446
**	-12447
was	-12448
ropolitan	-12449
▁altitude	-12450
hot	-12451
▁1994	-12452
▁firstname	-12453
▁twentieth	-12454
▁bore	-12455
▁workforce	-12456
4%	-12457
▁pulse	-12458
▁slower	-12459
▁wool	-12460
annel	-12461
▁conform	-12462
▁Parkinson	-12463
PC	-12464
▁Democr	-12465
▁controversy	-12466
parent	-12467
ighters	-12468
▁undertaken	-12469
▁desirable	-12470
▁corros	-12471
▁median	-12472
▁freshwater	-12473
▁mines	-12474
▁Dental	-12475
▁Brad	-12476
▁Immun	-12477
▁operates	-12478
3-	-12479
▁Brook	-12480
▁Success	-12481
▁Staff	-12482
▁TB	-12483
venue	-12484
▁editing	-12485
▁constitu	-12486
▁Literature	-12487
▁modes	-12488
jan	-12489
▁artifacts	-12490
▁certification	-12491
asia	-12492
▁1-	-12493
▁Answer	-12494
▁wounded	-12495
▁Benjamin	-12496
▁impaired	-12497
wind	-12498
▁newborn	-12499
▁therapist	-12500
▁variability	-12501
▁mast	-12502
▁tomb	-12503
velation	-12504
▁Alcohol	-12505
rans	-12506
▁tuber	-12507
▁Renaissance	-12508
▁advocates	-12509
▁Od	-12510
rained	-12511
▁dwell	-12512
UD	-12513
eman	-12514
▁melan	-12515
▁ozone	-12516
zens	-12517
▁Cab	-12518
▁attending	-12519
▁withdrawal	-12520
▁Joh	-12521
ART	-12522
▁socially	-12523
▁2016,	-12524
▁permits	-12525
▁cement	-12526
icut	-12527
matic	-12528
▁pigs	-12529
▁occasions	-12530
▁radar	-12531
▁explanations	-12532
iffs	-12533
▁spite	-12534
▁relies	-12535
▁disciplines	-12536
▁biof	-12537
▁Skills	-12538
atherine	-12539
▁priorit	-12540
▁mush	-12541
▁informal	-12542
▁similarly	-12543
▁Consequently	-12544
▁investigations	-12545
▁Simon	-12546
▁glory	-12547
aughters	-12548
▁plastics	-12549
▁pole	-12550
IO	-12551
imony	-12552
▁cups	-12553
▁contra	-12554
dig	-12555
.5	-12556
uma	-12557
▁toilet	-12558
▁imagery	-12559
▁eliminated	-12560
▁evaluating	-12561
PT	-12562
▁Would	-12563
▁impacted	-12564
▁reinforce	-12565
▁symbolic	-12566
▁teachings	-12567
FA	-12568
▁bases	-12569
cedented	-12570
▁proclaim	-12571
▁scattered	-12572
▁Protocol	-12573
▁microbes	-12574
▁182	-12575
▁Trib	-12576
▁lets	-12577
▁votes	-12578
()	-12579
▁McG	-12580
ilib	-12581
asted	-12582
16/	-12583
names	-12584
istence	-12585
▁Ye	-12586
rosis	-12587
▁radioactive	-12588
▁Ara	-12589
▁modules	-12590
▁weeds	-12591
▁rebell	-12592
▁Cuba	-12593
▁Testing	-12594
▁Patrick	-12595
▁indo	-12596
pective	-12597
▁readings	-12598
▁saturated	-12599
uate	-12600
intestinal	-12601
▁pronounced	-12602
▁6:	-12603
bet	-12604
ulent	-12605
▁trips	-12606
▁inspire	-12607
En	-12608
version	-12609
▁negatively	-12610
▁champ	-12611
▁pound	-12612
▁spont	-12613
▁wounds	-12614
▁segments	-12615
▁gang	-12616
▁fool	-12617
arms	-12618
▁creature	-12619
ARS	-12620
osures	-12621
▁Stock	-12622
.]	-12623
▁Focus	-12624
▁jet	-12625
▁Hun	-12626
esthes	-12627
▁briefly	-12628
▁Torah	-12629
pton	-12630
▁inspection	-12631
▁bridges	-12632
▁surely	-12633
▁agreements	-12634
▁elevation	-12635
▁sensation	-12636
ova	-12637
eton	-12638
pers	-12639
▁Excel	-12640
▁Wolf	-12641
▁sword	-12642
▁deemed	-12643
So	-12644
isa	-12645
▁ly	-12646
▁Leaders	-12647
▁landscapes	-12648
▁Cass	-12649
▁wires	-12650
▁lawn	-12651
▁Diseases	-12652
▁legislative	-12653
▁registration	-12654
▁screw	-12655
arity	-12656
▁Coal	-12657
▁concentrate	-12658
▁currents	-12659
▁combustion	-12660
▁2000,	-12661
▁marker	-12662
▁Imagine	-12663
▁GPS	-12664
▁lenses	-12665
87	-12666
▁bowl	-12667
▁artic	-12668
▁Berkeley	-12669
▁positively	-12670
▁certificate	-12671
▁terrible	-12672
▁Greeks	-12673
▁lesions	-12674
▁obstacles	-12675
▁tries	-12676
▁Sarah	-12677
▁Toronto	-12678
▁todd	-12679
itives	-12680
▁Banglades	-12681
▁inval	-12682
▁delight	-12683
imity	-12684
▁loaded	-12685
▁delayed	-12686
▁Kind	-12687
rob	-12688
▁admin	-12689
▁Accessed	-12690
▁Loc	-12691
▁insufficient	-12692
▁inability	-12693
▁rum	-12694
▁remembered	-12695
▁interference	-12696
▁retrie	-12697
▁nucleus	-12698
▁screens	-12699
▁PV	-12700
▁lighter	-12701
▁Ay	-12702
▁grocer	-12703
otional	-12704
▁commander	-12705
bled	-12706
▁reforms	-12707
▁declar	-12708
▁Methods	-12709
▁wetlands	-12710
▁Prob	-12711
▁Ground	-12712
lict	-12713
arbon	-12714
amel	-12715
▁dependence	-12716
cat	-12717
rones	-12718
▁descendants	-12719
▁Hans	-12720
▁Conserv	-12721
obacter	-12722
▁rating	-12723
▁Workshe	-12724
▁individ	-12725
▁silent	-12726
▁employer	-12727
ucks	-12728
▁Nigeria	-12729
▁unpre	-12730
dam	-12731
arb	-12732
▁Bed	-12733
▁Maine	-12734
▁crystal	-12735
▁legitimate	-12736
▁surroundings	-12737
▁snakes	-12738
▁Function	-12739
lahoma	-12740
▁dated	-12741
May	-12742
hal	-12743
iscal	-12744
▁titles	-12745
▁travels	-12746
▁confined	-12747
▁secular	-12748
illery	-12749
▁closing	-12750
▁activists	-12751
esty	-12752
lies	-12753
▁accommodate	-12754
▁sink	-12755
▁carrier	-12756
▁seats	-12757
▁rehabilitation	-12758
▁Esp	-12759
adays	-12760
▁grab	-12761
▁veins	-12762
itzerland	-12763
▁identifies	-12764
▁cultivation	-12765
letal	-12766
▁Causes	-12767
▁graphics	-12768
▁continually	-12769
▁Imperial	-12770
▁journals	-12771
▁EC	-12772
▁Sel	-12773
▁Words	-12774
▁priests	-12775
▁2005.	-12776
▁praise	-12777
ni	-12778
nty	-12779
▁EV	-12780
▁bats	-12781
▁Syn	-12782
ingham	-12783
▁impairment	-12784
-17	-12785
▁breeds	-12786
▁strictly	-12787
▁systemic	-12788
▁fundament	-12789
▁(2010	-12790
▁Austria	-12791
▁mosquitoes	-12792
▁subur	-12793
tically	-12794
energy	-12795
▁thumb	-12796
eded	-12797
▁Heat	-12798
▁Loss	-12799
▁intermediate	-12800
▁transaction	-12801
▁worlds	-12802
▁interfere	-12803
owed	-12804
▁destructive	-12805
▁2020.	-12806
▁Compan	-12807
▁Determ	-12808
▁warned	-12809
▁truck	-12810
▁chemotherapy	-12811
▁presidential	-12812
wealth	-12813
▁pencil	-12814
▁crossed	-12815
▁coating	-12816
▁banned	-12817
▁Economics	-12818
▁generator	-12819
▁Kit	-12820
▁proc	-12821
▁stir	-12822
▁Nurs	-12823
▁races	-12824
lementary	-12825
▁coronavirus	-12826
▁Sin	-12827
▁slope	-12828
▁MIT	-12829
▁pneumonia	-12830
▁Skin	-12831
▁sends	-12832
cription	-12833
▁exclusive	-12834
opter	-12835
▁recur	-12836
▁worms	-12837
▁harmony	-12838
▁Initiative	-12839
▁longest	-12840
▁Recently	-12841
▁retreat	-12842
▁depicted	-12843
▁perceive	-12844
▁lasted	-12845
▁2004,	-12846
▁parasites	-12847
rubs	-12848
roups	-12849
PL	-12850
heum	-12851
▁Mas	-12852
▁Israeli	-12853
▁fits	-12854
▁noble	-12855
▁bulbs	-12856
▁checks	-12857
▁stayed	-12858
▁recru	-12859
▁prejud	-12860
regn	-12861
reas	-12862
proof	-12863
▁appliances	-12864
▁calculation	-12865
▁Dog	-12866
▁dispute	-12867
▁similarities	-12868
▁Ps	-12869
▁nurt	-12870
▁emperor	-12871
▁consolid	-12872
▁comprised	-12873
▁triggered	-12874
▁statue	-12875
ods	-12876
▁uncommon	-12877
▁Ow	-12878
itational	-12879
▁directory	-12880
▁Definition	-12881
▁knock	-12882
DC	-12883
▁yog	-12884
▁generates	-12885
▁Les	-12886
▁Allen	-12887
▁Improve	-12888
▁MRI	-12889
▁antioxidant	-12890
▁probe	-12891
▁achievements	-12892
▁Hou	-12893
lav	-12894
▁AF	-12895
▁displace	-12896
▁Traditional	-12897
▁tale	-12898
uated	-12899
▁guilty	-12900
▁scarce	-12901
▁43	-12902
▁ecology	-12903
▁Anderson	-12904
▁stretching	-12905
ambo	-12906
▁activated	-12907
▁Gi	-12908
▁Kir	-12909
▁damp	-12910
▁Eventually	-12911
54	-12912
post	-12913
marks	-12914
▁Newton	-12915
▁unprecedented	-12916
▁Fried	-12917
HT	-12918
otive	-12919
▁freed	-12920
itar	-12921
ashing	-12922
▁fungus	-12923
▁explicitly	-12924
ochem	-12925
esteem	-12926
▁railway	-12927
▁gardening	-12928
▁Wel	-12929
▁Weight	-12930
▁succ	-12931
▁Domin	-12932
▁lateral	-12933
▁patches	-12934
▁poultry	-12935
▁Anth	-12936
▁seas	-12937
phen	-12938
▁toll	-12939
▁investing	-12940
ollo	-12941
▁coupled	-12942
▁Protestant	-12943
alin	-12944
▁acknowledged	-12945
▁Viol	-12946
ocytes	-12947
▁Lesson	-12948
two	-12949
▁Kings	-12950
▁gallons	-12951
▁microbi	-12952
▁billions	-12953
▁glasses	-12954
▁retention	-12955
▁fired	-12956
▁warrant	-12957
▁autonomous	-12958
Eng	-12959
▁Roc	-12960
ellar	-12961
▁jurisdiction	-12962
inar	-12963
▁damages	-12964
▁notably	-12965
km	-12966
okes	-12967
▁synthes	-12968
▁considers	-12969
▁erad	-12970
▁»	-12971
mus	-12972
▁Eb	-12973
▁Song	-12974
▁titled	-12975
▁innovations	-12976
ugar	-12977
Ab	-12978
▁tet	-12979
▁remedy	-12980
▁extinct	-12981
▁Tech	-12982
▁sor	-12983
oping	-12984
▁tablets	-12985
▁quot	-12986
ixed	-12987
▁ruler	-12988
aran	-12989
▁strip	-12990
▁Authority	-12991
▁Hyp	-12992
▁transported	-12993
ilies	-12994
uncture	-12995
▁offset	-12996
▁potent	-12997
▁4-	-12998
▁orth	-12999
▁scrap	-13000
▁Course	-13001
fortable	-13002
▁electromagnetic	-13003
▁Aer	-13004
▁wells	-13005
▁struggles	-13006
▁cram	-13007
▁Snow	-13008
▁intens	-13009
▁trapped	-13010
▁Oklahoma	-13011
Col	-13012
▁disse	-13013
rock	-13014
▁odds	-13015
▁strikes	-13016
▁crafts	-13017
▁ate	-13018
▁charts	-13019
▁luck	-13020
▁Bud	-13021
MD	-13022
▁uncons	-13023
▁sake	-13024
▁Switzerland	-13025
800	-13026
▁Ze	-13027
▁underm	-13028
▁collaps	-13029
rish	-13030
▁Return	-13031
▁extensively	-13032
powered	-13033
▁Poor	-13034
▁joining	-13035
▁phon	-13036
▁divisions	-13037
▁gasoline	-13038
imb	-13039
▁surgeon	-13040
▁Upon	-13041
▁competing	-13042
▁eliminating	-13043
▁unst	-13044
▁weed	-13045
▁retained	-13046
rade	-13047
ths	-13048
▁burial	-13049
▁municipal	-13050
▁potato	-13051
▁]	-13052
▁lux	-13053
▁700	-13054
▁Burn	-13055
▁bod	-13056
▁witnessed	-13057
52	-13058
▁Award	-13059
▁ports	-13060
▁intrig	-13061
▁conception	-13062
▁paste	-13063
▁cervical	-13064
chi	-13065
▁Dal	-13066
▁Publ	-13067
▁Chronic	-13068
▁Biological	-13069
▁vulnerability	-13070
▁outstanding	-13071
▁illum	-13072
▁standardized	-13073
uction	-13074
oz	-13075
oni	-13076
▁CF	-13077
▁cock	-13078
▁autumn	-13079
▁matching	-13080
bial	-13081
iper	-13082
▁fusion	-13083
▁pointing	-13084
erto	-13085
▁alleg	-13086
▁downt	-13087
▁Technical	-13088
▁subjected	-13089
▁Haz	-13090
zech	-13091
▁Ens	-13092
▁packed	-13093
▁citizenship	-13094
▁56	-13095
▁Ts	-13096
oriented	-13097
▁silicon	-13098
▁supportive	-13099
▁Syd	-13100
▁fossils	-13101
imination	-13102
▁TR	-13103
▁Easter	-13104
▁Connecticut	-13105
▁allev	-13106
Com	-13107
▁30%	-13108
▁trains	-13109
lux	-13110
▁peas	-13111
kg	-13112
▁jack	-13113
:10.10	-13114
▁floods	-13115
▁Southeast	-13116
▁41	-13117
▁PRO	-13118
▁pumps	-13119
▁critics	-13120
▁layout	-13121
▁Dry	-13122
▁gel	-13123
▁Malays	-13124
vas	-13125
▁valued	-13126
▁cultivated	-13127
▁embrace	-13128
▁Lanc	-13129
▁threatening	-13130
izoph	-13131
▁mitochond	-13132
ometric	-13133
▁behave	-13134
olutions	-13135
▁invisible	-13136
mind	-13137
▁Luke	-13138
onduct	-13139
perature	-13140
▁refined	-13141
▁ty	-13142
pose	-13143
▁dos	-13144
▁Share	-13145
▁mechanics	-13146
▁soda	-13147
▁recipe	-13148
rea	-13149
▁blocked	-13150
▁Hamilton	-13151
▁outbreaks	-13152
▁Industry	-13153
▁Nuclear	-13154
▁appreciation	-13155
▁judges	-13156
▁harvesting	-13157
▁Vacc	-13158
▁Aristot	-13159
▁flowering	-13160
▁Pack	-13161
▁Emergency	-13162
▁cous	-13163
▁bip	-13164
▁Annual	-13165
▁Bishop	-13166
▁Police	-13167
▁gently	-13168
▁legally	-13169
agu	-13170
▁prosperity	-13171
oard	-13172
▁dump	-13173
▁PS	-13174
▁Higher	-13175
▁revised	-13176
olis	-13177
▁hoped	-13178
eech	-13179
▁diesel	-13180
Read	-13181
▁delicate	-13182
Pub	-13183
rost	-13184
ierra	-13185
▁Plus	-13186
ORD	-13187
▁enrich	-13188
Pe	-13189
▁ank	-13190
▁alkal	-13191
▁cater	-13192
▁enroll	-13193
▁deployed	-13194
▁inserted	-13195
lihood	-13196
▁pyram	-13197
ennis	-13198
.(	-13199
rophy	-13200
▁strat	-13201
▁folks	-13202
ilibrium	-13203
▁Mathematics	-13204
▁earthquakes	-13205
▁Prep	-13206
▁baseline	-13207
▁vic	-13208
four	-13209
▁18.	-13210
▁watched	-13211
▁intestine	-13212
▁transit	-13213
▁monetary	-13214
▁passages	-13215
▁Activities	-13216
▁individually	-13217
third	-13218
▁Hait	-13219
▁plug	-13220
bin	-13221
hematic	-13222
idel	-13223
▁diamond	-13224
▁somehow	-13225
▁charging	-13226
53	-13227
▁inventory	-13228
htm	-13229
▁Could	-13230
▁desper	-13231
▁Problems	-13232
Tube	-13233
▁Pharm	-13234
▁Too	-13235
▁evolve	-13236
▁empathy	-13237
▁Bangladesh	-13238
▁gay	-13239
▁Alliance	-13240
ijuana	-13241
▁Orthodox	-13242
▁rival	-13243
▁prototype	-13244
mates	-13245
usions	-13246
▁traumatic	-13247
izophren	-13248
▁stamp	-13249
vo	-13250
aga	-13251
▁5-	-13252
▁millenn	-13253
▁bloom	-13254
▁berries	-13255
▁toxicity	-13256
▁Join	-13257
▁Hart	-13258
▁Title	-13259
▁symp	-13260
▁Night	-13261
▁hungry	-13262
▁instructional	-13263
▁Swedish	-13264
▁rolling	-13265
▁IL	-13266
driven	-13267
▁brut	-13268
▁2017,	-13269
▁16.	-13270
▁Oak	-13271
▁seaf	-13272
▁intim	-13273
▁likes	-13274
▁promises	-13275
▁Dick	-13276
ifiers	-13277
▁instructor	-13278
▁sour	-13279
ulatory	-13280
▁incentives	-13281
▁friction	-13282
▁attachment	-13283
▁traces	-13284
▁CC	-13285
▁utilizing	-13286
▁questionna	-13287
aus	-13288
only	-13289
4:	-13290
▁Reference	-13291
Te	-13292
dy	-13293
threat	-13294
lip	-13295
bone	-13296
▁shooting	-13297
▁Kal	-13298
▁Douglas	-13299
arming	-13300
▁Region	-13301
avy	-13302
adows	-13303
▁ranks	-13304
▁Ros	-13305
▁10-	-13306
▁binary	-13307
▁Mosc	-13308
rehend	-13309
▁planes	-13310
▁exploitation	-13311
▁pour	-13312
rots	-13313
▁bench	-13314
▁transcript	-13315
7/	-13316
▁Wi	-13317
▁outlined	-13318
▁wastewater	-13319
▁rash	-13320
▁Recomm	-13321
▁clinic	-13322
▁disabled	-13323
▁Run	-13324
redict	-13325
▁frames	-13326
▁designer	-13327
▁critically	-13328
▁sixth	-13329
▁ventilation	-13330
▁economically	-13331
▁coh	-13332
▁dissolved	-13333
▁grasp	-13334
stud	-13335
▁connects	-13336
articles	-13337
▁Basin	-13338
▁spirits	-13339
▁factories	-13340
▁untreated	-13341
eps	-13342
▁Software	-13343
▁satisfied	-13344
Im	-13345
▁info	-13346
▁apples	-13347
▁primitive	-13348
▁Moore	-13349
▁anxious	-13350
▁failing	-13351
▁Ever	-13352
dem	-13353
wich	-13354
▁Fif	-13355
▁accordingly	-13356
▁centres	-13357
▁Anton	-13358
▁myths	-13359
▁Sydney	-13360
▁McK	-13361
▁Beach	-13362
▁Growth	-13363
▁95	-13364
engu	-13365
▁Salt	-13366
▁Foot	-13367
▁afterwards	-13368
4-	-13369
▁riding	-13370
▁purely	-13371
▁abdomen	-13372
▁Creating	-13373
▁maintains	-13374
▁amph	-13375
▁liber	-13376
edic	-13377
stan	-13378
▁arom	-13379
▁immers	-13380
▁temples	-13381
▁Wright	-13382
▁activation	-13383
▁disappeared	-13384
▁sanct	-13385
autions	-13386
ogenesis	-13387
bound	-13388
piece	-13389
▁ants	-13390
▁indoors	-13391
▁tourists	-13392
▁Denmark	-13393
▁Proceed	-13394
▁requested	-13395
▁2003,	-13396
▁stopping	-13397
▁tears	-13398
▁algebra	-13399
▁Extension	-13400
▁bon	-13401
adi	-13402
▁Stage	-13403
zes	-13404
reach	-13405
▁restaurants	-13406
tech	-13407
▁cel	-13408
▁Walter	-13409
▁Einstein	-13410
▁compiled	-13411
▁queen	-13412
▁posture	-13413
▁episodes	-13414
▁Dark	-13415
▁oun	-13416
coma	-13417
▁130	-13418
arette	-13419
▁instinct	-13420
▁tomatoes	-13421
▁inevitable	-13422
bird	-13423
▁1).	-13424
ancies	-13425
▁cortex	-13426
aman	-13427
raul	-13428
▁nasal	-13429
▁variants	-13430
▁besides	-13431
▁Fox	-13432
acerb	-13433
▁drying	-13434
▁recipes	-13435
▁enhancing	-13436
▁worksheet	-13437
▁compromise	-13438
▁heading	-13439
▁attribute	-13440
▁hub	-13441
▁Weather	-13442
Fi	-13443
▁priorities	-13444
-11	-13445
▁gluten	-13446
▁infest	-13447
▁rhet	-13448
▁DE	-13449
▁oak	-13450
▁Live	-13451
ulture	-13452
▁edit	-13453
▁warfare	-13454
▁resolved	-13455
amous	-13456
▁Various	-13457
▁Archived	-13458
▁piano	-13459
▁consec	-13460
▁Mun	-13461
▁delivering	-13462
itime	-13463
▁fortun	-13464
depth	-13465
▁schemes	-13466
▁arrangements	-13467
▁40%	-13468
▁Hug	-13469
imore	-13470
▁recognised	-13471
▁negotiations	-13472
▁recommendation	-13473
▁eternal	-13474
▁Camb	-13475
▁appropriately	-13476
AND	-13477
▁Legisl	-13478
▁temporal	-13479
Can	-13480
▁10.10	-13481
▁VI	-13482
opor	-13483
▁metall	-13484
atics	-13485
▁opio	-13486
▁illustrates	-13487
▁OK	-13488
▁strings	-13489
▁monaster	-13490
▁fost	-13491
▁sulfur	-13492
▁Nan	-13493
▁countless	-13494
▁Professional	-13495
▁Eu	-13496
▁Nev	-13497
▁cum	-13498
▁Lakes	-13499
herence	-13500
▁2000.	-13501
GA	-13502
▁drill	-13503
63	-13504
week	-13505
▁Ms	-13506
▁mobil	-13507
▁Saturn	-13508
▁perceptions	-13509
▁wellbeing	-13510
OV	-13511
test	-13512
▁examines	-13513
SE	-13514
▁regards	-13515
▁Multiple	-13516
▁Ky	-13517
ipt	-13518
▁rip	-13519
ppers	-13520
▁cruel	-13521
▁urgent	-13522
▁ram	-13523
▁Foods	-13524
▁settlements	-13525
▁unsu	-13526
▁urinary	-13527
▁underwater	-13528
▁prelim	-13529
▁failures	-13530
▁Philosophy	-13531
▁terrain	-13532
▁Magazine	-13533
ania	-13534
▁stocks	-13535
▁mant	-13536
▁unions	-13537
▁Bull	-13538
▁sequencing	-13539
▁Cand	-13540
▁seizures	-13541
▁hasn	-13542
▁stain	-13543
▁remedies	-13544
ioned	-13545
▁obtaining	-13546
▁dozens	-13547
▁jun	-13548
▁Term	-13549
▁shells	-13550
▁uncomfortable	-13551
▁Changes	-13552
▁Europeans	-13553
▁emphasize	-13554
▁sufficiently	-13555
▁forcing	-13556
▁troubles	-13557
▁2021	-13558
▁handful	-13559
▁watering	-13560
▁aggression	-13561
▁Joint	-13562
▁whale	-13563
▁True	-13564
▁unwanted	-13565
alling	-13566
50,	-13567
cerpt	-13568
▁microbial	-13569
▁silk	-13570
▁mitigate	-13571
▁hes	-13572
▁problematic	-13573
▁traff	-13574
▁passenger	-13575
▁prediction	-13576
pres	-13577
ethyl	-13578
▁Signs	-13579
▁Problem	-13580
▁Beng	-13581
▁parish	-13582
▁strengthening	-13583
▁voy	-13584
▁Universe	-13585
▁touching	-13586
▁draws	-13587
ili	-13588
▁crystals	-13589
▁peripheral	-13590
Qu	-13591
plicit	-13592
▁metaphor	-13593
▁watershed	-13594
▁publishing	-13595
▁unconscious	-13596
▁quoted	-13597
▁lectures	-13598
idth	-13599
▁Notes	-13600
culosis	-13601
▁clot	-13602
source	-13603
▁naval	-13604
▁harness	-13605
▁Lev	-13606
▁Ta	-13607
▁rigid	-13608
▁adjusted	-13609
▁eager	-13610
hu	-13611
ante	-13612
▁CON	-13613
▁Brig	-13614
62	-13615
pler	-13616
some	-13617
▁pulp	-13618
▁exceptional	-13619
▁Apart	-13620
▁(2011	-13621
imental	-13622
urities	-13623
emen	-13624
▁preliminary	-13625
▁IM	-13626
▁tutorial	-13627
▁Gand	-13628
▁dignity	-13629
report	-13630
lan	-13631
▁Explain	-13632
Table	-13633
site	-13634
▁burns	-13635
▁ana	-13636
▁Brand	-13637
▁Citiz	-13638
▁Measure	-13639
▁electroly	-13640
▁breakthrough	-13641
▁pean	-13642
▁Summary	-13643
▁investigating	-13644
educ	-13645
▁Members	-13646
▁deficit	-13647
▁oct	-13648
▁exacerb	-13649
▁reproduce	-13650
▁obligations	-13651
▁modifications	-13652
erk	-13653
▁110	-13654
▁jewel	-13655
PE	-13656
ocide	-13657
▁publish	-13658
▁Palestine	-13659
▁permanently	-13660
▁dot	-13661
▁Jenn	-13662
▁translate	-13663
achelor	-13664
othel	-13665
▁tire	-13666
▁Abs	-13667
▁Dakota	-13668
▁palace	-13669
▁DS	-13670
uliar	-13671
▁Disorder	-13672
▁asbestos	-13673
▁sits	-13674
rative	-13675
▁acidic	-13676
▁solved	-13677
ignty	-13678
▁balls	-13679
▁walked	-13680
▁drilling	-13681
roscience	-13682
▁biblical	-13683
▁climb	-13684
▁’	-13685
axis	-13686
▁Dra	-13687
oglob	-13688
▁perenn	-13689
▁microscope	-13690
ben	-13691
▁EL	-13692
▁Fest	-13693
ailand	-13694
▁2018.	-13695
▁blade	-13696
ricular	-13697
▁plural	-13698
▁linguistic	-13699
ige	-13700
▁Moscow	-13701
▁silence	-13702
▁counterparts	-13703
▁wre	-13704
▁asym	-13705
▁stool	-13706
ressions	-13707
▁Consult	-13708
▁demanding	-13709
second	-13710
▁intric	-13711
igo	-13712
▁counseling	-13713
orrh	-13714
▁isot	-13715
▁Czech	-13716
▁abortion	-13717
▁fans	-13718
▁Simple	-13719
▁livelihood	-13720
▁Graph	-13721
▁monarch	-13722
▁straightforward	-13723
itches	-13724
home	-13725
▁wheels	-13726
▁consistency	-13727
don	-13728
▁portable	-13729
▁bug	-13730
▁Brother	-13731
▁astronomers	-13732
len	-13733
▁YouTube	-13734
▁trillion	-13735
▁aug	-13736
▁eco	-13737
ensions	-13738
▁Howard	-13739
▁elaborate	-13740
▁everybody	-13741
▁suspended	-13742
▁incorporating	-13743
▁energ	-13744
▁Peru	-13745
▁united	-13746
▁Gib	-13747
▁arises	-13748
▁approaching	-13749
▁4)	-13750
▁140	-13751
▁horizon	-13752
▁feathers	-13753
▁Eye	-13754
▁secured	-13755
▁combines	-13756
▁stro	-13757
retion	-13758
bitious	-13759
▁formats	-13760
▁1992	-13761
▁RF	-13762
▁dwarf	-13763
▁Content	-13764
▁proposals	-13765
▁Frederick	-13766
sight	-13767
▁lin	-13768
▁Stay	-13769
/20	-13770
▁modest	-13771
▁sexually	-13772
serv	-13773
▁Bos	-13774
▁goddess	-13775
building	-13776
▁Federation	-13777
▁ket	-13778
endix	-13779
▁smile	-13780
▁litter	-13781
▁conditioning	-13782
▁homeless	-13783
▁Ord	-13784
▁interconn	-13785
log	-13786
▁Sports	-13787
▁ammon	-13788
▁cargo	-13789
▁Cloud	-13790
lighten	-13791
bling	-13792
▁Dh	-13793
▁2001,	-13794
aza	-13795
ardo	-13796
▁medicinal	-13797
ouch	-13798
▁Lef	-13799
▁excluded	-13800
▁networking	-13801
uning	-13802
prot	-13803
fin	-13804
▁Gram	-13805
▁rept	-13806
▁Academic	-13807
▁Ethiopia	-13808
sels	-13809
▁sins	-13810
▁Bart	-13811
▁incons	-13812
▁Comment	-13813
▁170	-13814
▁Cos	-13815
▁Partners	-13816
▁mandatory	-13817
acity	-13818
nowned	-13819
▁washed	-13820
▁intoler	-13821
▁Late	-13822
▁mysterious	-13823
▁pipeline	-13824
▁simulations	-13825
▁teenagers	-13826
▁Curriculum	-13827
▁Khan	-13828
▁lowering	-13829
▁Der	-13830
▁grazing	-13831
▁reconstruct	-13832
ulse	-13833
▁keyboard	-13834
▁Datab	-13835
▁Bitcoin	-13836
▁Manufact	-13837
▁modification	-13838
pin	-13839
pack	-13840
erce	-13841
ulas	-13842
▁Communist	-13843
▁respondents	-13844
ilingual	-13845
▁discount	-13846
▁Northwest	-13847
▁companion	-13848
▁drum	-13849
▁stimuli	-13850
▁Proceedings	-13851
ti	-13852
▁comprises	-13853
ATE	-13854
▁Hi	-13855
roximately	-13856
▁microorganisms	-13857
ardless	-13858
mother	-13859
▁template	-13860
▁preserving	-13861
aunt	-13862
▁stimulus	-13863
▁presentations	-13864
pha	-13865
▁substrate	-13866
esthesia	-13867
▁formerly	-13868
▁Quant	-13869
John	-13870
▁learner	-13871
▁ultrasound	-13872
▁31,	-13873
food	-13874
▁trunk	-13875
▁landed	-13876
▁clarity	-13877
▁specify	-13878
▁chromosome	-13879
▁LGBT	-13880
▁assass	-13881
▁radius	-13882
▁Agreement	-13883
▁hay	-13884
▁URL	-13885
▁rituals	-13886
▁strongest	-13887
▁disappoint	-13888
▁Price	-13889
▁Venus	-13890
▁treats	-13891
▁formally	-13892
bes	-13893
▁lawyer	-13894
▁disciples	-13895
▁lion	-13896
▁Juda	-13897
▁petition	-13898
esthet	-13899
▁Virtual	-13900
▁prohibited	-13901
IH	-13902
Ne	-13903
▁pursuit	-13904
rod	-13905
▁bol	-13906
▁pressing	-13907
neath	-13908
Res	-13909
▁Chi	-13910
▁File	-13911
▁Babylon	-13912
vic	-13913
▁1/2	-13914
plicity	-13915
▁Isaac	-13916
obia	-13917
vasive	-13918
▁responding	-13919
▁Adapt	-13920
▁adventure	-13921
mi	-13922
▁Christopher	-13923
Lear	-13924
onut	-13925
▁noting	-13926
▁colorful	-13927
▁58	-13928
insic	-13929
▁trusted	-13930
▁respected	-13931
7–	-13932
style	-13933
▁curiosity	-13934
▁Alt	-13935
▁maximize	-13936
BL	-13937
iage	-13938
▁rust	-13939
▁beverages	-13940
▁Wang	-13941
▁alignment	-13942
hol	-13943
▁LE	-13944
expl	-13945
ilage	-13946
leans	-13947
▁bush	-13948
▁lasts	-13949
▁bureau	-13950
▁puzzle	-13951
▁pm	-13952
▁oscill	-13953
▁snack	-13954
▁retired	-13955
▁daughters	-13956
▁dop	-13957
▁garlic	-13958
▁desires	-13959
stock	-13960
▁Delhi	-13961
▁Margaret	-13962
▁Thailand	-13963
▁compelling	-13964
▁bulb	-13965
ifiable	-13966
▁alternate	-13967
▁Ori	-13968
▁parameter	-13969
uto	-13970
▁frost	-13971
-16	-13972
▁Ltd	-13973
estab	-13974
▁turtles	-13975
dependent	-13976
charge	-13977
▁induce	-13978
▁Alexand	-13979
▁freezing	-13980
flower	-13981
tha	-13982
▁elite	-13983
▁producer	-13984
▁Soon	-13985
▁allies	-13986
birds	-13987
▁Individuals	-13988
92	-13989
uru	-13990
▁hoping	-13991
▁RA	-13992
ivic	-13993
▁Planet	-13994
▁parental	-13995
alia	-13996
▁congest	-13997
▁vascular	-13998
▁nationwide	-13999
▁Hud	-14000
month	-14001
▁wishes	-14002
aux	-14003
▁recruit	-14004
▁abnormalities	-14005
pub	-14006
▁Rot	-14007
▁Thom	-14008
▁shame	-14009
▁shelf	-14010
▁tonnes	-14011
▁Animals	-14012
▁disagree	-14013
▁recreational	-14014
▁veterinarian	-14015
▁Eve	-14016
▁hob	-14017
uz	-14018
▁flee	-14019
▁triangle	-14020
▁Pun	-14021
opsy	-14022
▁harvested	-14023
vised	-14024
▁reflecting	-14025
▁temporarily	-14026
ector	-14027
▁shower	-14028
▁transparency	-14029
▁Sad	-14030
▁gravitational	-14031
.3	-14032
▁orch	-14033
via	-14034
▁mas	-14035
count	-14036
▁Safe	-14037
▁supporters	-14038
▁flux	-14039
▁carved	-14040
▁microw	-14041
▁occasional	-14042
▁pad	-14043
doc	-14044
conscious	-14045
ocur	-14046
▁nutrit	-14047
izophrenia	-14048
uce	-14049
▁hect	-14050
emics	-14051
amation	-14052
▁verify	-14053
▁Organic	-14054
▁storing	-14055
alg	-14056
istle	-14057
▁Hold	-14058
leys	-14059
With	-14060
▁Stra	-14061
▁tragedy	-14062
▁Description	-14063
ocate	-14064
opard	-14065
ograms	-14066
▁utter	-14067
keeping	-14068
="	-14069
▁sharks	-14070
anny	-14071
▁Cas	-14072
▁flags	-14073
▁Friends	-14074
cellular	-14075
▁entrepreneurs	-14076
▁wilderness	-14077
▁organizational	-14078
▁×	-14079
▁Colomb	-14080
▁tent	-14081
▁hanging	-14082
▁Bron	-14083
▁Used	-14084
note	-14085
▁exit	-14086
expensive	-14087
▁Harry	-14088
oporosis	-14089
▁empirical	-14090
▁pilgrim	-14091
▁SA	-14092
▁Alber	-14093
▁stays	-14094
overs	-14095
pher	-14096
rians	-14097
▁Gospel	-14098
▁worthy	-14099
▁Subject	-14100
rator	-14101
▁editors	-14102
▁aesthetic	-14103
news	-14104
▁preventive	-14105
iatry	-14106
▁tourist	-14107
isan	-14108
▁excite	-14109
▁Columbus	-14110
TSD	-14111
▁Complete	-14112
▁Occup	-14113
▁2022	-14114
ophers	-14115
▁drama	-14116
▁communicating	-14117
▁rulers	-14118
▁interven	-14119
▁q	-14120
adian	-14121
▁Base	-14122
▁2004.	-14123
▁dye	-14124
▁Queens	-14125
▁upt	-14126
▁peculiar	-14127
▁7:	-14128
ctica	-14129
▁variant	-14130
▁Document	-14131
▁Nile	-14132
▁societal	-14133
▁Records	-14134
▁birthday	-14135
▁contacts	-14136
illes	-14137
▁crude	-14138
▁poses	-14139
▁8:	-14140
onder	-14141
▁letting	-14142
▁Band	-14143
▁foliage	-14144
▁coordinate	-14145
▁SQL	-14146
fram	-14147
▁ambitious	-14148
▁shortage	-14149
▁Antarctic	-14150
▁switching	-14151
uter	-14152
▁farther	-14153
▁appar	-14154
▁burst	-14155
▁deny	-14156
▁dermat	-14157
mans	-14158
▁ore	-14159
▁Cart	-14160
agrams	-14161
tings	-14162
▁fathers	-14163
▁civilian	-14164
mel	-14165
laim	-14166
▁laugh	-14167
▁momentum	-14168
pen	-14169
▁Swiss	-14170
▁Olympic	-14171
72	-14172
opa	-14173
▁Amb	-14174
▁2019.	-14175
▁shops	-14176
▁Joe	-14177
▁Guinea	-14178
som	-14179
▁trash	-14180
▁resting	-14181
▁3,000	-14182
▁Allow	-14183
▁inferior	-14184
▁imped	-14185
▁adulthood	-14186
hew	-14187
▁illustration	-14188
ims	-14189
▁thir	-14190
▁Parks	-14191
▁(0.	-14192
▁spill	-14193
ository	-14194
VI	-14195
▁Tel	-14196
▁Chair	-14197
▁charity	-14198
▁Critical	-14199
▁deriv	-14200
esterday	-14201
▁Orleans	-14202
▁differs	-14203
▁meta	-14204
▁assembled	-14205
▁organizing	-14206
▁Important	-14207
▁spider	-14208
▁trucks	-14209
▁Address	-14210
▁Dogs	-14211
oubted	-14212
▁relaxation	-14213
▁reluct	-14214
elta	-14215
▁supervision	-14216
▁gover	-14217
breaking	-14218
▁compatible	-14219
▁blend	-14220
▁infrared	-14221
▁targeting	-14222
▁Tob	-14223
astically	-14224
▁fracture	-14225
▁Programme	-14226
▁apost	-14227
▁petroleum	-14228
▁anyway	-14229
||1	-14230
speed	-14231
▁metric	-14232
▁periodic	-14233
▁abst	-14234
By	-14235
▁reefs	-14236
▁neighborhoods	-14237
▁Truth	-14238
▁exceptions	-14239
▁mad	-14240
▁deaf	-14241
▁spotted	-14242
▁Victorian	-14243
▁2020,	-14244
▁Calcul	-14245
▁seam	-14246
▁depressed	-14247
...]	-14248
▁Nelson	-14249
irie	-14250
▁Record	-14251
▁72	-14252
▁easiest	-14253
▁descent	-14254
▁Likewise	-14255
odus	-14256
▁macro	-14257
▁adaptive	-14258
▁Verm	-14259
▁dolph	-14260
▁proximity	-14261
▁contaminants	-14262
▁mol	-14263
▁glue	-14264
▁Silver	-14265
-30	-14266
orse	-14267
▁baking	-14268
▁judicial	-14269
View	-14270
▁signature	-14271
▁predominantly	-14272
▁Gab	-14273
▁pedest	-14274
▁Production	-14275
▁definitive	-14276
cha	-14277
▁timely	-14278
ensing	-14279
▁shifting	-14280
▁obligation	-14281
minute	-14282
▁Apollo	-14283
▁filed	-14284
▁pile	-14285
▁hotel	-14286
▁resort	-14287
▁welding	-14288
▁encryption	-14289
7:	-14290
▁adhes	-14291
▁cubic	-14292
▁backgrounds	-14293
▁Anglo	-14294
▁Mort	-14295
▁Sudan	-14296
▁incub	-14297
ativity	-14298
▁sanitation	-14299
▁enforce	-14300
▁iP	-14301
▁Explore	-14302
▁highway	-14303
gly	-14304
pop	-14305
aceous	-14306
▁handled	-14307
/200	-14308
▁Infant	-14309
▁seism	-14310
▁practically	-14311
atis	-14312
▁museums	-14313
▁Ka	-14314
process	-14315
▁fifteen	-14316
▁cylinder	-14317
▁processor	-14318
▁Respons	-14319
▁brands	-14320
imated	-14321
▁infinite	-14322
▁matches	-14323
fting	-14324
▁shark	-14325
▁tomorrow	-14326
▁specially	-14327
▁satisfy	-14328
9–	-14329
lad	-14330
▁emphasized	-14331
utenant	-14332
▁Lank	-14333
▁limb	-14334
▁00	-14335
▁shoulders	-14336
▁Say	-14337
▁Spect	-14338
▁analytical	-14339
ERE	-14340
▁nearest	-14341
▁Rule	-14342
▁barely	-14343
▁capitalism	-14344
▁54	-14345
▁simpler	-14346
math	-14347
▁asleep	-14348
▁claiming	-14349
welling	-14350
▁Simply	-14351
▁documentary	-14352
fn	-14353
▁unint	-14354
▁woods	-14355
▁parking	-14356
▁veterans	-14357
▁domains	-14358
▁righteous	-14359
▁dynasty	-14360
▁Ultimately	-14361
▁fright	-14362
inge	-14363
▁Member	-14364
▁evolving	-14365
▁firmly	-14366
▁defence	-14367
control	-14368
▁aligned	-14369
▁aquarium	-14370
▁participant	-14371
▁IoT	-14372
▁printer	-14373
group	-14374
prises	-14375
▁buffer	-14376
▁numerical	-14377
▁recognizing	-14378
▁verses	-14379
▁justify	-14380
▁administrators	-14381
holder	-14382
▁semic	-14383
▁bullet	-14384
▁cooler	-14385
▁attorney	-14386
▁commissioned	-14387
OG	-14388
▁10:	-14389
▁1993	-14390
itated	-14391
SR	-14392
▁pist	-14393
▁Taiwan	-14394
▁confusing	-14395
artz	-14396
▁Houston	-14397
▁reductions	-14398
itol	-14399
▁submar	-14400
▁delicious	-14401
▁stew	-14402
▁Marshall	-14403
PN	-14404
Why	-14405
▁da	-14406
esar	-14407
walk	-14408
▁dens	-14409
▁ministry	-14410
ysics	-14411
▁ethanol	-14412
▁declining	-14413
Or	-14414
elle	-14415
ocene	-14416
riages	-14417
bot	-14418
▁withstand	-14419
inters	-14420
▁synchron	-14421
▁exercising	-14422
▁52	-14423
▁thou	-14424
▁clues	-14425
▁Sierra	-14426
▁wherever	-14427
houses	-14428
▁Nearly	-14429
▁fisheries	-14430
▁sticks	-14431
▁holidays	-14432
▁Eric	-14433
▁specimen	-14434
ryst	-14435
▁pear	-14436
▁Baltimore	-14437
▁authorized	-14438
▁anemia	-14439
ridge	-14440
▁tutor	-14441
▁Religion	-14442
ragon	-14443
▁approached	-14444
▁offensive	-14445
▁headquarters	-14446
▁humanitarian	-14447
▁95%	-14448
▁Manual	-14449
▁concert	-14450
dose	-14451
▁Thor	-14452
▁dorm	-14453
▁memorial	-14454
▁Cov	-14455
▁Few	-14456
▁fantastic	-14457
▁Napole	-14458
▁armies	-14459
▁17.	-14460
▁NAT	-14461
▁sweat	-14462
▁yards	-14463
▁Dead	-14464
ilepsy	-14465
▁Solomon	-14466
▁Michel	-14467
upuncture	-14468
(1	-14469
▁Mercury	-14470
▁Roberts	-14471
▁scans	-14472
▁Everything	-14473
Sm	-14474
brev	-14475
olen	-14476
▁Seven	-14477
▁fungal	-14478
▁jar	-14479
▁odor	-14480
▁Hyper	-14481
▁conve	-14482
▁expressing	-14483
▁tie	-14484
gencies	-14485
▁maturity	-14486
▁portrait	-14487
▁neighboring	-14488
▁carn	-14489
▁trim	-14490
▁Range	-14491
▁gradual	-14492
threatening	-14493
▁restaurant	-14494
▁vend	-14495
▁acted	-14496
▁propri	-14497
▁coloring	-14498
▁composite	-14499
▁discourse	-14500
▁singular	-14501
▁Sources	-14502
▁Aristotle	-14503
▁dive	-14504
forming	-14505
▁precautions	-14506
▁HPV	-14507
▁masks	-14508
▁reass	-14509
▁voted	-14510
▁patron	-14511
▁occupational	-14512
▁5%	-14513
▁tactics	-14514
▁relevance	-14515
▁Antarctica	-14516
▁accessibility	-14517
ringe	-14518
▁coping	-14519
acial	-14520
▁Plat	-14521
▁exhibits	-14522
SD	-14523
▁Ga	-14524
▁prize	-14525
▁autonomy	-14526
▁irritation	-14527
▁subjective	-14528
▁bloodstream	-14529
isol	-14530
ivated	-14531
▁Increased	-14532
▁Gord	-14533
brates	-14534
alry	-14535
▁Universal	-14536
▁sie	-14537
▁Whatever	-14538
▁coli	-14539
▁cruc	-14540
iguous	-14541
▁Titan	-14542
▁clicking	-14543
▁courtesy	-14544
▁phosphorus	-14545
osynthesis	-14546
unks	-14547
▁Advis	-14548
▁antibody	-14549
▁25%	-14550
▁Lam	-14551
▁Saud	-14552
▁fluoride	-14553
▁2002,	-14554
▁pseud	-14555
▁Aware	-14556
▁dinosaurs	-14557
▁Peninsula	-14558
▁Construction	-14559
▁Tow	-14560
espan	-14561
igating	-14562
▁herbal	-14563
▁traced	-14564
hn	-14565
▁Pi	-14566
▁Pent	-14567
▁Byz	-14568
oubtedly	-14569
▁Ottoman	-14570
▁Ped	-14571
▁autoimmune	-14572
▁Oral	-14573
▁hell	-14574
▁Estab	-14575
▁Concept	-14576
▁gamb	-14577
▁turbine	-14578
▁determin	-14579
▁signaling	-14580
▁acre	-14581
▁limbs	-14582
▁upcoming	-14583
▁vein	-14584
▁Reports	-14585
tem	-14586
when	-14587
▁arsen	-14588
limited	-14589
▁deciding	-14590
▁elephant	-14591
lem	-14592
versely	-14593
▁treasure	-14594
TE	-14595
▁pulmonary	-14596
yg	-14597
▁Interestingly	-14598
▁Communications	-14599
▁climbing	-14600
▁estrogen	-14601
▁favorable	-14602
▁differential	-14603
▁Issues	-14604
▁underneath	-14605
▁Provide	-14606
raulic	-14607
▁membranes	-14608
▁(196	-14609
▁stresses	-14610
pa	-14611
▁deck	-14612
▁Iceland	-14613
▁2018,	-14614
▁reactor	-14615
MR	-14616
▁Birth	-14617
▁refuse	-14618
▁pulling	-14619
SC	-14620
yst	-14621
dec	-14622
▁weekend	-14623
ESCO	-14624
▁nests	-14625
▁Posted	-14626
▁cosmic	-14627
▁cookies	-14628
▁Cover	-14629
▁iv	-14630
ulph	-14631
▁Kid	-14632
▁qualitative	-14633
▁surprisingly	-14634
▁cannabis	-14635
▁philosopher	-14636
disciplinary	-14637
▁1991	-14638
▁leather	-14639
generative	-14640
▁Clinton	-14641
cap	-14642
▁gig	-14643
▁fibre	-14644
▁cables	-14645
▁paradigm	-14646
▁±	-14647
▁Ru	-14648
▁corrupt	-14649
5),	-14650
▁Ecology	-14651
▁Identify	-14652
▁demanded	-14653
▁Role	-14654
acterial	-14655
▁reminder	-14656
owing	-14657
▁imperative	-14658
izable	-14659
▁erected	-14660
▁commerce	-14661
▁continental	-14662
▁grocery	-14663
▁Liver	-14664
▁textbook	-14665
▁McD	-14666
700	-14667
isite	-14668
▁sprou	-14669
imeters	-14670
▁laying	-14671
▁revision	-14672
▁Guidelines	-14673
cost	-14674
ophil	-14675
▁punct	-14676
▁theor	-14677
nutrition	-14678
▁protests	-14679
▁exports	-14680
▁animation	-14681
▁lightning	-14682
▁guaranteed	-14683
▁profiles	-14684
▁advertise	-14685
▁hierarchy	-14686
▁servants	-14687
lie	-14688
▁Scripture	-14689
LY	-14690
▁Lang	-14691
▁dirty	-14692
▁upward	-14693
▁adequately	-14694
▁2003.	-14695
▁dealt	-14696
▁Cognitive	-14697
▁musicians	-14698
▁Stop	-14699
analysis	-14700
▁Experts	-14701
▁Disorders	-14702
▁kern	-14703
▁friendship	-14704
elong	-14705
urate	-14706
▁balloon	-14707
enc	-14708
▁toy	-14709
▁gam	-14710
▁flame	-14711
▁salvation	-14712
▁poster	-14713
▁salary	-14714
▁couples	-14715
▁sovereignty	-14716
market	-14717
▁Influ	-14718
ounding	-14719
▁elastic	-14720
▁inexpensive	-14721
73	-14722
weg	-14723
itably	-14724
▁manipulation	-14725
▁rewards	-14726
▁corrosion	-14727
astes	-14728
▁MR	-14729
atern	-14730
▁Recon	-14731
▁entries	-14732
▁HE	-14733
chy	-14734
lessness	-14735
▁0.5	-14736
▁Money	-14737
▁arose	-14738
▁visually	-14739
oria	-14740
ousing	-14741
▁Hopkins	-14742
▁comply	-14743
▁hollow	-14744
▁Side	-14745
▁Employ	-14746
due	-14747
▁Commonwealth	-14748
▁Nag	-14749
▁Steve	-14750
▁Gender	-14751
▁fitted	-14752
▁Square	-14753
▁advise	-14754
▁glow	-14755
▁Flore	-14756
▁Susan	-14757
▁serum	-14758
▁territorial	-14759
▁DA	-14760
▁asteroid	-14761
▁Lith	-14762
direct	-14763
inence	-14764
▁renowned	-14765
▁cooperative	-14766
pus	-14767
ensis	-14768
ificant	-14769
▁Puerto	-14770
irts	-14771
▁keen	-14772
▁introduces	-14773
▁equilibrium	-14774
TO	-14775
▁20.	-14776
▁climates	-14777
▁spectacular	-14778
▁ib	-14779
▁IBM	-14780
▁Arabia	-14781
▁pocket	-14782
aders	-14783
▁Brun	-14784
▁Want	-14785
▁validity	-14786
▁runoff	-14787
▁Robinson	-14788
▁70%	-14789
▁sap	-14790
▁phyl	-14791
▁neurop	-14792
▁Articles	-14793
▁packages	-14794
gree	-14795
▁trium	-14796
▁likewise	-14797
▁simplest	-14798
HC	-14799
6),	-14800
▁Shel	-14801
▁craw	-14802
ansk	-14803
▁terrestrial	-14804
▁commercially	-14805
84	-14806
Int	-14807
▁compuls	-14808
▁passwords	-14809
▁lips	-14810
▁perme	-14811
ollen	-14812
idation	-14813
▁linking	-14814
▁Hispanic	-14815
▁deforestation	-14816
▁incomplete	-14817
▁Application	-14818
▁iod	-14819
chem	-14820
prof	-14821
61	-14822
94	-14823
▁nour	-14824
▁planetary	-14825
-14	-14826
▁ceiling	-14827
▁adjustments	-14828
▁breastfeeding	-14829
▁Categ	-14830
9:	-14831
roit	-14832
orescent	-14833
30,	-14834
▁genre	-14835
width	-14836
▁Batt	-14837
▁embod	-14838
▁gauge	-14839
▁Memory	-14840
▁abandon	-14841
▁picking	-14842
–2	-14843
▁Chris	-14844
▁moder	-14845
▁eruption	-14846
▁tales	-14847
▁congress	-14848
▁Forum	-14849
▁nights	-14850
▁selective	-14851
▁athe	-14852
▁lamp	-14853
▁adject	-14854
▁misunder	-14855
olics	-14856
▁cleaner	-14857
lightenment	-14858
▁Task	-14859
ignant	-14860
▁attraction	-14861
FT	-14862
sea	-14863
▁Alb	-14864
▁batt	-14865
▁curt	-14866
▁hits	-14867
▁sooner	-14868
odium	-14869
▁Tun	-14870
▁correction	-14871
▁epic	-14872
▁Nepal	-14873
▁Maint	-14874
ijing	-14875
▁stating	-14876
▁stressful	-14877
▁Yale	-14878
▁Knowing	-14879
▁Seattle	-14880
▁Originally	-14881
▁wellness	-14882
▁fractures	-14883
▁novels	-14884
REE	-14885
oustic	-14886
ersonal	-14887
▁Tut	-14888
▁Athens	-14889
[...]
